<pad>	0
<unk>	0
<s>	0
</s>	0
ার	-0
য়	-1
্র	-2
▁ব	-3
▁স	-4
▁প	-5
্য	-6
▁এ	-7
ের	-8
▁ক	-9
▁ম	-10
ান	-11
▁হ	-12
▁অ	-13
▁আ	-14
▁জ	-15
্ত	-16
াল	-17
▁ত	-18
▁ন	-19
িক	-20
▁দ	-21
টি	-22
লা	-23
র্	-24
িত	-25
▁প্র	-26
ন্	-27
▁১	-28
রে	-29
▁ভ	-30
▁শ	-31
রা	-32
্ব	-33
▁গ	-34
্ট	-35
িন	-36
▁চ	-37
াক	-38
▁বি	-39
াম	-40
লে	-41
▁উ	-42
▁য	-43
িয়	-44
▁এক	-45
▁বা	-46
েশ	-47
াব	-48
াত	-49
▁ও	-50
ায়	-51
▁ই	-52
িল	-53
ুর	-54
ার্	-55
াই	-56
▁খ	-57
্ষ	-58
▁২	-59
াস	-60
▁করে	-61
েক	-62
ছে	-63
▁ফ	-64
েল	-65
তি	-66
্চ	-67
ড়	-68
িস	-69
াদ	-70
▁র	-71
▁হয়	-72
▁ট	-73
বং	-74
▁পর	-75
▁এবং	-76
তে	-77
▁এর	-78
ীয়	-79
▁ছ	-80
স্	-81
▁১৯	-82
▁থ	-83
▁অন	-84
েন	-85
▁জন	-86
ত্র	-87
▁রা	-88
েম	-89
▁এই	-90
্প	-91
ির	-92
্যা	-93
▁সম	-94
▁২০	-95
িম	-96
ুল	-97
▁ড	-98
▁সাল	-99
বি	-100
▁নি	-101
▁একটি	-102
ুন	-103
▁ভার	-104
ন্দ	-105
োগ	-106
▁ল	-107
দেশ	-108
ধ্য	-109
▁সা	-110
ষ্	-111
ক্ত	-112
▁ভারত	-113
েট	-114
থ্য	-115
বে	-116
▁বাং	-117
▁আর	-118
▁উপ	-119
কার	-120
▁বাংলা	-121
▁তথ্য	-122
▁দে	-123
চ্চ	-124
াপ	-125
▁তার	-126
সূ	-127
ঙ্	-128
▁ব্য	-129
ক্ষ	-130
েকে	-131
সূত্র	-132
▁তথ্যসূত্র	-133
য়ে	-134
সং	-135
দের	-136
িনি	-137
▁সং	-138
দ্	-139
স্থ	-140
ন্ত	-141
জন	-142
▁থেকে	-143
িত্র	-144
্যান	-145
▁বাংলাদেশ	-146
▁পা	-147
▁কর	-148
▁মধ্য	-149
▁অব	-150
াগ	-151
িব	-152
ঙ্গ	-153
হর	-154
স্ট	-155
▁স্	-156
যোগ	-157
টা	-158
▁৫	-159
য়ে	-160
▁মা	-161
্ড	-162
ৃত	-163
লাম	-164
াজ	-165
▁নাম	-166
ীর	-167
মান	-168
না	-169
ষ্ট	-170
▁হল	-171
্বর	-172
ষ্ঠ	-173
▁সে	-174
▁বিশ	-175
▁ধ	-176
▁শহর	-177
▁আম	-178
র্ব	-179
ারি	-180
াহ	-181
▁মার্	-182
▁পুর	-183
▁করেন	-184
▁ছিল	-185
কে	-186
▁ক্র	-187
▁প্রতি	-188
▁করা	-189
▁কো	-190
▁তিনি	-191
প্র	-192
ভি	-193
▁চল	-194
▁গ্র	-195
য়া	-196
্জ	-197
্যাল	-198
▁মধ্যে	-199
▁সালে	-200
▁হার	-201
নের	-202
ানে	-203
হি	-204
ত্ত	-205
চ্চিত্র	-206
▁চলচ্চিত্র	-207
তার	-208
েম্বর	-209
াকা	-210
▁ভারতের	-211
টার	-212
েলার	-213
▁অনু	-214
▁২০০	-215
্স	-216
কা	-217
ন্ম	-218
িয়ে	-219
তা	-220
র্ম	-221
নে	-222
▁দেখ	-223
▁রাজ	-224
▁হয়ে	-225
বর	-226
াষ	-227
িজ	-228
িয়া	-229
▁জন্ম	-230
দ্ধ	-231
▁লা	-232
ারে	-233
ুক্ত	-234
্দ	-235
ংশ	-236
▁না	-237
▁১০	-238
িকা	-239
▁কম	-240
▁জন্য	-241
ারা	-242
▁৩	-243
লেন	-244
থে	-245
▁ইউ	-246
ঞ্চ	-247
▁কা	-248
গ্র	-249
▁বিশ্ব	-250
পুর	-251
▁রে	-252
▁ঘ	-253
▁২০১	-254
ারণ	-255
িচ	-256
োল	-257
ুম	-258
াদের	-259
াও	-260
্ল	-261
▁৪	-262
▁৬	-263
▁বেশ	-264
স্ত	-265
াক্ষ	-266
▁অবস্থ	-267
িং	-268
াকে	-269
▁ভাষ	-270
ারী	-271
▁স্ব	-272
েলা	-273
▁বহি	-274
▁এটি	-275
ছি	-276
▁ভাল	-277
ঞ্জ	-278
ীন	-279
▁জেলার	-280
্ঞ	-281
ুষ	-282
াক্ষর	-283
োর	-284
িক্ষ	-285
বিদ	-286
ীব	-287
▁সাক্ষর	-288
ুয়	-289
▁সাক্ষরতার	-290
▁বহিঃ	-291
সংখ	-292
সংযোগ	-293
▁ক্রিক	-294
▁বহিঃসংযোগ	-295
▁হিস	-296
ানের	-297
▁মি	-298
▁ক্রিকেট	-299
েই	-300
▁ব্যব	-301
াচ	-302
ন্ট	-303
্যু	-304
িপ	-305
▁আস	-306
্যার	-307
ন্ড	-308
▁যে	-309
▁জনসংখ	-310
র্ণ	-311
▁কি	-312
থম	-313
▁সু	-314
ন্ন	-315
োট	-316
োক	-317
▁সালের	-318
▁নদ	-319
▁সাথে	-320
▁আই	-321
টির	-322
জাত	-323
জ্ঞ	-324
▁অর্	-325
▁স্থ	-326
▁শিক্ষ	-327
▁বাংলাদেশের	-328
▁লে	-329
্রি	-330
াবে	-331
ছর	-332
জি	-333
শন	-334
▁দু	-335
িতে	-336
▁সব	-337
সি	-338
▁মু	-339
▁যা	-340
্ম	-341
লাই	-342
▁জান	-343
▁বছর	-344
খানে	-345
▁দ্ব	-346
▁মার্ক	-347
ধান	-348
▁ফু	-349
ারের	-350
▁পরিচ	-351
▁জু	-352
র্ত	-353
নি	-354
▁অভ	-355
গুল	-356
▁প্রতিষ্ঠ	-357
▁জাত	-358
সম	-359
▁তাল	-360
▁৭	-361
সে	-362
রি	-363
াড়	-364
ানি	-365
্যালয়	-366
▁খে	-367
াণ	-368
▁৮	-369
▁মার্কিন	-370
েবে	-371
▁ভারতীয়	-372
▁স্ট	-373
▁প্রথম	-374
ুয়ারি	-375
োম	-376
▁ডিস	-377
হাস	-378
▁১৮	-379
শ্চ	-380
▁মৃত	-381
্লে	-382
▁হিসেবে	-383
▁অনেক	-384
িকে	-385
▁আল	-386
েস্ট	-387
▁ব্যক্ত	-388
গে	-389
▁জীব	-390
্যান্ড	-391
▁পুরুষ	-392
▁ছি	-393
্লা	-394
ীত	-395
▁তাদের	-396
▁কে	-397
▁অক	-398
লের	-399
▁পূ	-400
্টো	-401
চ্	-402
্যের	-403
ওয়	-404
▁ভালো	-405
▁নারী	-406
োন	-407
েষ	-408
িয়ার	-409
াধ	-410
াব্দ	-411
বার	-412
ন্ধ	-413
প্ট	-414
াত্র	-415
হার	-416
ছেন	-417
শ্চিম	-418
▁উত্ত	-419
▁মৃত্যু	-420
▁তালিকা	-421
▁জুন	-422
▁নদী	-423
▁একজন	-424
▁জাতীয়	-425
▁শহরের	-426
ুব	-427
▁পশ্চিম	-428
িণ	-429
ষ্ট্র	-430
▁খাব	-431
▁মার্চ	-432
▁৯	-433
▁অভিন	-434
গর	-435
▁অবস্থিত	-436
▁সম্প	-437
▁ছিলেন	-438
▁১৯৯	-439
▁বেশি	-440
ক্র	-441
জ্ঞান	-442
▁পরিব	-443
থা	-444
▁এপ্র	-445
▁ডিসেম্বর	-446
▁জুলাই	-447
▁অক্টো	-448
▁সেপ্ট	-449
খন	-450
▁জানুয়ারি	-451
▁এপ্রিল	-452
▁পার	-453
▁ইউন	-454
▁চিক	-455
▁পর্য	-456
▁সেপ্টেম্বর	-457
ন্ত্র	-458
▁অক্টোবর	-459
▁মে	-460
▁পদ	-461
০০	-462
ুদ	-463
স্কার	-464
েশন	-465
িয়ে	-466
ূল	-467
▁টাকা	-468
▁ফুট	-469
ন্দ্র	-470
▁ব্যক্তি	-471
▁মান	-472
▁দক্ষ	-473
▁যায়	-474
িয়ন	-475
ার্থ	-476
▁ঢ	-477
▁সি	-478
ুরু	-479
▁নে	-480
তিহাস	-481
বল	-482
ছু	-483
কের	-484
ভাগ	-485
কর	-486
▁দক্ষিণ	-487
য়া	-488
▁ইং	-489
োস	-490
াঁ	-491
▁পুরস্কার	-492
▁সদ	-493
মে	-494
▁ফ্র	-495
▁মহ	-496
পর	-497
▁জনসংখ্যার	-498
▁বিশ্ববিদ	-499
কাল	-500
▁শত	-501
াত্ত	-502
▁টা	-503
▁অধ	-504
▁দেখুন	-505
▁বল	-506
▁আরও	-507
▁থাকে	-508
▁এখানে	-509
ছিল	-510
▁১৯৮	-511
ান্ত	-512
▁আছে	-513
ডি	-514
▁সর	-515
টে	-516
▁কিছু	-517
▁কোন	-518
▁উপজ	-519
▁আন্ত	-520
র্গ	-521
িউ	-522
▁অফ	-523
োপ	-524
িশ	-525
▁সাধ	-526
▁বিশ্ববিদ্যালয়	-527
্যাস	-528
▁চিকেন	-529
ূহ	-530
ানা	-531
▁কিন	-532
▁আমার	-533
▁হয়েছে	-534
▁সাম	-535
োয়া	-536
র্ষ	-537
্ন	-538
▁অঞ্চ	-539
তম	-540
ড়া	-541
হণ	-542
▁করতে	-543
▁টি	-544
ত্য	-545
▁আদ	-546
সের	-547
▁কল	-548
টন	-549
জয়	-550
▁অংশ	-551
▁মত	-552
য়েছে	-553
েত্র	-554
▁শ্র	-555
▁ব্র	-556
্তু	-557
▁সময়	-558
ালি	-559
ুদ্ধ	-560
াতে	-561
▁উদ্	-562
র্জাত	-563
ায়ী	-564
াট	-565
▁১৯৭	-566
্যাম	-567
▁আন্তর্জাত	-568
▁নির্ব	-569
▁ইতিহাস	-570
▁প্রধান	-571
নী	-572
▁বিজয়	-573
▁রয়েছে	-574
লী	-575
য়ার	-576
লিম	-577
িস্ত	-578
ুপ	-579
▁উই	-580
▁সাধারণ	-581
▁গে	-582
▁পর্যন্ত	-583
▁বিভাগ	-584
▁ব্যা	-585
চ্ছে	-586
▁উত্তর	-587
ায়	-588
▁পে	-589
▁আন্তর্জাতিক	-590
ুক	-591
▁অন্য	-592
▁প্রতিষ্ঠিত	-593
▁যুক্ত	-594
েস	-595
▁জেলা	-596
▁অনুস	-597
▁বার্	-598
▁খেল	-599
োর্	-600
ৃতি	-601
▁ভাষা	-602
বাদ	-603
ভাবে	-604
▁ছিলো	-605
লি	-606
স্য	-607
চে	-608
▁ক্ষ	-609
দি	-610
▁ক্রিকেটার	-611
▁উপাত্ত	-612
ালা	-613
▁টেস্ট	-614
ওয়া	-615
▁রো	-616
▁নির্বাচ	-617
▁ইংরে	-618
▁এলা	-619
▁শতাব্দ	-620
▁ব্যবহার	-621
▁স্প	-622
▁কার	-623
▁পরিচাল	-624
▁বিজয়ী	-625
▁কিন্তু	-626
ন্স	-627
▁কাজ	-628
▁ঝ	-629
▁উচ্চ	-630
▁থাক	-631
▁ট্র	-632
▁স্থান	-633
▁পূর্ব	-634
▁বর্ত	-635
▁সঙ্গ	-636
ছিলাম	-637
▁একটা	-638
▁মো	-639
▁১৫	-640
▁খাবার	-641
িকার	-642
▁নিয়ে	-643
▁হতে	-644
▁বলে	-645
গার	-646
▁বর্তমান	-647
বা	-648
▁দেশ	-649
▁দল	-650
োয়াড়	-651
▁স্ক	-652
▁খেলোয়াড়	-653
জার	-654
▁দুই	-655
▁হচ্ছে	-656
▁লোক	-657
িয়ান	-658
▁দাম	-659
▁রাজ্যের	-660
িদ	-661
কাশ	-662
▁অনুসারে	-663
▁বিদ	-664
▁খুব	-665
▁ফুটবল	-666
▁দিয়ে	-667
▁বয়	-668
ন্দর	-669
▁মূল	-670
▁এশ	-671
▁শুরু	-672
াতা	-673
▁লি	-674
ভূ	-675
দিন	-676
▁১২	-677
▁আব	-678
িভি	-679
▁গণ	-680
▁ইউনিয়ন	-681
▁আমি	-682
▁জনসংখ্যা	-683
শে	-684
জে	-685
▁এম	-686
▁পু	-687
▁১৭	-688
বর্ত	-689
খে	-690
▁দশ	-691
টেম	-692
সমূহ	-693
▁তাই	-694
ভিন্ন	-695
▁উৎ	-696
▁তবে	-697
▁পরিচিত	-698
▁সরকার	-699
▁সহ	-700
াইল	-701
▁বিভিন্ন	-702
▁১৯৬	-703
▁শতাব্দীর	-704
▁সদস্য	-705
▁মাছ	-706
নিক	-707
▁বে	-708
ভার	-709
▁কথা	-710
▁চাই	-711
ুরে	-712
তিক	-713
▁নামে	-714
খা	-715
োজ	-716
ীপ	-717
ার্ড	-718
বাহ	-719
াংশ	-720
ভা	-721
▁প্রায়	-722
গুলো	-723
সী	-724
▁কলে	-725
▁আইটেম	-726
েব	-727
▁আগ	-728
গ্রহণ	-729
▁সাহ	-730
করণ	-731
িতা	-732
িল্প	-733
▁কাল	-734
িস্ট	-735
▁তে	-736
▁পাক	-737
▁নিয়ে	-738
খ্য	-739
ণ্ড	-740
্যাক	-741
▁২০০১	-742
ংস	-743
য়ের	-744
▁ভূ	-745
িড	-746
▁হন	-747
র্ক	-748
ত্ব	-749
ুগ	-750
▁মাধ্য	-751
▁অনুয	-752
▁অর্থ	-753
▁মাস	-754
স্ক	-755
বঙ্গ	-756
▁নির্ম	-757
▁কাছে	-758
্তন	-759
▁ওয়	-760
▁সর্ব	-761
িত্ব	-762
▁যুক্তরা	-763
▁বৈ	-764
টিং	-765
▁লাভ	-766
▁রাজন	-767
▁বর্ণ	-768
ল্যান্ড	-769
▁আফ	-770
কারী	-771
▁কর্ম	-772
▁শেষ	-773
▁গো	-774
ড়ে	-775
িটার	-776
▁কলেজ	-777
▁প্রশ	-778
▁প্লে	-779
রের	-780
িফ	-781
ডার	-782
▁মোট	-783
▁খেতে	-784
▁ভাষার	-785
বী	-786
শি	-787
▁তৈ	-788
▁উপজেলা	-789
▁আদম	-790
▁প্রাক	-791
▁ইস	-792
▁করার	-793
▁১৬	-794
▁১৯৫	-795
▁কেন্দ্র	-796
▁আয়	-797
▁প্রকাশ	-798
▁পশ্চিমবঙ্গ	-799
▁অন্ত	-800
ানো	-801
▁হি	-802
ড়ি	-803
▁বৃ	-804
▁৫৯	-805
▁পারে	-806
▁সারা	-807
▁পাকিস্ত	-808
▁ছোট	-809
▁আরো	-810
েমন	-811
বর্তী	-812
▁অনুযায়ী	-813
▁১১	-814
য়ার	-815
▁আপ	-816
ীল	-817
▁প্রদ	-818
ল্প	-819
▁পরিম	-820
▁প্রত	-821
খি	-822
▁দিন	-823
▁স্বাদ	-824
▁পি	-825
ুমারি	-826
ষ্টি	-827
▁উল	-828
▁তারা	-829
গা	-830
▁ঠ	-831
▁ঢাকা	-832
▁গঠ	-833
▁মস	-834
াকার	-835
▁ডি	-836
▁১৪	-837
জা	-838
▁কলক	-839
▁দিয়ে	-840
▁মিটার	-841
▁মাল	-842
স্থা	-843
▁যোগ	-844
বিজ্ঞান	-845
▁বস	-846
▁আজ	-847
▁গেম	-848
টু	-849
▁ধর্ম	-850
ুদ্র	-851
ূপ	-852
▁বৌ	-853
্যাপ	-854
হাম	-855
▁ভিত	-856
▁যার	-857
োব	-858
▁পুরুষদের	-859
েরা	-860
ুক্তি	-861
ষণ	-862
▁প্রজাত	-863
▁বৌদ্ধ	-864
ম্প	-865
▁ইন	-866
▁কাব	-867
▁হলে	-868
▁বার্গার	-869
্রা	-870
▁ব্রি	-871
▁পৌ	-872
াধীন	-873
▁পান	-874
▁ক্লা	-875
গোল	-876
দা	-877
▁পরে	-878
▁নিউ	-879
▁বিষ	-880
ীতি	-881
▁অনুষ্ঠ	-882
াইন	-883
চার	-884
তন	-885
▁গুল	-886
▁বন	-887
িয়াম	-888
▁নির্	-889
ভাব	-890
▁টেল	-891
▁১৩	-892
▁বিপ	-893
▁খ্রি	-894
▁কু	-895
▁চলে	-896
ছিলেন	-897
নার	-898
রম	-899
▁সংখ	-900
টিশ	-901
▁পার্	-902
াস্ত	-903
তুন	-904
▁১৯৪	-905
▁হবে	-906
পূ	-907
▁সঙ্গীত	-908
▁অন্যান	-909
োধ	-910
▁ঘটন	-911
▁নামক	-912
▁অন্যান্য	-913
গঞ্জ	-914
▁নারীদের	-915
ন্থ	-916
▁ওয়ে	-917
েড	-918
▁কর্ত	-919
▁বু	-920
▁উদ্ভি	-921
▁যুক্তরাষ্ট্র	-922
২০	-923
াবলী	-924
▁উইক	-925
▁খাও	-926
▁দি	-927
▁কারণ	-928
▁করেছেন	-929
▁বয়সী	-930
লিম্প	-931
▁তিন	-932
▁রাষ্ট্র	-933
সা	-934
▁বাংলাদেশী	-935
▁০	-936
▁কাচ্চ	-937
ছাড়	-938
ম্ব	-939
▁অলিম্প	-940
▁ইসলাম	-941
▁হিন্দ	-942
▁মহি	-943
▁চাইতে	-944
▁অভি	-945
▁মনে	-946
▁মিল	-947
▁সেই	-948
▁গু	-949
▁অপ	-950
র্ঘ	-951
▁অঞ্চল	-952
▁মন	-953
▁পাখি	-954
▁লাগ	-955
▁বর্ষ	-956
▁যদি	-957
▁সফ	-958
্যে	-959
তো	-960
াইট	-961
▁উপর	-962
ার্থী	-963
▁নতুন	-964
▁ভি	-965
▁সম্	-966
▁পাল	-967
▁প্রক	-968
▁হয়	-969
▁চে	-970
▁দ্বারা	-971
বাস	-972
▁প্রতিযোগ	-973
▁অন্যতম	-974
▁আন	-975
▁বার	-976
▁এদের	-977
▁ধর	-978
▁কর্তৃ	-979
▁বড়	-980
▁মহিলা	-981
▁শ্রে	-982
▁ইংরেজি	-983
▁মসজি	-984
▁২১	-985
▁চিত্র	-986
▁পো	-987
▁হলো	-988
িনী	-989
▁স্বাধীন	-990
▁স্থাপ	-991
াইড	-992
ার্ভ	-993
াউ	-994
▁১৯৩	-995
▁রাই	-996
▁প্রদেশ	-997
▁ব্রিটিশ	-998
▁তা	-999
কালীন	-1000
▁পদার্থ	-1001
তু	-1002
ালের	-1003
▁মন্দ	-1004
▁মাধ্যমে	-1005
▁মৌ	-1006
▁লেগে	-1007
▁বিশেষ	-1008
▁লেখ	-1009
▁উদ্ভিদ	-1010
▁প্রাক্তন	-1011
কি	-1012
▁শু	-1013
ায়ে	-1014
▁ভৌ	-1015
▁এছাড়	-1016
সভা	-1017
▁দলের	-1018
▁বর্তমানে	-1019
▁বিজ্ঞান	-1020
গ্রাম	-1021
াপ্ত	-1022
ুস	-1023
▁শব	-1024
পঞ্জ	-1025
▁মাত্র	-1026
▁দ্বিত	-1027
▁শিক্ষা	-1028
েত্রী	-1029
▁জীবিত	-1030
▁সংখ্যা	-1031
▁পিজ	-1032
▁এলাকা	-1033
▁আমের	-1034
▁গ্রাম	-1035
▁বলা	-1036
▁হয়ে	-1037
▁ঘটনাবলী	-1038
▁বির	-1039
▁খ্রিষ্ট	-1040
্জা	-1041
▁দিকে	-1042
▁আদমশ	-1043
▁প্রচ	-1044
▁অভিনেত্রী	-1045
ন্টার	-1046
▁মানুষ	-1047
▁দ্বিতীয়	-1048
▁গ্রে	-1049
▁তাকে	-1050
▁গড়	-1051
▁ক্লাব	-1052
প্ত	-1053
খ্যাত	-1054
শ্র	-1055
রিক	-1056
▁পদক	-1057
▁জীবন	-1058
ক্স	-1059
মি	-1060
ন্টি	-1061
▁উপজেলার	-1062
র্থ	-1063
স্ট্র	-1064
▁ম্যা	-1065
▁যুদ্ধ	-1066
▁একটু	-1067
য়ন	-1068
▁সূ	-1069
▁ব্যবহ	-1070
ঁচ	-1071
▁হয়েছিল	-1072
েতা	-1073
▁পাওয়া	-1074
ুরেন্ট	-1075
হাম্ম	-1076
জের	-1077
ট্ট	-1078
▁এটা	-1079
▁দেখা	-1080
▁কর্তৃক	-1081
▁শিল্প	-1082
▁নদীর	-1083
▁উল্লে	-1084
▁ভে	-1085
▁আদমশুমারি	-1086
কল	-1087
▁রোড	-1088
ানী	-1089
▁টেলিভি	-1090
▁বো	-1091
তের	-1092
▁বই	-1093
কো	-1094
▁জার্	-1095
রক্ষ	-1096
▁সবচে	-1097
োমিটার	-1098
ালী	-1099
ান্ড	-1100
ক্ষে	-1101
▁এখন	-1102
সায়	-1103
▁মন্দির	-1104
▁শাস	-1105
▁সেন	-1106
▁বিদ্যালয়	-1107
বন	-1108
ীক	-1109
▁তো	-1110
▁বর্ষপঞ্জ	-1111
▁শিক্ষার্থী	-1112
লো	-1113
পি	-1114
▁রেস্ট	-1115
▁সমুদ্র	-1116
▁অফার	-1117
▁রেল	-1118
ন্যাস	-1119
লিক	-1120
▁রচ	-1121
▁নোব	-1122
সব	-1123
▁পৌর	-1124
▁চার	-1125
▁কোম্প	-1126
্যাম্প	-1127
▁ইউর	-1128
রণ	-1129
▁বহ	-1130
▁উল্লেখ	-1131
▁অস	-1132
িলোমিটার	-1133
▁রেস্টুরেন্ট	-1134
রাজ	-1135
▁আফ্র	-1136
বেন	-1137
▁হিসাবে	-1138
▁পরি	-1139
িরপুর	-1140
মা	-1141
▁আগে	-1142
যুক্ত	-1143
▁বন্ধ	-1144
▁শব্দ	-1145
▁যেমন	-1146
▁খেয়ে	-1147
▁স্ত	-1148
▁কাচ্চি	-1149
▁প্রাচ	-1150
▁বাঙ	-1151
ত্ত্ব	-1152
এস	-1153
▁কম্প	-1154
▁বাংলাদেশে	-1155
▁অর্ডার	-1156
ুত	-1157
▁দ্বীপ	-1158
▁খান	-1159
কম	-1160
আই	-1161
গুলি	-1162
▁তৈরি	-1163
▁নগর	-1164
▁উদ	-1165
িকান	-1166
▁টেলিভিশন	-1167
▁নোবেল	-1168
▁যায়	-1169
▁কাবাব	-1170
▁ইয়	-1171
▁রু	-1172
ীতে	-1173
▁ইংরেজ	-1174
▁চাল	-1175
▁ক্ষেত্র	-1176
▁সংস	-1177
▁সাহিত	-1178
▁বাস	-1179
▁প্রশাস	-1180
▁পৃ	-1181
▁জল	-1182
▁সী	-1183
▁ফিল	-1184
েন্ট	-1185
▁আন্দ	-1186
▁অস্ট্র	-1187
ান্	-1188
▁অভিনেতা	-1189
▁খেলা	-1190
▁টু	-1191
াইস	-1192
▁ক্রী	-1193
▁দ্য	-1194
▁জার্মান	-1195
▁গঠিত	-1196
▁লেগেছে	-1197
ভুক্ত	-1198
▁উৎপ	-1199
▁বিক	-1200
▁উন্ন	-1201
ঙ্ক	-1202
▁দৈ	-1203
াতার	-1204
▁পর্ব	-1205
▁২০১০	-1206
▁অ্যা	-1207
গোলিক	-1208
▁চর	-1209
▁ভৌগোলিক	-1210
টিতে	-1211
শা	-1212
েরি	-1213
▁গা	-1214
▁মসজিদ	-1215
▁আবার	-1216
র্শন	-1217
▁২০১১	-1218
▁অবস্থান	-1219
▁করেছে	-1220
▁বিমান	-1221
▁ব্যবহৃত	-1222
▁এমন	-1223
গরীয়	-1224
▁রাজনীতি	-1225
▁নেপ	-1226
িপিড	-1227
▁যুক্তরাষ্ট্রের	-1228
▁ভাষায়	-1229
▁গিয়ে	-1230
▁সুন্দর	-1231
▁শে	-1232
▁১৯১	-1233
▁পরবর্তী	-1234
লার	-1235
হাম্মদ	-1236
▁পারেন	-1237
▁উইকিপিড	-1238
▁২৫	-1239
▁অক্ষ	-1240
গত	-1241
▁মুস	-1242
র্বে	-1243
াব্দে	-1244
▁৩০	-1245
▁ধরনের	-1246
▁গ্রন্থ	-1247
▁নিয়	-1248
▁গ্রেগরীয়	-1249
ন্ত্রী	-1250
পু	-1251
▁ভাই	-1252
▁জন্মগ্রহণ	-1253
ৈতিক	-1254
ংক	-1255
োজন	-1256
▁বিখ্যাত	-1257
▁ট্রাই	-1258
▁বর্ষপঞ্জির	-1259
▁লাই	-1260
াফ	-1261
াঞ্চ	-1262
▁গেলাম	-1263
▁বেস্ট	-1264
▁প্রাচীন	-1265
▁নাই	-1266
▁১৯২	-1267
রী	-1268
▁ইউনিয়	-1269
▁নাট	-1270
▁পরিবেশ	-1271
োরে	-1272
মিক	-1273
▁মুক্তি	-1274
▁ঝাল	-1275
▁ছবি	-1276
পা	-1277
▁ব্ল	-1278
▁বলতে	-1279
▁সংরক্ষ	-1280
▁লেখক	-1281
▁শহ	-1282
▁নির্বাচন	-1283
▁স্বাধীনতা	-1284
র্ন	-1285
▁কিলোমিটার	-1286
▁যাও	-1287
▁ভিত্ত	-1288
▁পশ্চিমবঙ্গের	-1289
▁সবচেয়ে	-1290
াদি	-1291
তী	-1292
▁ইউরোপ	-1293
▁নির্মাণ	-1294
▁বাঙালি	-1295
▁সংগ	-1296
▁মতো	-1297
▁বিন	-1298
▁কোনো	-1299
▁অনুষ্ঠিত	-1300
ুজ	-1301
▁আহ	-1302
▁মাঝ	-1303
ওয়া	-1304
িব্ব	-1305
▁উচ্চতা	-1306
▁পঞ্চ	-1307
র্শ	-1308
▁আন্দোল	-1309
▁খাবারের	-1310
উট	-1311
োর্ড	-1312
মন	-1313
▁এসে	-1314
▁বাই	-1315
▁অর্জন	-1316
▁স্টেশন	-1317
▁সদর	-1318
িও	-1319
▁বংশ	-1320
▁পাশ	-1321
▁রাইস	-1322
▁৫০	-1323
লেট	-1324
▁তিব্ব	-1325
▁গুরু	-1326
▁২০১৪	-1327
▁কাপ	-1328
তল	-1329
▁আর্	-1330
ার্স	-1331
▁২০০০	-1332
ুই	-1333
▁ফুল	-1334
োহ	-1335
▁সেরা	-1336
ডেম	-1337
ালে	-1338
▁মিরপুর	-1339
▁এক্স	-1340
▁প্রয	-1341
▁মূলত	-1342
▁পরিচালক	-1343
▁হিন্দু	-1344
▁বিল	-1345
▁প্রাণ	-1346
ডিও	-1347
▁ঘো	-1348
▁শিক্ষক	-1349
িমি	-1350
▁দেখে	-1351
▁সাব	-1352
▁লক্ষ	-1353
▁পাব	-1354
োচ	-1355
োদ	-1356
ট্টগ্রাম	-1357
▁দায়	-1358
▁কোম্পানি	-1359
▁গবে	-1360
যোগ্য	-1361
▁এরা	-1362
▁লাল	-1363
▁ওয়েব	-1364
▁অলিম্পিক	-1365
টেড	-1366
কাপ	-1367
▁ধারণ	-1368
পার	-1369
▁কম্পিউ	-1370
▁কৃ	-1371
▁চী	-1372
▁রিভি	-1373
▁জনপ্র	-1374
▁শা	-1375
াবিদ	-1376
বন্ধ	-1377
▁সেট	-1378
▁সার্ভ	-1379
▁উপন্যাস	-1380
▁বৃহ	-1381
ায়ের	-1382
▁দূ	-1383
ুনা	-1384
▁চট্টগ্রাম	-1385
▁ইন্ড	-1386
▁বিষয়	-1387
ভূত	-1388
▁চরিত্র	-1389
▁প্রতিষ্ঠান	-1390
▁অভিনয়	-1391
▁বিপ্ল	-1392
▁শাহ	-1393
▁তুল	-1394
▁পরিমাণ	-1395
িট	-1396
▁খ্র	-1397
▁২০শ	-1398
▁নিক	-1399
েক্ট	-1400
ফে	-1401
▁জাপ	-1402
▁আরব	-1403
▁গান	-1404
েক্ষ	-1405
গাঁ	-1406
▁বাহ	-1407
▁সাই	-1408
ওয়ে	-1409
ান্স	-1410
র্ড	-1411
▁অস্ট্রেল	-1412
▁রূপ	-1413
▁যখন	-1414
▁পিস	-1415
▁সাধারণত	-1416
ষণা	-1417
গণ	-1418
েইন	-1419
▁চাপ	-1420
দার	-1421
▁কয়	-1422
্রদ	-1423
▁বিভাগের	-1424
▁সাহিত্য	-1425
▁দায়িত্ব	-1426
▁নভ	-1427
▁রাজনীতিবিদ	-1428
ান্দ	-1429
▁রিভিউ	-1430
▁বিশ্বকাপ	-1431
▁পিজ্জা	-1432
▁দ্র	-1433
▁তখন	-1434
ষ্ঠান	-1435
▁রেটিং	-1436
দ্র	-1437
▁স্ম	-1438
▁নেই	-1439
ফি	-1440
াদা	-1441
▁এত	-1442
্যাট	-1443
▁শুধ	-1444
▁বিস্ত	-1445
▁অংশগ্রহণ	-1446
ভাষ	-1447
▁সির	-1448
ওয়ার	-1449
মাত্র	-1450
লেই	-1451
▁আক	-1452
▁নব	-1453
ঠে	-1454
▁১০০	-1455
▁পুরা	-1456
দম	-1457
পথ	-1458
▁ফুটবলার	-1459
▁প্রকাশিত	-1460
গু	-1461
ভব	-1462
▁কলকাতা	-1463
▁গ্রী	-1464
▁এস	-1465
▁সম্পর্ক	-1466
▁পূর্বে	-1467
▁ইউনিয়নের	-1468
▁২০১৩	-1469
▁ঠিক	-1470
▁লোকেশন	-1471
াস্ট	-1472
▁পৃথ	-1473
িয়াল	-1474
াজার	-1475
খান	-1476
ডেল	-1477
▁অঞ্চলের	-1478
িয়ায়	-1479
▁সংস্ক	-1480
▁করেছিলেন	-1481
▁ধার	-1482
▁মেন	-1483
▁জি	-1484
▁দেখতে	-1485
লিত	-1486
▁রাজ্য	-1487
▁নির্বাচিত	-1488
▁তারি	-1489
▁ডে	-1490
নীতি	-1491
চি	-1492
্থ	-1493
▁যেখানে	-1494
▁অথ	-1495
ষ্ম	-1496
▁ইত্য	-1497
পতি	-1498
াবাহ	-1499
ার্ল	-1500
▁ফুড	-1501
ক্রম	-1502
▁খ্রিষ্টাব্দে	-1503
েব্র	-1504
▁চলচ্চিত্রের	-1505
াকি	-1506
▁সমতল	-1507
▁যিনি	-1508
▁ইন্টার	-1509
র্ধ	-1510
▁ফরা	-1511
▁স্কুল	-1512
▁প্রদান	-1513
ষ্ণ	-1514
▁খু	-1515
▁যারা	-1516
টাকা	-1517
▁২০১২	-1518
▁রাজধান	-1519
িসি	-1520
▁পড়	-1521
বিজ্ঞানী	-1522
▁নামকরণ	-1523
গান	-1524
▁একই	-1525
▁শ্রেণ	-1526
▁জাম	-1527
স্টি	-1528
▁ভাগ	-1529
ধর্ম	-1530
ার্ক	-1531
▁কারণে	-1532
▁১৯০	-1533
▁০০	-1534
▁মর	-1535
▁নিম	-1536
▁২০০৮	-1537
▁সফট	-1538
▁কম্পিউটার	-1539
▁যৌ	-1540
▁বাদ	-1541
্ক	-1542
▁সরকারি	-1543
্রাম	-1544
▁গ্রীষ্ম	-1545
▁গুরুত্ব	-1546
▁এন	-1547
▁প্রজাতি	-1548
াং	-1549
▁দিক	-1550
▁নয়	-1551
▁কন	-1552
াবাদ	-1553
▁ফেব্র	-1554
▁তু	-1555
▁দশকে	-1556
্বিক	-1557
▁প্রশাসনিক	-1558
াড়া	-1559
▁বর্গ	-1560
▁অ্যান্ড	-1561
▁প্রা	-1562
▁চ্যাম্প	-1563
▁ডিগ্র	-1564
▁ব্যবস্থা	-1565
▁মুসলিম	-1566
▁শহরটির	-1567
▁সার	-1568
তাল	-1569
নায়	-1570
▁পালন	-1571
▁সঙ্গে	-1572
▁চিজ	-1573
▁জয়	-1574
▁হাস	-1575
শিল্প	-1576
▁আগস্ট	-1577
পূর্ণ	-1578
গের	-1579
▁অসাধ	-1580
▁আয়তন	-1581
▁কার্য	-1582
▁আলা	-1583
▁টাই	-1584
▁দ্রা	-1585
▁নাগ	-1586
টের	-1587
▁ইউনি	-1588
▁দৈর্ঘ	-1589
ঘিম	-1590
িষ্ট	-1591
▁পানি	-1592
র্গত	-1593
▁দিল	-1594
▁হাল	-1595
▁ধরে	-1596
ামী	-1597
োয়	-1598
▁খাদ	-1599
▁দ্রাঘিম	-1600
টিকে	-1601
চ্ছ	-1602
▁রাজধানী	-1603
▁আমরা	-1604
▁জনপ্রিয়	-1605
দান	-1606
দ্ব	-1607
▁মহাস	-1608
শ্য	-1609
কালে	-1610
▁গ্রহণ	-1611
▁রাজা	-1612
ৌশ	-1613
▁আসন	-1614
▁এছাড়াও	-1615
▁রাম	-1616
▁২৪	-1617
▁দ্রাঘিমাংশ	-1618
্লাহ	-1619
ুপ্ত	-1620
▁লাগে	-1621
▁সভ	-1622
▁অর্থনীতি	-1623
▁নং	-1624
▁ফরাসি	-1625
▁পরিচালিত	-1626
িতার	-1627
▁শক্ত	-1628
বো	-1629
▁অবস্থানের	-1630
▁জায়	-1631
▁অক্ষাংশ	-1632
▁দেয়	-1633
▁নভেম্বর	-1634
ুটি	-1635
▁ক্যা	-1636
▁২০১৫	-1637
▁কয়েক	-1638
▁ম্যান	-1639
▁খ্রিস্ট	-1640
▁দুটি	-1641
▁ক্যাল	-1642
ফল	-1643
ায়ক	-1644
িক্স	-1645
▁চি	-1646
▁ভর্ত	-1647
▁মাংস	-1648
▁ভারতে	-1649
▁রহ	-1650
▁পুন	-1651
ার্সি	-1652
▁বিপ্লবী	-1653
▁অন্তর্গত	-1654
েক্স	-1655
▁ফলে	-1656
▁সংস্থা	-1657
▁গ্রুপ	-1658
▁চ্যাম্পিয়ন	-1659
▁ইত্যাদি	-1660
গ্রহ	-1661
▁দেশের	-1662
▁সীমান	-1663
ানম	-1664
▁নির্মিত	-1665
াতি	-1666
গাঁও	-1667
▁দোক	-1668
▁পদ্ধ	-1669
ৎস	-1670
▁কবি	-1671
▁বোঝ	-1672
▁এশিয়ার	-1673
রিয়	-1674
▁জীবনী	-1675
ড়ি	-1676
ড়ক	-1677
▁দী	-1678
▁হলেও	-1679
কৃত	-1680
▁চৌ	-1681
▁পাস্ত	-1682
▁ক্ষেত্রে	-1683
▁ফেব্রুয়ারি	-1684
▁গুলো	-1685
▁দেন	-1686
▁পৌরসভা	-1687
াপ্র	-1688
▁পাশে	-1689
ুখ	-1690
▁ওয়েবস	-1691
ট্র	-1692
▁মুখ	-1693
▁সম্মান	-1694
▁ভাব	-1695
ণের	-1696
ুরা	-1697
▁সিং	-1698
ূর্ণ	-1699
▁রাস্ত	-1700
▁র্গ	-1701
▁পায়	-1702
▁অ্যাল	-1703
াহী	-1704
▁অথবা	-1705
ূলক	-1706
▁আধ	-1707
ুম্ব	-1708
▁ইংল্যান্ড	-1709
গো	-1710
▁অঞ্চলে	-1711
▁জো	-1712
▁বিরিয়	-1713
▁থাকেন	-1714
জ্ঞানিক	-1715
▁একদম	-1716
▁যান	-1717
জীব	-1718
▁উল্লেখযোগ্য	-1719
▁যেতে	-1720
▁বান	-1721
স্থান	-1722
▁২২	-1723
▁কলকাতার	-1724
বরণ	-1725
▁ড্র	-1726
▁জম	-1727
▁ভবন	-1728
▁প্রব	-1729
▁সংগঠ	-1730
▁২০০৬	-1731
▁চ্যান	-1732
▁পরিবর্ত	-1733
শিষ্ট	-1734
▁প্রবাহ	-1735
৫০	-1736
▁৪৯	-1737
িসং	-1738
্রম	-1739
▁২০১৬	-1740
▁বৌদ্ধবি	-1741
রাম	-1742
▁যদিও	-1743
▁রাজনৈতিক	-1744
রেক	-1745
▁সেখানে	-1746
লেও	-1747
▁সমাজ	-1748
▁দশকের	-1749
▁প্রস্ত	-1750
▁বাজ	-1751
▁সাং	-1752
দিনের	-1753
ন্ত্রণ	-1754
▁দেওয়া	-1755
▁খুবই	-1756
▁সকল	-1757
▁খাই	-1758
▁গরম	-1759
▁বিফ	-1760
▁হত	-1761
ছন্দ	-1762
▁কাউ	-1763
▁ক্রীড়া	-1764
▁ঢাকার	-1765
▁২৩	-1766
সন	-1767
থমিক	-1768
শের	-1769
▁সৃ	-1770
▁গাছ	-1771
শিল্পী	-1772
▁প্রচলিত	-1773
▁প্রাথমিক	-1774
▁অতি	-1775
▁আত	-1776
ুরি	-1777
এন	-1778
▁দর্শন	-1779
▁দিব	-1780
▁টাকায়	-1781
স্ব	-1782
▁৪৮	-1783
▁অসম	-1784
▁গ্রীষ্মকালীন	-1785
▁ওয়েবসাইট	-1786
হন	-1787
্যাশন	-1788
দে	-1789
▁করলাম	-1790
লেক	-1791
▁শি	-1792
▁প্রতিযোগিতা	-1793
াটি	-1794
▁অন্তর্	-1795
▁মোহাম্মদ	-1796
▁লু	-1797
▁পছন্দ	-1798
▁ফ্রে	-1799
▁দ্	-1800
াঙ্গ	-1801
▁গিয়ে	-1802
ানার	-1803
▁পত্র	-1804
▁মেট	-1805
▁পরিচালনা	-1806
হারের	-1807
শেষ	-1808
▁উত্তরা	-1809
ারাষ্ট্র	-1810
▁খাওয়া	-1811
▁আইস	-1812
▁আবি	-1813
▁বৈজ্ঞানিক	-1814
▁দৈর্ঘ্য	-1815
▁ইন্দ	-1816
▁মিনি	-1817
িয়াস	-1818
▁তিনটি	-1819
▁মহারাষ্ট্র	-1820
▁ইন্টারন	-1821
োভ	-1822
র্দ	-1823
▁১৯৯০	-1824
▁এছাড়া	-1825
ব্য	-1826
▁কাম	-1827
▁পাঁচ	-1828
বিক	-1829
গুলোর	-1830
▁যাব	-1831
বু	-1832
াদেশ	-1833
▁একক	-1834
▁ত্র	-1835
▁আকার	-1836
▁পরিবারের	-1837
▁নিজ	-1838
ধা	-1839
াহিনী	-1840
▁পৃথিব	-1841
▁গোল	-1842
▁অ্যান	-1843
▁২১শ	-1844
▁ইউনিভ	-1845
▁তাহ	-1846
নাথ	-1847
ন্য	-1848
▁৫২	-1849
▁রাখ	-1850
▁উন্নয়ন	-1851
ফা	-1852
▁সম্পাদ	-1853
▁এশিয়ান	-1854
▁সার্ভিস	-1855
▁রেক	-1856
নাম	-1857
▁শ্রেষ্ঠ	-1858
োদ্	-1859
▁বর্ণনা	-1860
কু	-1861
্রাজ	-1862
পূর্ব	-1863
ধ্যায়	-1864
▁দেব	-1865
পাত	-1866
াইজ	-1867
িপি	-1868
▁সৌ	-1869
ধি	-1870
▁একা	-1871
ড়া	-1872
▁চ্যানেল	-1873
হে	-1874
▁বুঝ	-1875
িলি	-1876
ৃতীয়	-1877
▁সংস্	-1878
▁ফ্রান্স	-1879
োড	-1880
▁বিভাগে	-1881
▁এল	-1882
াদার	-1883
রু	-1884
ৃতিক	-1885
▁এরপর	-1886
▁অসাধারণ	-1887
▁পাকিস্তানের	-1888
▁পাঠ	-1889
▁কর্ণ	-1890
▁প্লেটার	-1891
টিউট	-1892
▁বংশোদ্	-1893
▁হলেন	-1894
▁২০০৯	-1895
▁২০০৭	-1896
▁৬০	-1897
োর্ট	-1898
▁খিল	-1899
▁গুরুত্বপূর্ণ	-1900
নং	-1901
▁অফিস	-1902
টাই	-1903
▁পেশ	-1904
প্রাপ্ত	-1905
▁ইব	-1906
▁২৮	-1907
▁তৃতীয়	-1908
▁ওয়	-1909
▁রঙ	-1910
▁পত	-1911
▁টাক	-1912
▁বাল	-1913
গড়	-1914
▁ডিগ্রি	-1915
▁রং	-1916
▁কিং	-1917
এই	-1918
ানির	-1919
▁ঘটে	-1920
▁সাত	-1921
▁পাঞ্জ	-1922
▁অন্তর্ভুক্ত	-1923
▁এলাক	-1924
▁সস	-1925
▁৫১	-1926
ীক্ষ	-1927
▁শেখ	-1928
▁হাই	-1929
▁মার	-1930
▁সংসদ	-1931
াস্	-1932
ত্তি	-1933
াত্ত্বিক	-1934
▁প্রাইস	-1935
▁বাজার	-1936
▁পাকিস্তান	-1937
▁নিবন্ধ	-1938
▁সত্য	-1939
াপ্রতি	-1940
▁বৃহত্ত	-1941
▁সময়ে	-1942
াযোগ	-1943
যুদ্ধ	-1944
▁শহরে	-1945
▁সিরিজ	-1946
ইং	-1947
▁বাণ	-1948
▁সময়	-1949
▁বংশোদ্ভূত	-1950
▁বাঁ	-1951
▁ব্যাংক	-1952
▁এতে	-1953
▁বিশ্বের	-1954
৯৯	-1955
িনা	-1956
▁বড়	-1957
▁শীত	-1958
ুরী	-1959
▁ফে	-1960
▁বহু	-1961
▁আলাদা	-1962
▁জেলায়	-1963
▁২০০৪	-1964
ওয়্যার	-1965
▁আমেরিকান	-1966
▁সোস	-1967
▁২৭	-1968
▁কুম	-1969
▁শিক্ষাপ্রতি	-1970
▁২৬	-1971
ামের	-1972
▁ইউনিভার্সি	-1973
ভে	-1974
▁অ্য	-1975
▁আইন	-1976
▁পাস্তা	-1977
্যো	-1978
াধিক	-1979
▁নান	-1980
▁পাঞ্জাব	-1981
▁স্থানীয়	-1982
▁ইর	-1983
▁গ্রিক	-1984
▁রেকর্ড	-1985
▁বিশিষ্ট	-1986
েনের	-1987
▁প্লেস	-1988
▁মাই	-1989
▁পুত্র	-1990
▁সুর	-1991
োলা	-1992
▁নামের	-1993
▁শুধু	-1994
দুল	-1995
িবাস	-1996
গুলির	-1997
্যপ	-1998
▁বের	-1999
▁মজা	-2000
তিহ	-2001
▁ডিম	-2002
▁ইহ	-2003
▁স্থানে	-2004
▁একদিনের	-2005
▁দিতে	-2006
াচ্	-2007
▁ফ্রাই	-2008
▁চো	-2009
াপুর	-2010
▁ইতাল	-2011
▁সংস্করণ	-2012
চের	-2013
▁কব	-2014
ীদের	-2015
▁কম্ব	-2016
▁বিধান	-2017
িজ্ঞ	-2018
মেন্ট	-2019
▁পদ্ধতি	-2020
াপা	-2021
ছিলো	-2022
শান	-2023
শ্ব	-2024
ীকা	-2025
▁ছে	-2026
▁শ্রীল	-2027
এম	-2028
▁কাঠ	-2029
▁বস্ত	-2030
▁রাজবং	-2031
▁৮০	-2032
োর্ন	-2033
▁নিকট	-2034
▁রায়	-2035
▁রসায়	-2036
্যাশনাল	-2037
য়েন্টি	-2038
▁হাত	-2039
▁আমাদের	-2040
িপ্ত	-2041
▁সিন	-2042
▁দার্	-2043
▁পাই	-2044
▁সংরক্ষিত	-2045
▁সোসাই	-2046
▁নেপালের	-2047
রাই	-2048
▁ডোম	-2049
েলের	-2050
▁ক্লাবের	-2051
াগর	-2052
▁চিকি	-2053
▁প্রয়	-2054
শাল	-2055
শীল	-2056
▁তাঁ	-2057
ম্যান	-2058
▁খেলে	-2059
▁গঠন	-2060
▁ভাবে	-2061
▁একে	-2062
▁সংস্কৃতি	-2063
▁নিয়েছিলাম	-2064
স্থাপ	-2065
▁লম্ব	-2066
▁মাছের	-2067
▁উৎপাদ	-2068
▁মাঝে	-2069
বন্দর	-2070
▁গণিত	-2071
▁এলাকার	-2072
▁সুই	-2073
▁অধ্যাপ	-2074
দী	-2075
▁প্রত্ন	-2076
▁মাদ	-2077
▁রোমান	-2078
▁পরিবার	-2079
োচ্চ	-2080
▁রক্ষ	-2081
▁আন্দোলন	-2082
▁বন্ধু	-2083
▁যাত্র	-2084
াদু	-2085
▁৫৩	-2086
বাদী	-2087
▁কোড	-2088
▁পেট	-2089
▁রকম	-2090
▁গেমসে	-2091
্কা	-2092
▁সম্পর্	-2093
▁যাই	-2094
▁আরেক	-2095
▁নির্দেশ	-2096
▁ফল	-2097
▁ধানম	-2098
▁৪৭	-2099
মূহ	-2100
▁০০০	-2101
▁বাণিজ	-2102
ঞ্	-2103
িক্যাল	-2104
▁ভর	-2105
ব্র	-2106
▁৪০	-2107
ন্ডি	-2108
ৃহ	-2109
িকায়	-2110
আর	-2111
▁আট	-2112
▁উৎস	-2113
▁ছাত্র	-2114
▁টেক	-2115
সমূহের	-2116
▁টুয়েন্টি	-2117
সর	-2118
▁অলিম্পিকে	-2119
▁নম	-2120
▁টাকার	-2121
▁দীর্ঘ	-2122
াগুল	-2123
▁নিম্ন	-2124
▁আবিষ্	-2125
▁কেন	-2126
▁সালাদ	-2127
ড্ড	-2128
▁সিটি	-2129
র্প	-2130
▁সম্ম	-2131
▁ভূম	-2132
▁পাওয়া	-2133
▁সম্ভব	-2134
▁সাম্রাজ	-2135
ায	-2136
▁বোল	-2137
চিত্র	-2138
▁চালু	-2139
▁১৮৮	-2140
▁ইনস্টি	-2141
▁জে	-2142
▁খিচ	-2143
▁ঘট	-2144
▁ইলেক	-2145
▁ভিডিও	-2146
ীদ	-2147
▁সংগঠন	-2148
▁যেটি	-2149
▁তারিখে	-2150
▁২৯	-2151
▁বছরের	-2152
▁বোর্ড	-2153
▁সংযোগ	-2154
োপা	-2155
▁অম	-2156
▁পরিষ	-2157
রায়	-2158
ায়ার	-2159
▁আত্ম	-2160
▁একাডেম	-2161
▁স্তন	-2162
টিন	-2163
মাণ	-2164
▁১৮৯	-2165
▁করি	-2166
▁তাম	-2167
▁ফ্রাইড	-2168
▁বৈশিষ্ট	-2169
তায়	-2170
ুনিক	-2171
▁আফগান	-2172
র্জ	-2173
হাট	-2174
ান্ট	-2175
▁যাবে	-2176
▁ধারাবাহ	-2177
▁রয়	-2178
▁মিশ	-2179
াশ	-2180
সিং	-2181
▁কোর	-2182
ান্তর	-2183
▁অঙ্গ	-2184
▁এন্ড	-2185
▁সর্বোচ্চ	-2186
সার	-2187
▁রাশ	-2188
▁সামনে	-2189
ভূম	-2190
াত্ম	-2191
▁শিশ	-2192
▁আফ্রিকার	-2193
▁রচিত	-2194
তিহাসিক	-2195
▁অপর	-2196
▁নদীটির	-2197
▁কমি	-2198
▁জিন	-2199
তিহ্য	-2200
▁লেখা	-2201
▁প্রকৌশ	-2202
▁ক্যালিফ	-2203
▁স্তন্যপ	-2204
▁জেন	-2205
▁বীর	-2206
▁সেম	-2207
▁ইউনিভার্সিটি	-2208
াড়ি	-2209
▁আসে	-2210
▁যথে	-2211
▁আলী	-2212
▁পেয়ে	-2213
▁দিল্ল	-2214
▁স্ন	-2215
িনীর	-2216
▁কখন	-2217
▁২০০৫	-2218
▁বর্ণিত	-2219
▁গর	-2220
▁ধ্ব	-2221
▁মিলে	-2222
▁প্রতীক	-2223
▁প্রতিষ্ঠা	-2224
▁স্তন্যপায়ী	-2225
▁ক্ষম	-2226
▁প্রত্য	-2227
▁জনের	-2228
▁রহমান	-2229
দিকে	-2230
▁টুয়েন্টি২০	-2231
ঠা	-2232
▁গেছে	-2233
▁শুমারি	-2234
▁অধিক	-2235
▁২০০৩	-2236
▁বন্দর	-2237
▁হয়েছে	-2238
ুট	-2239
ঞ্জন	-2240
▁মের	-2241
হের	-2242
্যাব	-2243
▁ফিফ	-2244
▁ইনস্টিটিউট	-2245
▁ক্যালিফোর্ন	-2246
▁বর	-2247
বাসী	-2248
▁ইবনে	-2249
▁পূর্ণ	-2250
▁বাণিজ্য	-2251
▁গবেষণা	-2252
▁সাদা	-2253
▁দেয়া	-2254
ল্ল	-2255
▁মারা	-2256
▁যোগাযোগ	-2257
▁রেলওয়ে	-2258
▁স্টেড	-2259
কুম	-2260
▁প্রজাতির	-2261
▁স্টেডিয়াম	-2262
▁বসু	-2263
ম্	-2264
▁বী	-2265
▁স্পেশ	-2266
▁পশ্চিমে	-2267
▁সম্পর্কে	-2268
ক্ষিপ্ত	-2269
▁বাক	-2270
▁তাহলে	-2271
াপতি	-2272
▁পাহ	-2273
াধি	-2274
▁৭০	-2275
▁মাস্ট	-2276
▁বিরুদ্ধ	-2277
▁পর্বত	-2278
▁সফটওয়্যার	-2279
▁কৃষ	-2280
▁শিব	-2281
থাৎ	-2282
▁ফেল	-2283
▁শান্ত	-2284
▁উইকিপিডিয়া	-2285
▁ক্ল	-2286
▁২০০২	-2287
▁ব্যাপ	-2288
▁গিয়েছিলাম	-2289
শনিক	-2290
▁চৌধ	-2291
▁লাম	-2292
▁এলাকায়	-2293
▁পরিচিতি	-2294
▁শর	-2295
▁পুল	-2296
▁বেস	-2297
▁পাবেন	-2298
▁তত্ত্ব	-2299
▁উপরে	-2300
▁অর্থাৎ	-2301
▁বিরিয়ানি	-2302
▁সংক্ষিপ্ত	-2303
▁থেকেই	-2304
▁টে	-2305
▁হে	-2306
▁যুগ	-2307
▁আধুনিক	-2308
▁রাষ্ট্রপতি	-2309
▁দর	-2310
মার	-2311
▁অধ্যাপক	-2312
▁ওয়ার্ড	-2313
▁মানুষের	-2314
▁খাওয়ার	-2315
▁প্রভাব	-2316
জনের	-2317
▁বিমানবন্দর	-2318
জিল	-2319
সুম	-2320
▁চিন	-2321
▁বিরোধ	-2322
▁দার্শনিক	-2323
▁৩১	-2324
ফেক্ট	-2325
▁গভ	-2326
▁দৃ	-2327
▁হিম	-2328
▁দূর	-2329
োগ্রাম	-2330
▁জাহ	-2331
▁৩০০	-2332
▁ভূগোল	-2333
মহ	-2334
িয়	-2335
্রী	-2336
▁চতু	-2337
▁ইন্টারনেট	-2338
পে	-2339
▁ধারাবাহিক	-2340
▁যথেষ্ট	-2341
▁সংসদের	-2342
▁ভিত্তিক	-2343
েও	-2344
▁অভিষ	-2345
▁সবাই	-2346
▁প্রদেশের	-2347
জ্জ	-2348
▁বেল	-2349
▁স্টেক	-2350
শিপ	-2351
▁প্লা	-2352
▁হিন্দি	-2353
▁ইহুদ	-2354
খ্যান	-2355
বিজ্ঞ	-2356
▁বিরুদ্ধে	-2357
▁জায়	-2358
▁প্রাপ্ত	-2359
▁প্ল	-2360
▁ফিফা	-2361
▁বিভ	-2362
▁পদার্থবিজ্ঞানী	-2363
▁পড়ে	-2364
▁করলে	-2365
মন্ত্রী	-2366
পত্র	-2367
▁বোর	-2368
▁ভালোই	-2369
ুলত	-2370
ার্ন	-2371
চন্দ্র	-2372
▁লম্বা	-2373
▁পরবর্তীতে	-2374
▁সৈ	-2375
▁সংবাদ	-2376
সহ	-2377
▁উদ্দেশ	-2378
িতায়	-2379
▁অ্যাকা	-2380
▁সম্প্র	-2381
োনা	-2382
োরা	-2383
▁ফ্রি	-2384
▁মডেল	-2385
ামা	-2386
িরে	-2387
▁সাবেক	-2388
▁অত	-2389
▁তাপ	-2390
▁বসে	-2391
▁গল্প	-2392
ুয়া	-2393
▁ডান	-2394
▁ওয়েস্ট	-2395
▁মাসে	-2396
▁সড়ক	-2397
্দের	-2398
▁রাজশ	-2399
▁উঠে	-2400
▁প্রণ	-2401
▁কর্মী	-2402
্রো	-2403
▁কেউ	-2404
▁সাগর	-2405
▁মাঠ	-2406
▁ভিন্ন	-2407
▁বৃহত্তম	-2408
তর	-2409
্যোতি	-2410
▁শুন	-2411
▁সৃষ্টি	-2412
▁প্রদত্ত	-2413
হ্ন	-2414
▁১৮৭	-2415
িত্ত	-2416
▁আপন	-2417
▁সন্ত	-2418
▁দোকান	-2419
্টি	-2420
▁বিজ্ঞানী	-2421
▁সভ্য	-2422
▁স্থাপনা	-2423
▁উভ	-2424
শ্রী	-2425
▁শাখা	-2426
▁পাদ	-2427
▁ষ	-2428
▁লী	-2429
▁মুর	-2430
▁চলচ্চিত্রে	-2431
▁চা	-2432
্রিক	-2433
▁সাঁ	-2434
▁প্রাণী	-2435
▁১৯৮৪	-2436
▁জায়গা	-2437
ালয়	-2438
াসের	-2439
▁খিচু	-2440
▁ধারণা	-2441
এফ	-2442
▁ভর্তা	-2443
নোল	-2444
▁কর্ণাট	-2445
▁সম্পর্কিত	-2446
▁কথ	-2447
▁পট	-2448
ার্ট	-2449
াজিক	-2450
▁মানব	-2451
▁প্রবেশ	-2452
▁গেমস	-2453
▁কণ	-2454
জিটে	-2455
▁বিবরণ	-2456
▁পরিমান	-2457
▁মজ	-2458
▁খাদ্য	-2459
▁ক্রীড়	-2460
াজি	-2461
সভার	-2462
▁নরম	-2463
▁মুক্ত	-2464
্যালয়ে	-2465
▁পুরান	-2466
▁পরীক্ষ	-2467
▁ঘর	-2468
▁নৌ	-2469
▁তেল	-2470
▁নীল	-2471
▁মুম্ব	-2472
▁স্বীক	-2473
▁এড	-2474
▁ল্দ	-2475
▁মজার	-2476
প্রদেশ	-2477
▁পুরো	-2478
▁এশিয়া	-2479
▁হওয়ার	-2480
▁দক্ষিণে	-2481
▁বিশ্বকাপের	-2482
ুড	-2483
্লিউ	-2484
স্থার	-2485
▁গেলে	-2486
নগর	-2487
ালাভ	-2488
▁দার	-2489
▁চীনের	-2490
▁জ্যোতি	-2491
▁শ্রীলঙ্	-2492
ভূমি	-2493
▁কথায়	-2494
▁শাসন	-2495
্রদায়ের	-2496
▁অ্যাকাডেম	-2497
▁নাট্য	-2498
▁ব্যক্তিত্ব	-2499
▁ফাইন	-2500
▁যন্ত্র	-2501
▁পাকিস্তানি	-2502
▁কের	-2503
▁বাড়	-2504
ইন	-2505
াদান	-2506
▁মতে	-2507
ণ্ডিত	-2508
▁রচনা	-2509
▁প্রত্নত	-2510
শোর	-2511
▁বয়সে	-2512
▁প্রকৃতি	-2513
ডে	-2514
জীবন	-2515
▁প্রোগ্রাম	-2516
▁লন্ড	-2517
াঞ্চলের	-2518
▁আমেরিকার	-2519
▁ক্রিকেটে	-2520
বেচ	-2521
▁৫৪	-2522
▁দুইটি	-2523
▁সংরক্ষণ	-2524
ীরে	-2525
রত	-2526
সম্প	-2527
▁ফ্লে	-2528
▁১৯৮০	-2529
▁একমাত্র	-2530
▁সংযুক্ত	-2531
বাম	-2532
▁ভিতরে	-2533
▁প্রতিনি	-2534
োঁ	-2535
▁ফলা	-2536
▁তর	-2537
ায়েত	-2538
▁ছাড়	-2539
▁পাতা	-2540
▁অনুষ্ঠান	-2541
িবেশ	-2542
▁আহমে	-2543
▁ইহুদি	-2544
ৃত্ত	-2545
▁সপ্ত	-2546
াবিজ্ঞ	-2547
▁বিবেচ	-2548
▁নিচে	-2549
▁পরিবর্তন	-2550
পুরে	-2551
▁কানা	-2552
▁প্রযোজ	-2553
▁স্পেশাল	-2554
▁ছব	-2555
▁রান	-2556
োরেশন	-2557
▁গড়ে	-2558
▁কাহিনী	-2559
▁ময়	-2560
▁দাব	-2561
হা	-2562
▁চিহ্ন	-2563
▁জৈ	-2564
▁বৃদ্ধ	-2565
ামো	-2566
▁ডাক	-2567
েটে	-2568
ক্রিয়	-2569
▁ঘোষণা	-2570
▁পড়ুন	-2571
ড়ে	-2572
্যুর	-2573
▁ওপর	-2574
▁রাখা	-2575
্যাক্স	-2576
▁শিল্পী	-2577
ণী	-2578
▁হই	-2579
▁নম্বর	-2580
ানোর	-2581
▁খুল	-2582
▁প্রবাসী	-2583
▁১৯৯৬	-2584
ণে	-2585
পের	-2586
▁নক	-2587
▁টাও	-2588
▁সাহায	-2589
▁নেট	-2590
▁অবশ্য	-2591
▁পরিবহন	-2592
এল	-2593
▁১৫০	-2594
িতি	-2595
▁ওদের	-2596
▁মুখে	-2597
▁ল্দান	-2598
শালা	-2599
ার্জ	-2600
▁তৈরী	-2601
ইউ	-2602
হুল	-2603
▁নিজের	-2604
▁বৈশিষ্ট্য	-2605
ভেল	-2606
▁থাকা	-2607
▁মানে	-2608
ঙ্গা	-2609
▁ডিজ	-2610
▁বেই	-2611
▁১৮৬	-2612
বের	-2613
▁ক্যান	-2614
ীপুর	-2615
▁প্রভ	-2616
▁বাংলার	-2617
▁রাজশাহী	-2618
▁আশ	-2619
▁নিরা	-2620
▁দিলাম	-2621
▁অবস্থা	-2622
▁রসায়ন	-2623
▁চরিত্রে	-2624
▁হাজার	-2625
▁হোস	-2626
▁তিব্বতী	-2627
তাব	-2628
▁মৌসুম	-2629
▁ধানমন্ডি	-2630
▁কার্যক্রম	-2631
▁উৎসব	-2632
▁১৯৯৯	-2633
▁উপাধি	-2634
▁মূল্য	-2635
▁রি	-2636
▁হাও	-2637
▁বোরহ	-2638
▁চৌধুরী	-2639
▁সোসাইটির	-2640
ধার	-2641
ফট	-2642
র্য	-2643
▁বাম	-2644
▁রেখে	-2645
▁অল	-2646
▁ইন্ট	-2647
িস্টেম	-2648
▁র্গ্যাল	-2649
▁সামাজিক	-2650
বাহী	-2651
▁তেমন	-2652
▁পৃথিবীর	-2653
▁আনু	-2654
▁পাহাড়	-2655
▁বন্দ	-2656
▁১৯৯৮	-2657
▁প্যার	-2658
িসংখ্যান	-2659
▁মিস	-2660
▁পাশাপা	-2661
▁সীমানা	-2662
▁যুক্তরাজ	-2663
▁১৯৯১	-2664
▁সূত্র	-2665
▁প্রকার	-2666
▁পাশাপাশি	-2667
▁আসলাম	-2668
▁৭৫	-2669
▁মেনু	-2670
▁এসেছে	-2671
▁আফগানিস্ত	-2672
▁চাঁ	-2673
▁খেলার	-2674
▁মালয়	-2675
▁মূ	-2676
দিষ্ট	-2677
▁সরকারের	-2678
ডিআই	-2679
াকুর	-2680
▁সংঘ	-2681
▁সম্পূর্ণ	-2682
যান	-2683
▁৪৫	-2684
▁অষ্ট	-2685
▁কালো	-2686
▁শী	-2687
▁তাও	-2688
▁নেত	-2689
▁আহমেদ	-2690
▁উদ্যান	-2691
▁আবিষ্কার	-2692
মিন	-2693
▁তাঁর	-2694
▁বসবাস	-2695
▁সামরিক	-2696
▁দেবী	-2697
▁আপনার	-2698
▁তারপর	-2699
▁মাধ্যমিক	-2700
▁নির	-2701
▁পানির	-2702
▁উত্তরে	-2703
েনীয়	-2704
▁ন্যাশনাল	-2705
▁চক্র	-2706
▁আপনি	-2707
▁এখান	-2708
▁কোর্	-2709
▁বিভক্ত	-2710
▁ধর্মীয়	-2711
জিল্যান্ড	-2712
গ্ন	-2713
▁এবার	-2714
▁দ্গা	-2715
▁কয়েকটি	-2716
হত	-2717
টিভ	-2718
উন্ট	-2719
▁প্রযুক্তি	-2720
এইচ	-2721
▁সমস	-2722
▁অ্যাস	-2723
ল্যান্ডের	-2724
▁দর্শনীয়	-2725
▁লিগ	-2726
▁নামেও	-2727
▁খার	-2728
▁আজকে	-2729
▁কর্মজীবন	-2730
▁প্রতিষ্ঠাতা	-2731
টো	-2732
ৈলী	-2733
▁নার	-2734
▁পঞ্চায়েত	-2735
▁৪৬	-2736
▁গেমসের	-2737
▁নির্বাচনী	-2738
▁উপক	-2739
▁ম্যাগ	-2740
▁ইলেকট্র	-2741
াজিল	-2742
াস্ত্র	-2743
▁ফলাফল	-2744
্ত্	-2745
▁পণ্ডিত	-2746
▁স্ত্রী	-2747
▁ব্যক্তিগত	-2748
▁কেন্দ্রীয়	-2749
▁পের	-2750
▁এশীয়	-2751
▁ওডিআই	-2752
▁পারফেক্ট	-2753
্রাট	-2754
▁আলু	-2755
▁সায়ে	-2756
প্তর	-2757
▁এতো	-2758
▁অস্ত	-2759
▁পেয়ে	-2760
▁সিস্টেম	-2761
ান্ধ	-2762
▁যাতে	-2763
ম্ভ	-2764
▁নিতে	-2765
▁ম্ত্	-2766
্বার	-2767
▁গ্ল	-2768
লাইন	-2769
▁ঘন	-2770
▁হাম	-2771
▁নিউজিল্যান্ড	-2772
্টা	-2773
▁ডাল	-2774
াসমূহ	-2775
▁বিপর	-2776
▁১৯৭১	-2777
তন্ত্র	-2778
▁মসজিদের	-2779
রাস	-2780
দ্দিন	-2781
▁প্রেম	-2782
মিত	-2783
▁ফর	-2784
▁দেশে	-2785
▁৫৫	-2786
▁দিবস	-2787
▁১৯৯২	-2788
▁যাওয়া	-2789
▁বিধানসভা	-2790
▁জাতি	-2791
▁চিকিৎস	-2792
▁হাজ	-2793
▁কর্প	-2794
ক্রান্ত	-2795
▁অনুবাদ	-2796
িনের	-2797
▁বেগ	-2798
ীনে	-2799
▁হর	-2800
▁হাউ	-2801
ারন	-2802
▁কাশ	-2803
▁গরুর	-2804
▁ক্যার	-2805
▁দেয়	-2806
াসা	-2807
ঙ্গল	-2808
▁১৯৭০	-2809
▁ব্যান্ড	-2810
▁প্রবাহিত	-2811
ায়িত	-2812
▁মনোন	-2813
▁তিব্বতের	-2814
▁৩৫	-2815
▁কাছ	-2816
▁১৯৮৬	-2817
মের	-2818
▁মিষ্টি	-2819
▁ইউরোপীয়	-2820
২২	-2821
পুঞ্জ	-2822
▁তড়ি	-2823
১০	-2824
িংক	-2825
্রিট	-2826
▁অভিষেক	-2827
েনে	-2828
▁থাই	-2829
▁৯৯	-2830
▁শ্যাম	-2831
▁প্রচুর	-2832
গ্	-2833
▁নেন	-2834
ওয়ার্ড	-2835
▁ডোমেইন	-2836
▁বৌদ্ধবিহারের	-2837
▁চ্যাম্পিয়নশিপ	-2838
ষ্টা	-2839
▁স্থাপত্য	-2840
পদ	-2841
উন্ড	-2842
▁মিড	-2843
▁ইঞ্জ	-2844
▁বঙ্গ	-2845
▁হাতে	-2846
▁প্রিম	-2847
ঘর	-2848
▁হোট	-2849
ন্ধরা	-2850
প্রজাত	-2851
▁ভিত্তি	-2852
ন্দা	-2853
▁কফি	-2854
▁পাত	-2855
ফোর্ড	-2856
▁অধ্য	-2857
▁পাদট	-2858
▁বন্য	-2859
▁বিশাল	-2860
▁সম্রাট	-2861
▁খ্রিস্টপূর্ব	-2862
▁পথ	-2863
▁জোস	-2864
▁জিম	-2865
▁ব্জা	-2866
▁জন্যে	-2867
▁দ্রুত	-2868
▁মিনিট	-2869
▁রংপুর	-2870
ার্গ	-2871
▁ফ্রেন্ড	-2872
▁কয়	-2873
▁নর	-2874
▁যাচ্	-2875
▁অর্থন	-2876
▁টেকনোল	-2877
▁উৎপত্তি	-2878
▁প্রতিটি	-2879
▁পিছ	-2880
▁১২০	-2881
প্রাণ	-2882
চর	-2883
▁মোহাম্মদপুর	-2884
▁এটির	-2885
▁দ্বীপপুঞ্জ	-2886
ক্ষম	-2887
াত্মক	-2888
▁ওপ	-2889
ভাষা	-2890
▁রোগ	-2891
▁করেছিল	-2892
▁খেলায়	-2893
যুগ	-2894
▁কং	-2895
▁৬৫	-2896
▁থানা	-2897
▁শব্দটি	-2898
খিত	-2899
▁শিক	-2900
▁অধীনে	-2901
▁আইসিসি	-2902
▁প্রথমে	-2903
▁কোল	-2904
▁যৌন	-2905
▁বাস্ত	-2906
▁ব্জাং	-2907
▁নাটক	-2908
▁পত্রিকা	-2909
▁মৌলিক	-2910
টিক	-2911
ীয়া	-2912
▁বাকি	-2913
▁শিশু	-2914
▁স্নাত	-2915
▁আন্দোলনের	-2916
দ্দ	-2917
▁ম্	-2918
▁ঘোষ	-2919
▁ম্যাচ	-2920
▁সংগ্রহ	-2921
▁আফ্রিকা	-2922
▁অ্যালবাম	-2923
▁সুলত	-2924
▁ইয়র্ক	-2925
গাও	-2926
নীয়	-2927
ষ্ঠী	-2928
▁আরবি	-2929
খালী	-2930
য়েড	-2931
েটার	-2932
▁সিদ্ধ	-2933
▁আয়োজন	-2934
কর্ম	-2935
▁কাজে	-2936
▁ইসলামি	-2937
▁উদ্ভাব	-2938
▁বিশ্বাস	-2939
রাজিত	-2940
▁এইটা	-2941
▁পিজ্জ	-2942
ষ্য	-2943
সিক	-2944
েটা	-2945
▁টপ	-2946
র্ধ্ব	-2947
▁কল্প	-2948
▁সুবি	-2949
▁চারটি	-2950
▁খিলগাঁও	-2951
েলি	-2952
▁তৎ	-2953
▁৬৩	-2954
▁আবাস	-2955
▁নবাব	-2956
▁সমান	-2957
▁উৎপাদন	-2958
▁চিত্রশালা	-2959
িসের	-2960
▁কোয়	-2961
▁মুরগ	-2962
▁পারবেন	-2963
ণ্য	-2964
নাট	-2965
▁জানা	-2966
ায়ণ	-2967
▁পাথ	-2968
তিহ্যবাহী	-2969
সু	-2970
▁শহীদ	-2971
▁খারাপ	-2972
দাম	-2973
বান	-2974
▁৭৪	-2975
▁কংগ্র	-2976
▁তারিখ	-2977
▁এফ	-2978
ছড়ি	-2979
েটের	-2980
▁আসি	-2981
্যন্ত	-2982
▁সিলেট	-2983
▁বরা	-2984
▁১৮৪	-2985
▁নিলাম	-2986
▁চেয়ে	-2987
▁তড়িৎ	-2988
▁স্থাপন	-2989
▁নির্দিষ্ট	-2990
▁রঙের	-2991
▁১৯৯৫	-2992
লাভ	-2993
্বে	-2994
▁গৃহ	-2995
▁পঞ্জ	-2996
▁গানের	-2997
▁হোসেন	-2998
ধর	-2999
▁রুশ	-3000
ভর	-3001
▁ছেন	-3002
▁নেয়	-3003
▁গ্যাল	-3004
▁উইল	-3005
ীরা	-3006
▁জগ	-3007
চ্ছি	-3008
▁মিউ	-3009
▁নাকি	-3010
▁১৯৮৮	-3011
▁খুলনা	-3012
▁ব্রাজিল	-3013
▁৩৬	-3014
▁ডেক	-3015
▁থাকবে	-3016
▁ব্যাট	-3017
▁শীর্ষ	-3018
▁ক্ষমতা	-3019
তলা	-3020
▁প্রজ	-3021
▁ইঞ্জিন	-3022
▁নেটওয়	-3023
াড়া	-3024
ুকে	-3025
▁রয়েল	-3026
বাড়	-3027
▁চীন	-3028
▁সুন	-3029
▁১৯৯৭	-3030
▁আও	-3031
▁বাইরে	-3032
▁হ্যা	-3033
▁১৯৮৯	-3034
প্রদেশের	-3035
▁ইম	-3036
োদ্ধ	-3037
▁একবার	-3038
▁মহাবিদ	-3039
▁৬৪	-3040
▁গণের	-3041
▁বিলুপ্ত	-3042
▁নাহ	-3043
▁সেল	-3044
▁১৮৫	-3045
িকাংশ	-3046
▁শেষে	-3047
▁টাঙ্গ	-3048
▁প্রস্থ	-3049
▁ব্রাঞ্চ	-3050
ক্ল	-3051
পাল	-3052
▁অনূ	-3053
▁মহান	-3054
▁১৯৭৩	-3055
▁ঠাকুর	-3056
▁ভেজিটে	-3057
▁যত	-3058
▁ইরা	-3059
ান্না	-3060
ামুটি	-3061
▁আর্ট	-3062
▁আলোচ	-3063
▁সম্ব	-3064
ুমাত্র	-3065
▁সুপার	-3066
▁উপাদান	-3067
▁বিষয়ে	-3068
▁অধিকাংশ	-3069
োপাধ্যায়	-3070
জর	-3071
▁প্রকল্প	-3072
▁বাগ	-3073
▁নদীটি	-3074
▁পাদটীকা	-3075
▁প্রভৃতি	-3076
▁মুহাম্মদ	-3077
▁সম্মাননা	-3078
▁ইংল্যান্ডের	-3079
▁মহারাষ্ট্রের	-3080
রূপ	-3081
▁৯০	-3082
প্লে	-3083
▁মিন	-3084
▁১৯৮৫	-3085
▁নিয়ন্ত্রণ	-3086
োনেশ	-3087
▁১৯৮৭	-3088
▁সুযোগ	-3089
ুলে	-3090
শৈলী	-3091
▁অধিব	-3092
▁উইকেট	-3093
▁গোত্র	-3094
ড্ডা	-3095
ালোচ	-3096
▁ছয়	-3097
▁নেতা	-3098
▁কিংবা	-3099
কাঠ	-3100
▁৫৬	-3101
ন্ধন	-3102
▁বায়	-3103
▁মেডেল	-3104
▁জাপানি	-3105
াপক	-3106
ত্তা	-3107
▁সাংস	-3108
▁গবেষণ	-3109
▁সাঁতার	-3110
▁প্রতিনিধ	-3111
▁ফ্ল	-3112
▁রোম	-3113
▁শাসিত	-3114
▁বিস্তৃত	-3115
ফ্র	-3116
▁৭২	-3117
াচার	-3118
▁১৮০	-3119
▁সবার	-3120
▁আবদুল	-3121
▁উন	-3122
▁ধন	-3123
▁গ্রামে	-3124
▁চলা	-3125
▁করেছিলাম	-3126
ফার	-3127
▁সমালোচ	-3128
▁যুদ্ধের	-3129
বেদ	-3130
▁কান	-3131
▁দলে	-3132
▁জমিদ	-3133
▁১৯৯৪	-3134
াদশ	-3135
▁১৮৩	-3136
▁লিমি	-3137
▁পান্থ	-3138
▁ক্রীড়াবিদ	-3139
ূর	-3140
▁জিনিস	-3141
▁বোরহানি	-3142
▁প্রত্যেক	-3143
▁প্রত্নতাত্ত্বিক	-3144
ব্ব	-3145
▁ইল	-3146
▁৭৩	-3147
▁টেব	-3148
▁আলোক	-3149
▁সমূহ	-3150
▁লাগবে	-3151
▁পরিসংখ্যান	-3152
পো	-3153
▁আসেন	-3154
▁ধর্মসম্প	-3155
▁সান	-3156
▁ত্রি	-3157
▁টেবিল	-3158
▁ভূমিকা	-3159
▁যাত্রা	-3160
▁সীমান্ত	-3161
হিত	-3162
মূলক	-3163
▁সাজ	-3164
▁শাসক	-3165
▁বৌদ্ধধর্ম	-3166
তির	-3167
▁গেল	-3168
▁সহযোগ	-3169
▁হা	-3170
▁মাইল	-3171
▁১৯৬০	-3172
▁১৯৯৩	-3173
▁গ্যাস	-3174
▁যুদ্ধে	-3175
▁ইতালীয়	-3176
▁প্রধানত	-3177
▁অধি	-3178
▁ভাত	-3179
▁করছে	-3180
▁বিষয়ক	-3181
▁ক্যালিফোর্নিয়া	-3182
▁হক	-3183
▁তুলে	-3184
▁প্রস্তুত	-3185
▁রাজবংশের	-3186
▁বিব	-3187
▁শির	-3188
▁সম্পন্ন	-3189
▁জুসি	-3190
▁সেতু	-3191
ন্দু	-3192
▁টেন	-3193
▁দাঁ	-3194
▁কখনো	-3195
▁কৃষি	-3196
▁তামিল	-3197
▁পুলিশ	-3198
▁বিজ্ঞ	-3199
্তা	-3200
সময়	-3201
▁অর্ধ	-3202
▁পিতার	-3203
▁উস	-3204
▁চট	-3205
▁যেন	-3206
েশ্বর	-3207
▁নিজে	-3208
▁১৯৮২	-3209
▁বুদ্ধ	-3210
▁শক্তি	-3211
▁অস্ট্রেলিয়ার	-3212
▁৬৯	-3213
স্থল	-3214
▁জনব	-3215
▁ওয়া	-3216
▁প্রিমিয়ার	-3217
▁প্রতিযোগিতায়	-3218
▁গৌ	-3219
▁টাঙ্গাইল	-3220
▁ভেজিটেবল	-3221
▁প্রে	-3222
▁২০১৭	-3223
▁চন্দ্র	-3224
▁শ্রেণীর	-3225
▁মোটামুটি	-3226
▁প্রতিনিধিত্ব	-3227
থি	-3228
রুম	-3229
▁চোখ	-3230
▁মাং	-3231
▁করতেন	-3232
▁লিমিটেড	-3233
▁আসতে	-3234
▁ব্লক	-3235
▁শ্রী	-3236
▁রন্ধন	-3237
▁শতকের	-3238
▁প্রাকৃতিক	-3239
▁শাখ	-3240
▁কৃষ্ণ	-3241
▁যোগ্য	-3242
▁পান্থপথ	-3243
▁শীতকালীন	-3244
নো	-3245
▁৬৭	-3246
▁ঢাক	-3247
▁মেড	-3248
▁সেনাবাহ	-3249
▁প্রয়োজন	-3250
▁আশা	-3251
বার্ট	-3252
▁ম্যাগাজ	-3253
▁বসুন্ধরা	-3254
খানা	-3255
▁মন্ত্রণ	-3256
সেল	-3257
হরণ	-3258
সিংহ	-3259
▁প্য	-3260
▁মাম	-3261
▁চাইলে	-3262
▁ব্যঞ্জন	-3263
র্তি	-3264
লায়	-3265
▁জড়	-3266
ন্দ্ব	-3267
▁আসলে	-3268
▁৩৩	-3269
▁৭৬	-3270
▁গোপ	-3271
▁লিপ	-3272
▁এভ	-3273
▁মায়	-3274
▁বিক্র	-3275
▁চতুর্থ	-3276
▁স্বর্ণ	-3277
▁বিপক্ষে	-3278
লাও	-3279
সিড	-3280
কারি	-3281
▁বিহার	-3282
▁যাদের	-3283
▁ফ্রান্সের	-3284
চক	-3285
▁ডাব	-3286
▁ঘটনা	-3287
▁গণিতবিদ	-3288
ান্ডা	-3289
▁কলেজের	-3290
▁অবস্থায়	-3291
▁বন্যপ্রাণ	-3292
মো	-3293
হীন	-3294
ালার	-3295
▁মালিক	-3296
নিজ	-3297
রুণ	-3298
▁কিমি	-3299
▁১৯৭৯	-3300
▁করছেন	-3301
▁বিদেশ	-3302
কর্ত	-3303
দপুর	-3304
াসির	-3305
ভূমিতে	-3306
▁পরিষদ	-3307
▁সংস্কৃত	-3308
াজা	-3309
লাকার	-3310
▁কমিউ	-3311
বিদ্যা	-3312
▁পরাজিত	-3313
▁পরিণ	-3314
▁৬২	-3315
▁ফির	-3316
▁বিত	-3317
▁ইন্স	-3318
ালো	-3319
ুদা	-3320
ার্চ	-3321
▁প্লেট	-3322
▁স্বীকৃতি	-3323
ইই	-3324
ারেল	-3325
▁দশক	-3326
▁দামঃ	-3327
▁পিতা	-3328
যুদ্ধের	-3329
▁ব্যাপক	-3330
▁তৎকালীন	-3331
ন্ব	-3332
▁মধ	-3333
▁মৌল	-3334
▁আব্দ	-3335
▁পার্টি	-3336
▁মৃত্যুর	-3337
ন্সিল	-3338
▁কারি	-3339
▁১৯৮৩	-3340
▁নিচের	-3341
▁প্রজাতিটি	-3342
▁মাথা	-3343
▁বার্গ	-3344
▁মেক্স	-3345
▁বিরোধী	-3346
▁অধিবর্ষ	-3347
▁সঙ্গীতশিল্পী	-3348
রিশ	-3349
▁উম	-3350
▁র্	-3351
▁খ্য	-3352
▁লিন	-3353
▁সফর	-3354
▁হতো	-3355
▁খেলাম	-3356
▁প্রান্ত	-3357
▁চীনা	-3358
▁ভুনা	-3359
▁জাহাজ	-3360
▁পদে	-3361
বাদিক	-3362
কোষ	-3363
▁৭৯	-3364
▁অল্প	-3365
▁টিভি	-3366
▁ক্রিস	-3367
▁বিচার	-3368
▁পাউ	-3369
▁কানাড	-3370
▁হালকা	-3371
▁ইন্দোনেশ	-3372
▁৬৮	-3373
সাগর	-3374
▁পদ্	-3375
▁সেটা	-3376
িলা	-3377
পক্ষ	-3378
▁পোস্ট	-3379
▁সেন্ট	-3380
▁প্রচার	-3381
▁৬৬	-3382
মহাদেশ	-3383
▁পেলাম	-3384
▁সিঙ্গ	-3385
▁ইন্ডিজ	-3386
▁কিছুটা	-3387
▁চিহ্নিত	-3388
▁সাংবাদিক	-3389
লোক	-3390
লিমি	-3391
▁ধাত	-3392
▁সিম	-3393
▁উভয়	-3394
▁টাইম	-3395
▁স্যু	-3396
▁দুর্গ	-3397
▁ব্যাক	-3398
▁শুধুমাত্র	-3399
▁আকাশ	-3400
েনা	-3401
▁ওড়	-3402
▁নির্বাচনে	-3403
ঘাট	-3404
▁ভোজ	-3405
▁ময়মন	-3406
লিমিটেড	-3407
▁সম্বন্ধ	-3408
▁কারন	-3409
▁বলেন	-3410
▁ফাইনাল	-3411
▁অনূর্ধ্ব	-3412
১৯	-3413
▁অর	-3414
ওয়ার	-3415
পুরা	-3416
▁ন্য	-3417
▁নির্ভর	-3418
▁পার্শ্ব	-3419
▁ব্যবহারকারী	-3420
িয়র	-3421
▁ব্স	-3422
▁বাহিনী	-3423
িকো	-3424
র্ষণ	-3425
▁কলা	-3426
াজপুর	-3427
▁১৯৭২	-3428
▁অনেকে	-3429
▁নিরাপ	-3430
▁স্পাই	-3431
ষ্ঠানিক	-3432
▁এটিকে	-3433
▁৩২	-3434
▁৭৮	-3435
্টার	-3436
▁এইচ	-3437
▁দান	-3438
▁বাট	-3439
প্রথম	-3440
▁পড়া	-3441
▁কবিতা	-3442
্পায়ার	-3443
▁সম্প্রচার	-3444
▁ইফ	-3445
লম্ব	-3446
নাট্য	-3447
▁আগের	-3448
▁দেখলাম	-3449
▁কাচ্চির	-3450
▁৭৭	-3451
াগার	-3452
▁মাশ	-3453
▁কয়েক	-3454
▁পরিক	-3455
▁লাইন	-3456
▁বোঝায়	-3457
াইল্যান্ড	-3458
▁৩৪	-3459
ধারী	-3460
বায়	-3461
▁আসছে	-3462
▁উপস্থ	-3463
▁ফিল্ম	-3464
▁হওয়া	-3465
▁একাধিক	-3466
▁ফ্লেভার	-3467
▁অস্ট্রেলিয়া	-3468
ঢ়	-3469
▁সাদ	-3470
াস্থ্য	-3471
উই	-3472
্যুৎ	-3473
▁মহা	-3474
মিটার	-3475
যোদ্ধ	-3476
▁অক্স	-3477
▁লুচি	-3478
▁১৯৭৬	-3479
▁ইউরোপের	-3480
▁সংবাদপত্র	-3481
েকোন	-3482
▁ধরা	-3483
▁প্যা	-3484
▁সিনেম	-3485
ঞ্চি	-3486
▁আক্রম	-3487
▁থাকতে	-3488
সায়নিক	-3489
▁বিহারের	-3490
িচ্	-3491
ীকরণ	-3492
▁হোটেল	-3493
চা	-3494
▁বদ	-3495
▁রেজ	-3496
▁১৯৭৮	-3497
তত্ত্ব	-3498
▁বাণিজ্যিক	-3499
▁পদার্থবিজ্ঞ	-3500
শনের	-3501
ৃতির	-3502
▁সোন	-3503
▁নদীতে	-3504
▁এখানকার	-3505
মু	-3506
▁কোয়	-3507
▁বেশির	-3508
▁বৃদ্ধি	-3509
▁মালয়েশ	-3510
▁লোকেশনঃ	-3511
ীস	-3512
▁যুব	-3513
▁জনবহুল	-3514
শো	-3515
▁২য়	-3516
▁আর্জে	-3517
▁প্রাপক	-3518
▁ওই	-3519
ুয়ে	-3520
ালিটি	-3521
▁ইউটি	-3522
▁দূরে	-3523
▁খেয়ে	-3524
▁গায়ক	-3525
▁ম্যাস	-3526
▁যেকোন	-3527
▁১ম	-3528
▁৭১	-3529
▁কোচ	-3530
▁মাহ	-3531
▁লামা	-3532
▁পার্ক	-3533
▁অপেক্ষ	-3534
▁থাইল্যান্ড	-3535
▁শার	-3536
▁দেয়া	-3537
▁নেতৃত	-3538
▁লিগের	-3539
▁ছাড়াও	-3540
▁প্রধানমন্ত্রী	-3541
াপন	-3542
▁ছোস	-3543
▁ফার	-3544
▁কার্	-3545
▁সময়ের	-3546
▁৩৮	-3547
▁স্নাতক	-3548
▁রাসায়নিক	-3549
েজ	-3550
ড়াই	-3551
▁লাগছে	-3552
▁স্ট্র	-3553
▁লোকসভা	-3554
▁এয়ার	-3555
▁পরিকল্প	-3556
▁নেটওয়ার্ক	-3557
▁উপন	-3558
▁একর	-3559
▁গাজ	-3560
▁খিচুড়ি	-3561
▁স্বাদুপ	-3562
▁ম্যাগাজিন	-3563
স্প	-3564
▁পশ	-3565
বর্ণ	-3566
▁উদ্ব	-3567
▁জাদু	-3568
▁চলচ্চিত্রটি	-3569
▁৫৭	-3570
্বাব	-3571
▁কুক	-3572
▁পৃষ্ঠ	-3573
▁ফিলিপ	-3574
▁প্রযোজক	-3575
▁মুক্তিপ্রাপ্ত	-3576
োফ	-3577
▁টম	-3578
ক্ষেপ	-3579
▁আয়ার	-3580
বীন্দ্র	-3581
▁রন্ধনশৈলী	-3582
উন	-3583
▁মশ	-3584
▁৫৮	-3585
▁উদা	-3586
▁ঙ্গ	-3587
▁দর্শ	-3588
▁অঙ্গরাজ	-3589
▁জাপানের	-3590
▁পরবর্তীকালে	-3591
দ্বীপ	-3592
▁আনলিমিটেড	-3593
▁আর্জেন্টি	-3594
্যাগ	-3595
▁ম্যাক	-3596
▁সাংসদ	-3597
▁ক্যাম্প	-3598
▁সম্পাদক	-3599
ধে	-3600
্টর	-3601
▁পাখ	-3602
বারের	-3603
▁কেবল	-3604
▁দ্বাং	-3605
▁বনানী	-3606
▁সর্বাধিক	-3607
▁প্রজাতন্ত্র	-3608
১৬	-3609
▁ঘণ	-3610
▁সর্	-3611
বাজার	-3612
▁প্রি	-3613
িত্তিক	-3614
▁অনলাইন	-3615
▁চক	-3616
▁দৌ	-3617
▁মোব	-3618
▁সংশ	-3619
াগরের	-3620
পন্যাস	-3621
▁থানার	-3622
▁শিক্ষার	-3623
▁স্বাদুপানির	-3624
▁দেখি	-3625
▁নানা	-3626
▁প্রায়	-3627
▁সমন্ব	-3628
▁হার্ভ	-3629
স্কৃতিক	-3630
পন্যাসিক	-3631
▁ক্ষুদ্র	-3632
▁টক	-3633
▁১৯৭৭	-3634
ভেন	-3635
▁পিক	-3636
▁দামে	-3637
▁মেয়	-3638
▁গুলশান	-3639
▁উদ্দেশ্যে	-3640
ুঁ	-3641
▁৮৫	-3642
▁কেক	-3643
▁বলি	-3644
▁২৫০	-3645
▁৫০০	-3646
▁অবদান	-3647
▁পরিণত	-3648
▁স্টার	-3649
▁উপমহাদেশ	-3650
▁অর্থনৈতিক	-3651
কেল	-3652
▁অনুম	-3653
▁বেসর	-3654
▁থাকলে	-3655
▁ব্যবস	-3656
▁রাজবংশ	-3657
জির	-3658
কদের	-3659
▁বিস্তার	-3660
িমা	-3661
▁কী	-3662
শ্বর	-3663
ামান	-3664
▁ফাল	-3665
পুরের	-3666
র্নাম	-3667
▁কিশোর	-3668
▁ভ্যাট	-3669
ীম	-3670
▁শো	-3671
▁কমন	-3672
▁আসামের	-3673
▁ভালোবাস	-3674
▁জ্যোতির্	-3675
▁পশ্চিমাঞ্চলের	-3676
শাস	-3677
ামি	-3678
▁কিছ	-3679
▁মাটন	-3680
ণা	-3681
িয়েত	-3682
েশনের	-3683
▁কর্মকর্ত	-3684
িসে	-3685
▁হোম	-3686
▁মহাসড়ক	-3687
▁সাম্রাজ্য	-3688
▁হার্ভার্ড	-3689
উল	-3690
টাও	-3691
ফের	-3692
চ্ছা	-3693
▁বনশ্রী	-3694
▁যাওয়া	-3695
▁সেন্টার	-3696
▁চাক	-3697
িবাসী	-3698
োগ্রা	-3699
▁অংশে	-3700
▁জুড়ে	-3701
▁শান্তি	-3702
ফিক	-3703
্নে	-3704
প্রেস	-3705
▁জনগণ	-3706
▁লিখে	-3707
▁সংসদীয়	-3708
▁সম্বন্ধে	-3709
িউড	-3710
▁হাঁ	-3711
▁বক্স	-3712
ড়িয়ে	-3713
▁আড্ডা	-3714
▁কুমার	-3715
▁জিম্বাব	-3716
▁চিত্রনাট্য	-3717
সিল	-3718
▁অগ্র	-3719
▁বাবা	-3720
▁ছাড়া	-3721
▁বাড়ি	-3722
▁বিদ্য	-3723
▁বিবাহ	-3724
▁মাংসের	-3725
▁সুলতান	-3726
▁প্রতিদ্ব	-3727
প্রজাতন্ত্রী	-3728
▁আসা	-3729
▁দ্প	-3730
▁হাফ	-3731
▁তুর্ক	-3732
▁বিদ্র	-3733
▁গত	-3734
▁কাট	-3735
▁পোল	-3736
▁পিএইচ	-3737
▁মধ্যযুগ	-3738
▁উইকিপিডিয়ায়	-3739
গন	-3740
▁আলো	-3741
▁চান	-3742
▁জ্ঞ	-3743
▁শেখর	-3744
েস্টার	-3745
▁উদাহরণ	-3746
য়াম	-3747
▁একত্র	-3748
▁ইন্টেরি	-3749
তুল	-3750
্বল	-3751
▁সের	-3752
▁চেয়ার	-3753
▁কাউন্সিল	-3754
তেই	-3755
▁মেঘ	-3756
▁ফিরে	-3757
▁১৯৭৫	-3758
▁দিনাজপুর	-3759
▁রবীন্দ্র	-3760
▁স্বাস্থ্য	-3761
ভিন	-3762
শেষে	-3763
▁কণ্	-3764
▁অ্যাক	-3765
▁শহরটি	-3766
▁মৃ	-3767
▁৪৪	-3768
▁গতি	-3769
▁সহজ	-3770
▁সোভ	-3771
ুয়ার	-3772
▁ফার্	-3773
▁অ্যাড	-3774
▁বরাবর	-3775
▁বস্তু	-3776
ভিত্তিক	-3777
▁মুম্বই	-3778
▁পঞ্জিকার	-3779
▁অত্য	-3780
▁অধিন	-3781
▁জর্জ	-3782
▁সমস্ত	-3783
▁উপস্থাপ	-3784
▁বিস্তৃতি	-3785
▁সাংস্কৃতিক	-3786
বাগ	-3787
ীবন	-3788
▁চাষ	-3789
▁ডিপ	-3790
াইটেড	-3791
▁আচার	-3792
▁সেমি	-3793
▁ভর্তি	-3794
▁মিলিয়ন	-3795
▁গণপ্রজাতন্ত্রী	-3796
১৪	-3797
িরি	-3798
হেতু	-3799
্লাই	-3800
▁হেল	-3801
ার্থক	-3802
▁রক্ত	-3803
তিক্রম	-3804
▁আমিরা	-3805
▁উইকিপিডিয়ার	-3806
▁করবে	-3807
▁কোটি	-3808
▁১৯৮১	-3809
এর	-3810
ষিক	-3811
ুরুর	-3812
▁১৭৫	-3813
▁চলছে	-3814
▁পঞ্চম	-3815
▁সংখ্য	-3816
▁সংগীত	-3817
▁অবশ্যই	-3818
১৩	-3819
▁তীরে	-3820
▁কার্ল	-3821
▁মাশরুম	-3822
▁গীত	-3823
▁অস্থ	-3824
▁১৯৩০	-3825
▁কাশ্ম	-3826
▁ছিলাম	-3827
ান্ত্রিক	-3828
▁উঠ	-3829
▁কত	-3830
▁রস	-3831
▁শৈ	-3832
▁গ্লা	-3833
▁নীতি	-3834
▁ফাইল	-3835
▁যেটা	-3836
▁সবুজ	-3837
▁সেবা	-3838
▁১৯৫০	-3839
ুলা	-3840
▁দা	-3841
বর্ষ	-3842
▁হচ্	-3843
ুসারে	-3844
▁ছুটি	-3845
▁পক্ষ	-3846
াব্দের	-3847
ালয়ের	-3848
▁পক্ষে	-3849
সাথে	-3850
▁আলি	-3851
▁কাঁ	-3852
ার্ল্ড	-3853
▁সোভিয়েত	-3854
▁ময়মনসিংহ	-3855
শী	-3856
সেন	-3857
▁ওল	-3858
▁১৯৬৪	-3859
▁১৯৭৪	-3860
▁গাছের	-3861
▁মিশ্র	-3862
▁স্যুপ	-3863
োধন	-3864
িতিক	-3865
্যাং	-3866
▁তথা	-3867
▁তুর	-3868
▁নৃত	-3869
▁১৯৬৯	-3870
▁পতাকা	-3871
▁মহাদেশ	-3872
▁মাইক্র	-3873
▁সন্তান	-3874
▁নিরাপত্তা	-3875
▁সাহিত্যিক	-3876
▁সাম্রাজ্যের	-3877
▁বিশ্ববিদ্যালয়ে	-3878
চল	-3879
াক্ত	-3880
োজিত	-3881
▁বুফে	-3882
▁নেপাল	-3883
▁পর্যটন	-3884
▁শতাব্দীতে	-3885
▁অজ	-3886
▁কুর	-3887
▁কোথ	-3888
▁সরাস	-3889
▁প্রমাণ	-3890
▁বৌদ্ধধর্মের	-3891
▁দখ	-3892
▁ক্য	-3893
যোদ্ধা	-3894
েকেন্ড	-3895
▁সমস্যা	-3896
াতের	-3897
▁পিৎ	-3898
▁ভেত	-3899
জার্ট	-3900
▁চিনি	-3901
▁অধিকার	-3902
বরা	-3903
াগ্স	-3904
্তান	-3905
রিক্ত	-3906
াউন্ড	-3907
▁প্রক্র	-3908
▁সরাসরি	-3909
খণ্ড	-3910
োলার	-3911
▁দের	-3912
তাবাদ	-3913
সম্যান	-3914
▁মোবাইল	-3915
▁সভাপতি	-3916
▁গ্রামের	-3917
▁স্পাইসি	-3918
▁তালিকায়	-3919
▁৮৪	-3920
্ডিং	-3921
▁বোন	-3922
মানিক	-3923
▁দ্যা	-3924
▁পণ্য	-3925
▁১৯৬৭	-3926
িয়েতন	-3927
▁সত্যি	-3928
▁দূরত্ব	-3929
▁ইউনাইটেড	-3930
ণি	-3931
মুখ	-3932
▁সো	-3933
▁খাল	-3934
▁ফের	-3935
▁হাট	-3936
▁হুম	-3937
েক্টর	-3938
▁গুলা	-3939
▁ভালই	-3940
▁ত্রিপ	-3941
▁জেনারেল	-3942
েন্ড	-3943
▁দেহ	-3944
▁রিপ	-3945
▁১৬০	-3946
▁আস্ত	-3947
▁সবচেয়ে	-3948
▁একাডেমি	-3949
▁প্রদর্শন	-3950
ষক	-3951
ধীন	-3952
াচল	-3953
▁৮৩	-3954
পাড়া	-3955
্টোপা	-3956
▁বর্ধ	-3957
▁জীবনের	-3958
▁রাস্তাটি	-3959
াসি	-3960
াতায়	-3961
িয়ানা	-3962
্যান্ট	-3963
▁ইন্দো	-3964
▁যাবেন	-3965
▁রোস্ট	-3966
▁প্রাইজ	-3967
▁ভিয়েতন	-3968
ওয়	-3969
▁খর	-3970
্তুগ	-3971
▁বরি	-3972
▁ইঞ্চি	-3973
▁কম্বো	-3974
▁মিলিয়ে	-3975
▁ব্যাপার	-3976
▁অতিরিক্ত	-3977
▁মাথ	-3978
▁শিক্ষালাভ	-3979
িল্লা	-3980
▁গ্রহ	-3981
▁পর্তুগ	-3982
▁নিযুক্ত	-3983
▁প্রতিদ্বন্দ্ব	-3984
দেব	-3985
▁৪৩	-3986
▁ব্রাহ	-3987
▁প্রকৌশল	-3988
▁সাহায্য	-3989
এক	-3990
▁রক	-3991
▁৮২	-3992
▁কমে	-3993
▁গুগ	-3994
▁গুণ	-3995
▁বীজ	-3996
▁সিক	-3997
▁সক্ষম	-3998
▁মন্দিরের	-3999
১৫	-4000
ধের	-4001
্ত্স	-4002
ওয়ান	-4003
▁বিয়ে	-4004
▁তাপমাত্র	-4005
▁আফগানিস্তানের	-4006
▁বাত	-4007
▁হোক	-4008
▁আর্থ	-4009
▁বিদ্যমান	-4010
কী	-4011
বণ	-4012
▁পড়	-4013
▁আগত	-4014
▁গভীর	-4015
▁ছেলে	-4016
▁ইফতার	-4017
▁হয়নি	-4018
▁বরিশাল	-4019
▁চট্টোপা	-4020
▁ডেজার্ট	-4021
▁অফিসিয়াল	-4022
▁কর্ণাটকের	-4023
▁শ্রীলঙ্কা	-4024
▁অপরা	-4025
▁আসলেই	-4026
▁পোলাও	-4027
▁পর্বতম	-4028
▁মহিলাদের	-4029
▁৩৭	-4030
▁রেড	-4031
▁কন্যা	-4032
▁রকমের	-4033
ুং	-4034
াউন	-4035
াটা	-4036
োদন	-4037
▁৩৯	-4038
▁জুল	-4039
ভাবিক	-4040
▁ওভার	-4041
▁পারি	-4042
▁বলবো	-4043
▁স্কট	-4044
▁দেওয়া	-4045
▁আব্দুল	-4046
▁রান্না	-4047
▁বিবেচনা	-4048
▁রেস্টুরেন্টে	-4049
চিত	-4050
গুপ্ত	-4051
ীতিতে	-4052
োয়ার	-4053
▁ওপেন	-4054
▁আনন্দ	-4055
▁থাকার	-4056
ম্ম	-4057
িটাল	-4058
▁ভুল	-4059
▁সৌদি	-4060
▁১৯৬২	-4061
▁দিকের	-4062
▁নাস্ত	-4063
▁শ্যামলী	-4064
ঘল	-4065
▁ঃ	-4066
ন্সে	-4067
▁টীকা	-4068
▁পাঁচটি	-4069
▁বোঝানো	-4070
▁আফ্রিকান	-4071
▁স্পেনীয়	-4072
▁মহাবিদ্যালয়	-4073
কেত	-4074
▁অণ	-4075
▁আচ	-4076
▁নয়	-4077
▁সন্ধ	-4078
▁হলুদ	-4079
▁লক্ষ্য	-4080
গায়	-4081
ারিং	-4082
িবার	-4083
িসংঘ	-4084
▁পরা	-4085
ধর্মী	-4086
▁হ্রদ	-4087
▁রাস্তা	-4088
▁অভ্যন্ত	-4089
ৃদ্ধ	-4090
▁ভ্রম	-4091
▁রুটি	-4092
▁ক্যাফে	-4093
▁বিশ্বকোষ	-4094
▁উর	-4095
▁জেম	-4096
▁১টি	-4097
▁উয়ে	-4098
াভাবিক	-4099
▁ওড়িশ	-4100
▁বিদ্রোহ	-4101
র্মা	-4102
▁পদ্ম	-4103
▁ব্রো	-4104
▁স্বর	-4105
▁হায়	-4106
▁মন্ত্র	-4107
▁পটভূমিতে	-4108
জনক	-4109
তাম	-4110
▁মেইন	-4111
▁ক্যাম	-4112
▁মাদ্র	-4113
▁পিএইচডি	-4114
▁এক্সপ্রেস	-4115
▁ব্যবসায়ী	-4116
১২	-4117
১৭	-4118
ুতি	-4119
ুনি	-4120
▁খুঁ	-4121
▁কল্পক	-4122
▁ক্যাপ	-4123
▁দেবতা	-4124
▁অ্যাকাডেমির	-4125
সান	-4126
▁দিচ্	-4127
▁মিউজ	-4128
▁টেনিস	-4129
▁ফ্রেঞ্চ	-4130
▁ব্রাহ্ম	-4131
▁সর্বপ্রথম	-4132
ৃপ	-4133
▁পল	-4134
ীরের	-4135
▁জ্ব	-4136
▁পাট	-4137
বিকিউ	-4138
উদ্দিন	-4139
▁কার্ব	-4140
▁যেহেতু	-4141
▁আমেরিকা	-4142
▁ইন্ডিয়া	-4143
▁সার্	-4144
▁পাশের	-4145
▁ফিল্ড	-4146
▁ফেডার	-4147
▁রাজত্ব	-4148
▁ব্যবসায়	-4149
▁হো	-4150
▁লীগ	-4151
▁লেন	-4152
▁সফল	-4153
▁১৯৪৭	-4154
▁পাউবো	-4155
▁বর্গক	-4156
▁পর্যায়ে	-4157
▁মৃত্যুবরণ	-4158
▁খেলোয়াড়ী	-4159
▁ব্যাটসম্যান	-4160
ায়ন	-4161
▁টিন	-4162
▁বার্গারের	-4163
ংলা	-4164
ড়ার	-4165
দ্রা	-4166
▁এখনো	-4167
▁কেমন	-4168
▁কমিশন	-4169
▁পড়াশ	-4170
▁মুদ্র	-4171
▁সংজ্ঞ	-4172
▁সূর্য	-4173
▁এগ	-4174
শ্রে	-4175
▁শুক	-4176
▁১৯৬৫	-4177
▁আকারে	-4178
▁ছবিতে	-4179
▁ধ্বংস	-4180
▁নেদার	-4181
▁ভরপুর	-4182
স্থানের	-4183
▁যুক্তরাষ্ট্রে	-4184
রেট	-4185
▁তৈর	-4186
▁মাত	-4187
▁সেফ	-4188
কুমার	-4189
▁আমাকে	-4190
▁উয়েফা	-4191
▁স্থাপিত	-4192
▁ওয়ার্ল্ড	-4193
▁আউট	-4194
▁আবু	-4195
▁চাম	-4196
▁দলটি	-4197
▁হাইড	-4198
▁তুলনা	-4199
▁পছন্দের	-4200
▁রসায়নবিদ	-4201
▁রাষ্ট্রীয়	-4202
খিল	-4203
▁বাঘ	-4204
গুলার	-4205
▁সিংহ	-4206
▁১৯৫৬	-4207
▁লেভেল	-4208
১৮	-4209
চিক	-4210
াবি	-4211
েলে	-4212
▁আদি	-4213
ুয়ের	-4214
▁অভিয	-4215
▁দত্ত	-4216
ইতিহাস	-4217
▁অ্যাপ	-4218
▁তালিকাভুক্ত	-4219
দ্য	-4220
াসে	-4221
হারি	-4222
▁উনি	-4223
▁কিউ	-4224
▁মোর	-4225
▁ওয়েল	-4226
▁ট্রেন	-4227
▁অবলম্ব	-4228
▁জাতিসংঘ	-4229
▁ট্যাক্স	-4230
▁পরিবেশন	-4231
▁কর্মকর্তা	-4232
্টন	-4233
▁টিক	-4234
▁বেন	-4235
▁দ্গে	-4236
▁ব্লো	-4237
▁উপকূল	-4238
▁দ্পাল	-4239
▁সহায়	-4240
▁পরিমাপ	-4241
▁৪২	-4242
▁টার	-4243
▁সাউ	-4244
▁২টি	-4245
োসিয়	-4246
▁স্বপ	-4247
▁১৯৬১	-4248
ারেটিং	-4249
▁নিজস্ব	-4250
▁মেট্রো	-4251
▁প্রস্তাব	-4252
▁চেয়ারম্যান	-4253
িত্য	-4254
দানের	-4255
▁২০১৮	-4256
্রদায়	-4257
▁দৈনিক	-4258
চেস্টার	-4259
▁পেশাদার	-4260
▁খ্রিষ্টাব্দ	-4261
▁পাপ	-4262
▁সম্ভাব	-4263
▁অত্যন্ত	-4264
▁শ্রীলঙ্কার	-4265
ণিক	-4266
দিক	-4267
ত্তর	-4268
▁করবেন	-4269
▁মানের	-4270
▁শুরুর	-4271
▁প্রতিযোগী	-4272
▁প্রতিযোগিতার	-4273
লন	-4274
ঁচু	-4275
ঙ্গে	-4276
ধারণ	-4277
য়াল	-4278
্ডার	-4279
▁মিট	-4280
ান্ডার	-4281
▁মূর্তি	-4282
▁নাম্বার	-4283
ফুল	-4284
র্ভ	-4285
িংস	-4286
▁সরীস	-4287
ক্ষেত্র	-4288
▁উপজেলায়	-4289
পিস	-4290
ভারি	-4291
েসের	-4292
ন্ধান	-4293
▁খালি	-4294
▁প্রাই	-4295
▁চেষ্টা	-4296
▁স্মৃতি	-4297
▁ভাষাবিজ্ঞ	-4298
▁মন্ত্রণালয়	-4299
চেল	-4300
বাব	-4301
কিছু	-4302
▁বাফ	-4303
▁পেতে	-4304
▁মল্ল	-4305
▁১৯৫৮	-4306
▁কর্ণাটক	-4307
▁অলিম্পিকের	-4308
ঠি	-4309
াড	-4310
জরা	-4311
টিস	-4312
▁ত্	-4313
াঙ্ক	-4314
য়েছে	-4315
▁কৌশ	-4316
▁লেগ	-4317
াওয়া	-4318
▁ছায়	-4319
▁মিশর	-4320
▁খিলগাও	-4321
▁ঠান্ডা	-4322
▁পার্টির	-4323
▁বেসরকারি	-4324
ঠিক	-4325
▁নজর	-4326
▁বোম	-4327
ব্বিশ	-4328
▁এখনও	-4329
▁ঘুরে	-4330
ানুসারে	-4331
▁জায়গা	-4332
▁শ্রেণী	-4333
▁পদার্থবিজ্ঞান	-4334
য়র	-4335
▁একু	-4336
▁বাসম	-4337
▁চব্বিশ	-4338
▁তন্ত্র	-4339
▁ইসলামের	-4340
▁প্রশিক্ষ	-4341
াগত	-4342
হারে	-4343
▁কেম	-4344
▁১৯৪৮	-4345
▁ভূমিক	-4346
▁ইসলামী	-4347
▁পুনরায়	-4348
▁বৌদ্ধবিহার	-4349
ধ্ব	-4350
▁ডক	-4351
িস্থ	-4352
▁ইস্ট	-4353
▁ডানহ	-4354
▁উসমান	-4355
▁ক্যাথ	-4356
▁জড়িত	-4357
▁সম্ভবত	-4358
▁সরীসৃপ	-4359
▁ব্রোঞ্জ	-4360
ছা	-4361
রকম	-4362
▁বগু	-4363
▁১৭৯	-4364
▁গোলা	-4365
▁মানিক	-4366
▁আম্পায়ার	-4367
▁ল্	-4368
লমান	-4369
িলার	-4370
▁দাস	-4371
▁ভুট	-4372
▁১৮২	-4373
▁হাসান	-4374
▁প্রশাসক	-4375
▁আঁ	-4376
▁মঞ্চ	-4377
▁মর্য	-4378
▁আসনটি	-4379
▁ইচ্ছা	-4380
▁চট্টোপাধ্যায়	-4381
টাক	-4382
তিন	-4383
্যোগ	-4384
▁তলা	-4385
▁ফুচ	-4386
ওয়েল	-4387
▁কক্ষ	-4388
▁খাদক	-4389
▁ছবিটি	-4390
▁নামটি	-4391
▁ব্যাব	-4392
▁হত্যা	-4393
▁স্থানের	-4394
▁বন্যপ্রাণী	-4395
▁অস্ট্রেলীয়	-4396
▁মধ্যপ্রদেশের	-4397
▁পদার্থবিজ্ঞানে	-4398
মূল	-4399
পরিব	-4400
▁মির	-4401
▁জীবনে	-4402
▁পরিভাষা	-4403
▁স্বাধীনতার	-4404
▁নেদারল্যান্ড	-4405
কলা	-4406
▁রিস	-4407
▁উইংস	-4408
▁দিনে	-4409
▁নকশা	-4410
▁শুনে	-4411
▁১৯৬৮	-4412
▁খেয়েছি	-4413
▁শব্দের	-4414
▁সুবিধা	-4415
▁স্বাদের	-4416
াগো	-4417
▁ইক	-4418
▁ভব	-4419
্ট্র	-4420
▁আশে	-4421
▁ওজন	-4422
▁কোষ	-4423
▁১৪০	-4424
্যাটার	-4425
▁আক্রমণ	-4426
▁হাসপাত	-4427
হারী	-4428
▁মেল	-4429
▁১৩০	-4430
▁নাইট	-4431
▁১৯৫২	-4432
▁জায়গ	-4433
▁সাপ	-4434
ষ্টির	-4435
▁জিতে	-4436
▁সর্পি	-4437
▁মন্ত্রী	-4438
▁কল্পকাহিনী	-4439
▁সর্পিলাকার	-4440
দহ	-4441
শীপ	-4442
োটা	-4443
▁দই	-4444
▁চাট	-4445
▁পাশেই	-4446
▁সায়েন্স	-4447
▁ব্যবস্থাপ	-4448
ৎকার	-4449
▁কাজের	-4450
▁অভিজ্ঞ	-4451
▁যোগদান	-4452
▁সিদ্ধান্ত	-4453
▁বাড়	-4454
▁যৌথ	-4455
▁রিন	-4456
▁পৃথক	-4457
ওয়ায়	-4458
▁লন্ডন	-4459
▁বিল্ডিং	-4460
▁সংক্রান্ত	-4461
টিল	-4462
▁জৈন	-4463
▁সিল	-4464
ড়ায়	-4465
▁অভয়	-4466
▁আর্ম	-4467
িল্লাহ	-4468
▁জাপান	-4469
▁সমগ্র	-4470
▁মহানগর	-4471
▁হাওড়া	-4472
টক	-4473
োরি	-4474
▁গল	-4475
▁তৃ	-4476
▁অধীন	-4477
▁চোখে	-4478
▁১৯৪০	-4479
লোকেশন	-4480
াচার্য	-4481
▁সরকারী	-4482
▁উইলিয়াম	-4483
উর	-4484
কীয়	-4485
ঙ্কর	-4486
ার্সের	-4487
▁সুস্ব	-4488
▁ঠিকানা	-4489
▁মিয়ান	-4490
▁বিদ্যুৎ	-4491
▁মুসলমান	-4492
▁রাশিয়ার	-4493
▁ইঞ্জিনিয়	-4494
ুণ	-4495
জান	-4496
▁গি	-4497
▁৮৬	-4498
▁লিপি	-4499
▁পরিমাণে	-4500
▁জার্মানির	-4501
ডো	-4502
ার্লস	-4503
▁গায়	-4504
▁১৯৬৩	-4505
▁আন্তঃ	-4506
▁বেইলি	-4507
▁অভিনয়ের	-4508
▁প্রার্থী	-4509
▁ইন্ডিয়ান	-4510
▁তত	-4511
▁খলি	-4512
▁হিজ	-4513
াগতিক	-4514
▁কিনা	-4515
▁প্রস	-4516
▁বলার	-4517
▁কোথাও	-4518
▁গ্রিল	-4519
▁ব্যাং	-4520
▁অনেকটা	-4521
▁প্রোগ্রামিং	-4522
িনার	-4523
▁র্জে	-4524
▁খাওয়া	-4525
▁টেকনোলজি	-4526
লীয়	-4527
▁বৃহৎ	-4528
▁আদর্শ	-4529
▁কিছুই	-4530
▁গভর্ন	-4531
▁সমর্থ	-4532
▁উদ্ভাবন	-4533
▁প্রতিষ্ঠার	-4534
জিং	-4535
▁দো	-4536
পাশে	-4537
ুনের	-4538
▁কুন	-4539
▁উঁচু	-4540
▁এগুলো	-4541
▁মুম্বাই	-4542
▁উদ্দেশ্য	-4543
▁শাম	-4544
গোষ্ঠী	-4545
▁চিকিৎ	-4546
▁ভিক্ষ	-4547
▁অস্ত্র	-4548
▁আকর্ষণ	-4549
▁যাচ্ছে	-4550
▁উপল	-4551
▁ক্রম	-4552
প্রকাশ	-4553
্গ	-4554
তিতে	-4555
▁এসব	-4556
▁সুপ	-4557
▁কলাম	-4558
▁উপত্য	-4559
▁মহাকা	-4560
▁মাসের	-4561
▁সংকেত	-4562
▁প্রকৃত	-4563
▁অসমীয়া	-4564
▁প্রয়োগ	-4565
▁নামকরণকৃত	-4566
▁মুক্তিযোদ্ধা	-4567
▁ইট	-4568
▁মঠ	-4569
▁চাও	-4570
ন্দাজ	-4571
▁কষ্ট	-4572
▁জ্যাম	-4573
▁৩০০টি	-4574
▁ইরানের	-4575
▁কুমিল্লা	-4576
আন	-4577
াবা	-4578
▁ছু	-4579
▁নাচ	-4580
▁১৯৫৭	-4581
▁১৯৬৬	-4582
▁আর্টস	-4583
▁গোল্ড	-4584
▁আকারের	-4585
▁ট্যাক্সা	-4586
▁যুক্তরাজ্যের	-4587
▁এট	-4588
বস্ত	-4589
েজার	-4590
▁শের	-4591
টেস্ট	-4592
▁রাখে	-4593
▁শতকে	-4594
▁পিৎজা	-4595
▁তুলনায়	-4596
▁ব্যাচেল	-4597
▁ডেকোরেশন	-4598
▁স্বাভাবিক	-4599
▁আগেই	-4600
▁২০১৯	-4601
য়েন্ট	-4602
▁অধিনায়ক	-4603
▁ইন্টেরিয়র	-4604
েনি	-4605
য়িক	-4606
▁আলম	-4607
▁চেক	-4608
▁রাত	-4609
▁রিক	-4610
▁সূচ	-4611
▁আঞ্চ	-4612
▁চেয়ে	-4613
▁নাগা	-4614
▁সংস্থার	-4615
▁প্রখ্যাত	-4616
▁ইংল্যান্ডে	-4617
▁পাকিস্তানে	-4618
▁৮৮	-4619
▁উইন্ড	-4620
▁দুইটা	-4621
▁দিল্লি	-4622
▁বৃষ্টি	-4623
▁উপাধিধারী	-4624
▁কর্তৃপক্ষ	-4625
▁মক	-4626
ুলিয়া	-4627
▁কাব্য	-4628
▁পুরাণ	-4629
▁অনুযায়	-4630
▁স্বাদু	-4631
▁পর্যায়	-4632
▁কোয়ালিটি	-4633
▁চিকিৎসাবিজ্ঞ	-4634
রাব	-4635
েমে	-4636
▁তম	-4637
াক্স	-4638
্বাস	-4639
▁উক্ত	-4640
▁ছবির	-4641
▁নাগরিক	-4642
▁বিপরীত	-4643
জল	-4644
য়ের	-4645
ুদিন	-4646
েম্ব	-4647
▁ধরন	-4648
▁শতক	-4649
▁১৯শ	-4650
ধানের	-4651
াণিতিক	-4652
িয়াতে	-4653
▁রেডিও	-4654
▁মজাদার	-4655
▁সুস্বাদু	-4656
▁চক্রবর্তী	-4657
▁প্ল্যাটার	-4658
কির	-4659
▁চিল	-4660
▁রুপ	-4661
▁হাব	-4662
▁নিহত	-4663
▁খেতাব	-4664
▁পার্ব	-4665
▁হিসাব	-4666
▁আঞ্চলিক	-4667
▁পিজ্জার	-4668
টিত	-4669
খ্যা	-4670
▁হকি	-4671
▁আইইউ	-4672
▁টাইপ	-4673
▁সেখান	-4674
▁স্ট্রিট	-4675
▁কর্পোরেশন	-4676
ওর	-4677
ুসেট	-4678
▁যৌগ	-4679
▁ষষ্ঠ	-4680
▁ব্যবসা	-4681
▁প্রত্যা	-4682
ড্র	-4683
শাক	-4684
▁যম	-4685
▁সন	-4686
▁পৌঁ	-4687
কালের	-4688
▁গান্ধ	-4689
▁ভেতরে	-4690
▁রয়েছে	-4691
▁জায়গায়	-4692
▁টাকায়	-4693
▁উচ্চারণ	-4694
▁ইউনিয়নে	-4695
▁প্রকৌশলী	-4696
▁মধ্যযুগীয়	-4697
▁চম	-4698
▁সচ	-4699
স্তি	-4700
▁বেলা	-4701
▁শিষ্য	-4702
▁বানানো	-4703
▁রাউন্ড	-4704
▁উপমহাদেশের	-4705
▁ভা	-4706
▁পথে	-4707
নিস্ট	-4708
্লেষণ	-4709
▁মরিচ	-4710
▁গুজরা	-4711
▁প্রজাপতি	-4712
ঘাত	-4713
▁কাহ	-4714
▁কুই	-4715
▁মনো	-4716
▁সাইজ	-4717
▁অবকাঠ	-4718
▁গুপ্ত	-4719
▁ঘণ্টা	-4720
▁নৃত্য	-4721
▁মাসালা	-4722
▁র্গ্যা	-4723
▁নদীসমূহ	-4724
▁সক্রিয়	-4725
▁য়	-4726
▁লো	-4727
ৃঙ্গ	-4728
▁১৭৭	-4729
ধরনের	-4730
▁আর্ক	-4731
▁সাইড	-4732
▁১৯৫৪	-4733
কাউন্ট	-4734
▁সিরাজ	-4735
▁আলোচনা	-4736
▁উৎপন্ন	-4737
▁যাওয়ার	-4738
▁অতিক্রম	-4739
র্নামেন্ট	-4740
স্ফ	-4741
▁৬১	-4742
▁হুগ	-4743
▁১৭০	-4744
▁উজ্জ	-4745
▁হবার	-4746
▁দৃশ্য	-4747
▁মেয়ে	-4748
▁একসাথে	-4749
▁দৃষ্টি	-4750
▁বগুড়া	-4751
▁দোকানের	-4752
▁নারায়ণ	-4753
▁আনুমানিক	-4754
▁অ্যাকাডেমি	-4755
▁অর্থনীতিবিদ	-4756
▁ফিজ	-4757
ন্ডার	-4758
▁ধাতু	-4759
▁কলেজে	-4760
▁দরকার	-4761
▁বর্ণের	-4762
খার	-4763
জিৎ	-4764
ভিড	-4765
▁পরগ	-4766
▁পাস	-4767
▁অন্ধ	-4768
▁ভিতর	-4769
াচুসেট	-4770
▁একুশে	-4771
▁প্যাকে	-4772
▁লক্ষ্ম	-4773
▁টুর্নামেন্ট	-4774
তেন	-4775
▁রশ	-4776
দন্ত	-4777
সিএন	-4778
▁জাল	-4779
▁ডাই	-4780
▁দখল	-4781
▁মুজ	-4782
▁বয়স	-4783
▁কমিটি	-4784
▁জমিদার	-4785
▁সম্মুখ	-4786
বেদন	-4787
মালা	-4788
▁খোলা	-4789
▁রূপে	-4790
▁১৯৫৫	-4791
▁খাসির	-4792
▁সেফোস	-4793
▁লোকসভার	-4794
▁স্ট্যান	-4795
▁প্রশান্ত	-4796
▁রাজস্থান	-4797
▁বর্গকিলোমিটার	-4798
বত	-4799
সাম	-4800
▁ব্	-4801
▁দুর	-4802
▁৩য়	-4803
▁আছেন	-4804
▁উন্ম	-4805
▁গণ্য	-4806
▁সূরা	-4807
▁কলম্ব	-4808
রাষ্ট্র	-4809
▁উনাদের	-4810
▁চুক্তি	-4811
▁থাকলেও	-4812
▁মনোনীত	-4813
▁সম্মিল	-4814
▁প্রযোজন	-4815
▁বাহিনীর	-4816
▁হয়েছিলেন	-4817
থের	-4818
পুরি	-4819
ভাগে	-4820
ষ্ঠীর	-4821
▁সাইট	-4822
▁পাখির	-4823
▁সুনাম	-4824
▁আরেকটি	-4825
▁পার্থক	-4826
▁ম্যাসাচুসেট	-4827
্তি	-4828
াব্য	-4829
▁দাও	-4830
▁ধ্র	-4831
▁সোম	-4832
▁এটার	-4833
▁ডায়	-4834
▁লড়াই	-4835
▁রেগুলার	-4836
▁সেকেন্ড	-4837
▁পরিকল্পনা	-4838
কান	-4839
হ্ম	-4840
েটো	-4841
ৃষ্ণ	-4842
ন্সের	-4843
▁১৯২০	-4844
▁ধর্মের	-4845
▁মুদ্রা	-4846
▁অ্যানিম	-4847
▁যোগ্যতা	-4848
▁রাজস্থানের	-4849
▁তফ	-4850
ন্নি	-4851
▁জুস	-4852
▁ভ্র	-4853
▁মাগ	-4854
▁সূর	-4855
মাধ্য	-4856
▁ভাস্	-4857
▁সৈয়	-4858
্বিয়া	-4859
▁মুখ্য	-4860
▁অভয়ারণ	-4861
▁মুহাম্ম	-4862
▁উসমানীয়	-4863
মত	-4864
▁গুগল	-4865
গুলিতে	-4866
▁উপরের	-4867
▁গ্লাস	-4868
▁টেক্স	-4869
▁ডিগ্রী	-4870
▁মহাসাগর	-4871
জু	-4872
▁চূ	-4873
▁আসল	-4874
▁ভরে	-4875
▁আসার	-4876
▁কমান	-4877
▁কমিক	-4878
▁খণ্ড	-4879
▁কোল্ড	-4880
▁মিলিত	-4881
▁হাঙ্গ	-4882
▁হাতের	-4883
শাস্ত্র	-4884
▁অনুযায়ী	-4885
▁নিয়মিত	-4886
▁পশ্চিমবঙ্গে	-4887
ব্লিউ	-4888
▁জেমস	-4889
▁১৯৫৯	-4890
▁ইউটিসি	-4891
▁প্রবর্ত	-4892
▁মসজিদটি	-4893
▁সিরিজের	-4894
▁আইইউসিএন	-4895
▁মাদ্রাসা	-4896
▁ম্যানেজার	-4897
▁আয়ারল্যান্ড	-4898
কোট	-4899
▁পব	-4900
ারেজ	-4901
▁রোডে	-4902
▁১৯৪৫	-4903
▁ব্স্তান	-4904
▁যাওয়ার	-4905
▁ভিত্তিতে	-4906
▁কমিউনিস্ট	-4907
▁ইলেকট্রনিক	-4908
চী	-4909
▁মুহ	-4910
▁২০২	-4911
▁৪০০	-4912
্যাপী	-4913
▁অপরাধ	-4914
▁কালাভ	-4915
▁প্রজন	-4916
▁যুগের	-4917
▁লাভার	-4918
▁স্কয়ার	-4919
▁স্পোর্ট	-4920
▁অবকাঠামো	-4921
▁ইংরেজিতে	-4922
▁বেশিরভাগ	-4923
▁সাহায্যে	-4924
▁ম্যানচেস্টার	-4925
দো	-4926
টেন	-4927
ক্তি	-4928
ুগ্স	-4929
শাসিত	-4930
স্টার	-4931
▁আসাম	-4932
▁দুটো	-4933
▁আসনের	-4934
▁খাইতে	-4935
▁পাড়া	-4936
▁রাখার	-4937
▁জর	-4938
▁যথ	-4939
▁৮১	-4940
ট্রা	-4941
স্তা	-4942
াংশে	-4943
িবাগ	-4944
▁যেই	-4945
ক্রিম	-4946
সংখ্যা	-4947
▁মিত্র	-4948
▁ল্যাব	-4949
কেন্দ্র	-4950
▁আইটেমের	-4951
▁বর্ধমান	-4952
▁চট্টগ্রামের	-4953
লাশ	-4954
▁কঠ	-4955
▁লস	-4956
▁শাক	-4957
বাংলা	-4958
মারের	-4959
▁আওতা	-4960
▁টি২০	-4961
ার্ভিস	-4962
▁একাদশ	-4963
▁তান্দ	-4964
▁মেট্র	-4965
▁ভাবলাম	-4966
▁পরিবারে	-4967
▁অবলম্বনে	-4968
দু	-4969
রন	-4970
বির	-4971
লাস	-4972
▁শতা	-4973
▁্যা	-4974
▁অঙ্ক	-4975
▁কাজী	-4976
▁১৯৩৬	-4977
গ্রন্থ	-4978
▁শারীর	-4979
▁হালিম	-4980
▁দিয়েছেন	-4981
▁কংগ্রেসের	-4982
▁ডিসকাউন্ট	-4983
জো	-4984
▁কৌ	-4985
াকাল	-4986
▁বুল	-4987
▁উর্দ	-4988
▁১৯৩২	-4989
ান্তরিত	-4990
▁ভাল্লা	-4991
▁ম্ত্শো	-4992
▁রেটিংঃ	-4993
▁কর্পোরে	-4994
▁হওয়ায়	-4995
▁অংশগ্রহণকারী	-4996
▁বিশ্বযুদ্ধের	-4997
নির	-4998
লিং	-4999
▁ওঠে	-5000
▁কাগ	-5001
▁ভিক	-5002
▁মেয়	-5003
ওয়াল	-5004
▁গুলি	-5005
▁সেনা	-5006
▁১০পর	-5007
্যান্স	-5008
▁লাতিন	-5009
▁রবার্ট	-5010
▁সহকারী	-5011
ষি	-5012
র্জন	-5013
র্দো	-5014
িল্ড	-5015
▁টুক	-5016
▁সেক	-5017
াঙ্গা	-5018
▁বেশী	-5019
নামূলক	-5020
▁স্টেট	-5021
▁স্বামী	-5022
ওন	-5023
গল	-5024
শত	-5025
ছরে	-5026
ুমি	-5027
্নের	-5028
▁মেশ	-5029
খানের	-5030
ন্দির	-5031
▁অবসর	-5032
▁কণ্ঠ	-5033
▁নিলে	-5034
▁ব্লা	-5035
▁অধ্যয়ন	-5036
▁সর্বশেষ	-5037
রোধ	-5038
▁ডেন	-5039
▁যাক	-5040
▁শেফ	-5041
▁হাদ	-5042
বার্গ	-5043
▁দিলে	-5044
▁দুজন	-5045
▁সঠিক	-5046
▁বাটার	-5047
▁বৃক্ষ	-5048
▁পবিত্র	-5049
▁মাধ্যম	-5050
▁স্নায়	-5051
▁নির্ধারণ	-5052
▁বাংলাদেশি	-5053
ডেন	-5054
মোট	-5055
▁৮৭	-5056
িতেই	-5057
▁আবহ	-5058
▁ফরি	-5059
▁গার্	-5060
▁পরের	-5061
▁হওয়া	-5062
▁আইনের	-5063
▁প্রিন্স	-5064
▁পার্থক্য	-5065
বিন	-5066
লিন	-5067
িকেল	-5068
োজেন	-5069
▁কাক	-5070
াজীবন	-5071
▁নিশ্চ	-5072
▁বিন্যাস	-5073
শব	-5074
▁ব্যু	-5075
▁মুঘল	-5076
▁মেন্যু	-5077
▁সুরকার	-5078
▁গোত্রের	-5079
ান্ন	-5080
▁চিলি	-5081
▁করেছি	-5082
▁কোর্স	-5083
▁জাতির	-5084
▁তুর্কি	-5085
▁ভাস্কর	-5086
▁নির্ধার	-5087
▁রাস্তার	-5088
▁অস্তিত্ব	-5089
▁ইন্টারন্যাশনাল	-5090
টেক	-5091
গুলা	-5092
াতেই	-5093
▁মেম	-5094
▁হ্র	-5095
দর্শন	-5096
▁রেলপথ	-5097
▁মৌসুমে	-5098
দল	-5099
রস	-5100
▁শপ	-5101
▁অনুষ	-5102
▁বিকা	-5103
▁দিনের	-5104
▁বাধ্য	-5105
▁বৃত্ত	-5106
▁রোডের	-5107
▁কম্বিন	-5108
▁স্বল্প	-5109
▁দিল্লির	-5110
ময়	-5111
সাল	-5112
▁লুই	-5113
▁১৯৪৬	-5114
▁আইরিশ	-5115
▁বাজেট	-5116
▁লিখিত	-5117
▁শর্মা	-5118
▁বাজারে	-5119
▁মহাকাশ	-5120
▁সিনেমা	-5121
▁বিবেচিত	-5122
▁সংস্কার	-5123
পাই	-5124
েইল	-5125
য়াজ	-5126
▁ডাকা	-5127
▁দেরি	-5128
▁মহাক	-5129
▁হাউজ	-5130
▁পরগনা	-5131
▁লিঙ্গ	-5132
▁ইউরোপে	-5133
▁ইতালির	-5134
▁পরিচয়	-5135
▁অসাধারন	-5136
▁উপস্থিত	-5137
▁পরীক্ষা	-5138
▁প্রতিষ্ঠানের	-5139
ভোগ	-5140
ন্দে	-5141
িম্প	-5142
▁গাই	-5143
▁সাফ	-5144
ানন্দ	-5145
ামারী	-5146
▁ফেলে	-5147
মাণবিক	-5148
▁অ্যাম	-5149
▁কর্মরত	-5150
▁সাইজের	-5151
▁চিকেনের	-5152
▁নিজেদের	-5153
▁কলকাতায়	-5154
▁মুখোপাধ্যায়	-5155
ারক	-5156
ক্ষণ	-5157
াক্র	-5158
▁ওয়ে	-5159
▁মুল	-5160
▁রিজ	-5161
▁ধন্য	-5162
▁চলাচল	-5163
▁ফুচকা	-5164
▁ম্ত্শান	-5165
▁আনুষ্ঠানিক	-5166
▁সেনাবাহিনী	-5167
কাশন	-5168
ড়ের	-5169
▁ফুলের	-5170
▁শিকার	-5171
▁চাইনিজ	-5172
▁পুরাতন	-5173
▁পেয়েছি	-5174
▁গাণিতিক	-5175
▁স্কুলের	-5176
২০০	-5177
▁অশ	-5178
িব্র	-5179
▁হরি	-5180
▁বন্দ্য	-5181
▁বিক্রি	-5182
▁বিন্দু	-5183
▁সহযোগী	-5184
▁ব্যবহারের	-5185
আজ	-5186
লাল	-5187
▁জা	-5188
▁রিফ	-5189
▁সংকল	-5190
▁১০০০	-5191
▁ক্রোম	-5192
▁খলিফা	-5193
▁গ্রুপের	-5194
▁অপারেটিং	-5195
▁অ্যাসোসিয়	-5196
পুল	-5197
▁ওর	-5198
ধ্যে	-5199
য়ান	-5200
▁ভেতর	-5201
▁২০২০	-5202
▁গোপাল	-5203
▁বেড়ে	-5204
▁লুগ্স	-5205
▁চিন্তা	-5206
▁পাবলিক	-5207
▁সোসাইটি	-5208
▁ব্যাপারে	-5209
▁মিরপুরের	-5210
▁কেন্দ্রের	-5211
ভিল	-5212
▁বজ	-5213
গামী	-5214
াবার	-5215
▁গেট	-5216
▁মাখ	-5217
▁মাপ	-5218
▁শেস	-5219
▁গুয়	-5220
মিরপুর	-5221
যন্ত্র	-5222
▁ঢাকায়	-5223
▁সংঘটিত	-5224
▁জায়গায়	-5225
▁পদ্ধতিতে	-5226
▁প্রক্রিয়া	-5227
গরি	-5228
▁নো	-5229
ম্মদ	-5230
রেখা	-5231
▁জের	-5232
▁বিধ	-5233
▁ধারা	-5234
▁র্দো	-5235
▁জ্যাক	-5236
▁নিয়ম	-5237
▁সাজানো	-5238
তান্ত্রিক	-5239
▁সম্প্রদায়	-5240
▁জন্মগ্রহণকারী	-5241
আল	-5242
ভেট	-5243
োতে	-5244
▁উর্দু	-5245
▁লাঞ্চ	-5246
সার্ভিস	-5247
▁বাস্তব	-5248
▁সম্মিলিত	-5249
▁অ্যাওয়ার্ড	-5250
▁মিয়ানমারের	-5251
ফর্ম	-5252
▁বেক	-5253
▁৩টি	-5254
▁কখনও	-5255
▁ল্যা	-5256
▁ইউনিক	-5257
▁জ্ঞান	-5258
▁খ্রিষ্টাব্দের	-5259
১১	-5260
▁থিয়	-5261
▁বিবি	-5262
▁দপ্তর	-5263
▁সপ্তম	-5264
▁সপ্তাহ	-5265
▁মহাসাগরের	-5266
▁পুরস্কারের	-5267
▁রেস্টুরেন্টের	-5268
উস	-5269
নেস	-5270
ীড়	-5271
▁তী	-5272
▁রাব	-5273
ব্রিজ	-5274
▁করেই	-5275
গুলোতে	-5276
▁উন্নত	-5277
▁ভ্রমণ	-5278
▁ড্রিংক	-5279
ডা	-5280
পিট	-5281
মাস	-5282
▁আহম	-5283
▁খাম	-5284
▁শপথ	-5285
্যারি	-5286
▁অনুর	-5287
▁এরকম	-5288
▁পাথর	-5289
▁১৯৪৯	-5290
▁গভর্নর	-5291
▁স্তরের	-5292
▁আওতাধীন	-5293
▁ইতিহাসে	-5294
▁প্রতিদিন	-5295
বেশ	-5296
▁শন	-5297
▁টেলি	-5298
▁ওয়াল	-5299
চ্ছিন্ন	-5300
সিডেন্ট	-5301
▁মিউজিক	-5302
▁মনোনয়ন	-5303
মন্ড	-5304
▁ভোট	-5305
▁হিল	-5306
সিদ্ধ	-5307
▁কৌশল	-5308
▁ঝাড়	-5309
▁ডেলি	-5310
▁ঢুকে	-5311
▁প্রো	-5312
▁মাঠের	-5313
▁চিকিৎসা	-5314
▁ট্র্যাক	-5315
▁লন্ডনের	-5316
ষিত	-5317
্পি	-5318
▁ফোন	-5319
▁খাবো	-5320
▁ছত্ত	-5321
▁কাঠামো	-5322
▁উইন্ডোজ	-5323
▁কাশ্মীর	-5324
▁মর্যাদা	-5325
▁ব্যাচেলর	-5326
▁ব্রাহ্মণ	-5327
▁সায়েন্সে	-5328
শার	-5329
ুগে	-5330
▁করত	-5331
▁বৈদ	-5332
▁রবি	-5333
▁ইউএস	-5334
▁চকলেট	-5335
▁বললাম	-5336
▁সার্ব	-5337
▁উপসাগর	-5338
▁একজনের	-5339
▁ভাষাসমূহ	-5340
▁তীর	-5341
▁১৭৮	-5342
য়নের	-5343
▁দিবে	-5344
▁শাহী	-5345
▁১৯৪২	-5346
▁ব্রহ্ম	-5347
▁প্রণালী	-5348
▁গিয়েছিলাম	-5349
▁চিত্রনাট্যকার	-5350
ঃস	-5351
কত	-5352
নিম	-5353
ন্থে	-5354
▁সিজ	-5355
▁বছরে	-5356
▁যাকে	-5357
▁খ্যাত	-5358
▁পোশাক	-5359
▁সৃষ্ট	-5360
▁মিনিটের	-5361
▁স্বীকৃত	-5362
▁এক্সট্রা	-5363
▁পড়াশোনা	-5364
▁স্ট্যানফোর্ড	-5365
ূন	-5366
ুগু	-5367
▁ধূ	-5368
▁চির	-5369
▁ফাঁ	-5370
▁রিচ	-5371
চিকেন	-5372
টাকায়	-5373
▁বাসা	-5374
▁ভেবে	-5375
প্লেক্স	-5376
▁দ্বীপের	-5377
▁ধন্যবাদ	-5378
▁বার্ষিক	-5379
▁স্পোর্টস	-5380
▁আন্তর্জাতিকে	-5381
ুকু	-5382
পন্থ	-5383
▁ছাড়া	-5384
িস্তান	-5385
▁দেহের	-5386
▁বিতর্ক	-5387
▁গ্যালারি	-5388
▁পূর্বাঞ্চলের	-5389
অন	-5390
ষধ	-5391
▁ইভ	-5392
▁দাগ	-5393
▁সসে	-5394
▁আবুল	-5395
▁ইরানি	-5396
▁তীর্থ	-5397
▁দারুন	-5398
▁হাইড্র	-5399
▁অপেক্ষা	-5400
▁প্রেসিডেন্ট	-5401
বেল	-5402
▁ফি	-5403
▁আনা	-5404
▁উড়	-5405
▁এনে	-5406
▁ভেল	-5407
▁পারবে	-5408
▁পুরনো	-5409
▁বাসমতি	-5410
▁সমাপ্ত	-5411
▁সিংহাস	-5412
▁আপনাদের	-5413
▁ভারতবর্ষ	-5414
মোহ	-5415
জন্য	-5416
ুষ্প	-5417
▁পলি	-5418
শিক্ষ	-5419
▁নীলফ	-5420
▁বসার	-5421
▁১৯৫৩	-5422
▁উঠেছে	-5423
▁ব্যাস	-5424
▁সংখ্যার	-5425
▁নির্মাতা	-5426
▁প্রযোজনা	-5427
▁লিনিয়াস	-5428
▁মগ	-5429
▁আরা	-5430
▁জৈব	-5431
▁দেই	-5432
বিন্দ	-5433
▁বাসি	-5434
▁ওয়ার	-5435
▁ওয়ারী	-5436
▁জিজ্ঞ	-5437
▁থাকছে	-5438
▁বোলিং	-5439
▁কাছাকা	-5440
▁ডিজিটাল	-5441
▁সর্বমোট	-5442
▁ক্যাথলিক	-5443
▁সম্পত্তি	-5444
দশ	-5445
্কার	-5446
▁কোক	-5447
▁খবর	-5448
ঙ্গার	-5449
টিয়ে	-5450
সংখ্য	-5451
িংক্স	-5452
▁কালী	-5453
▁ফাংশ	-5454
▁স্টু	-5455
▁১৯৫১	-5456
▁বাসায়	-5457
▁চার্লস	-5458
▁প্রজনন	-5459
▁বস্তুর	-5460
▁কার্যকর	-5461
▁মায়ানম	-5462
▁মালিবাগ	-5463
▁পারমাণবিক	-5464
চু	-5465
এফসি	-5466
ণ্ডল	-5467
ন্সি	-5468
▁বহন	-5469
▁মরু	-5470
গ্রিক	-5471
▁আয়ত	-5472
▁কেজি	-5473
▁মৌজা	-5474
▁সাউথ	-5475
▁বলিউড	-5476
▁আবাসিক	-5477
▁নেওয়া	-5478
▁মিরপুরে	-5479
▁মিশরীয়	-5480
▁নেতৃত্বে	-5481
▁আখ	-5482
▁শিখ	-5483
▁এটাই	-5484
▁ডাইন	-5485
▁ধীরে	-5486
▁শুক্র	-5487
▁নিয়োগ	-5488
▁উজ্জ্বল	-5489
▁কিছুদিন	-5490
▁পরিমানে	-5491
▁কাছাকাছি	-5492
▁বিশ্লেষণ	-5493
েপ	-5494
বার্	-5495
▁কাস	-5496
▁১৯৩১	-5497
▁অংশের	-5498
▁পাতার	-5499
▁বোলার	-5500
▁পাঞ্জাবি	-5501
▁প্রকাশনা	-5502
জব	-5503
▁নন্দ	-5504
াগ্রাম	-5505
▁গিটার	-5506
▁বৈদ্যু	-5507
▁অ্যাঞ্জ	-5508
▁কাউন্টি	-5509
▁অভয়ারণ্য	-5510
▁নিয়ন্ত্র	-5511
▁প্রশিক্ষণ	-5512
এসসি	-5513
ধারা	-5514
স্কো	-5515
▁নাজ	-5516
▁পেন	-5517
▁লিখ	-5518
▁যশোর	-5519
▁মাতার	-5520
▁প্রশংস	-5521
▁মাইকেল	-5522
▁ম্যাচে	-5523
▁রাজ্যে	-5524
▁পেয়েছে	-5525
▁আবিষ্কৃত	-5526
▁কমনওয়েল	-5527
▁শিক্ষাজীবন	-5528
ধিক	-5529
▁কুল	-5530
▁ধান	-5531
▁১৭৬	-5532
প্রাচ	-5533
▁জানি	-5534
▁মশলা	-5535
তাবাদী	-5536
▁আগ্রহ	-5537
▁আলজের	-5538
▁কাস্ট	-5539
▁প্রচলন	-5540
▁হিসেবেও	-5541
▁অন্যদিকে	-5542
▁নীলফামারী	-5543
ডাব	-5544
িরা	-5545
▁দশম	-5546
▁মোম	-5547
পঞ্জি	-5548
িসমূহ	-5549
▁প্যান	-5550
▁বিষ্ণ	-5551
▁অভিযান	-5552
▁জাদুঘর	-5553
▁পয়েন্ট	-5554
▁সম্প্রদায়ের	-5555
▁ইঞ্জিনিয়ারিং	-5556
সির	-5557
▁রম	-5558
▁৯৫	-5559
োরের	-5560
▁ঘাট	-5561
▁মোহ	-5562
▁বাবু	-5563
ব্যাপী	-5564
াক্রমে	-5565
▁শতাংশ	-5566
▁সামান	-5567
▁কার্বন	-5568
▁গীতিকার	-5569
▁বিপরীতে	-5570
▁স্টুডিও	-5571
বস্তু	-5572
বাড়ী	-5573
াইনের	-5574
▁করুন	-5575
▁গন্ধ	-5576
▁গম্ব	-5577
▁টাউন	-5578
▁পরিপ	-5579
ক্ষেপে	-5580
▁আরোহণ	-5581
▁কার্ট	-5582
▁গুলোর	-5583
▁সবগুলো	-5584
▁বৃহত্তর	-5585
▁মিডিয়া	-5586
▁স্পেনের	-5587
▁কোম্পানির	-5588
▁চিকিৎসাবিজ্ঞানে	-5589
ষা	-5590
হাই	-5591
▁ইত	-5592
▁কই	-5593
▁কাত	-5594
▁৪টি	-5595
▁৯টি	-5596
স্ত্র	-5597
▁কাবা	-5598
▁লিংক	-5599
ন্তব্য	-5600
▁দেখেই	-5601
▁পৌরসং	-5602
▁হুগলি	-5603
▁তেলুগু	-5604
▁সেগুলো	-5605
▁স্বপ্ন	-5606
▁লিখেছেন	-5607
▁ফেডারেশন	-5608
▁ব্যাখ্যা	-5609
▁বিজ্ঞানের	-5610
▁নামানুসারে	-5611
▁বৌদ্ধবিহারে	-5612
▁ইন্দোনেশিয়ার	-5613
রো	-5614
কুল	-5615
দুর	-5616
রেন	-5617
▁কূ	-5618
▁অবি	-5619
▁চিং	-5620
▁দ্জ	-5621
▁কার্ড	-5622
▁কাল্প	-5623
▁চাটনি	-5624
▁স্পেস	-5625
▁আকৃতির	-5626
▁কলেজটি	-5627
▁রাষ্ট্রের	-5628
▁আফগানিস্তান	-5629
▁রৌ	-5630
▁আলে	-5631
▁বিচ	-5632
▁ভৌত	-5633
▁লুক	-5634
▁সনে	-5635
▁সকাল	-5636
▁স্টক	-5637
▁খুঁজে	-5638
▁গ্রুব	-5639
▁অস্থির	-5640
▁নিউক্ল	-5641
▁সুইজার	-5642
টর	-5643
বৃ	-5644
গাহ	-5645
চারী	-5646
ঞ্চল	-5647
্টিক	-5648
▁ভেন	-5649
▁মতই	-5650
ধ্বনি	-5651
▁পরিশ	-5652
▁পাচ্	-5653
▁পূজা	-5654
▁মেলা	-5655
▁যেসব	-5656
▁অষ্টম	-5657
▁দেয়ার	-5658
▁মেদিন	-5659
▁স্মোক	-5660
▁উদ্যোগ	-5661
▁টেস্টি	-5662
▁অবদানের	-5663
▁মালিকান	-5664
▁রয়্যাল	-5665
▁কমনওয়েলথ	-5666
ঙে	-5667
৩০	-5668
েটেড	-5669
▁চুল	-5670
▁হের	-5671
▁অধিদ	-5672
▁কর্ন	-5673
▁কালা	-5674
▁নেয়া	-5675
▁প্রিয়	-5676
▁মিক্স	-5677
▁সৈয়দ	-5678
▁প্রসার	-5679
▁ক্যান্স	-5680
▁গ্রন্থে	-5681
▁কাল্পনিক	-5682
▁সংক্ষেপে	-5683
▁আত্মপ্রকাশ	-5684
▁মুম্বইয়ের	-5685
▁সেনাবাহিনীর	-5686
ভেদ	-5687
▁০১	-5688
▁খাগ	-5689
▁জোন	-5690
▁শিল	-5691
▁১১০	-5692
নিষ্ঠ	-5693
ষ্কার	-5694
▁চলতে	-5695
▁জামে	-5696
▁স্থল	-5697
▁১৯১৯	-5698
▁দুইজন	-5699
▁প্রার	-5700
▁গ্রাগ্স	-5701
জাহ	-5702
পদক	-5703
মাল	-5704
শায়	-5705
▁ফেন	-5706
▁বুক	-5707
▁মাও	-5708
▁জটিল	-5709
▁বনাম	-5710
▁মসলা	-5711
▁হয়নি	-5712
▁খাবেন	-5713
▁সাম্প	-5714
▁কংগ্রেস	-5715
▁অনেকগুলো	-5716
▁বৈদ্যুতিক	-5717
▁১০সার্ভিস	-5718
ইয়	-5719
ভাই	-5720
ধানে	-5721
▁পিত	-5722
▁লবণ	-5723
▁লাহ	-5724
ঙ্গাল	-5725
বিধান	-5726
বিশেষ	-5727
াগুলি	-5728
াগুলো	-5729
▁কঠিন	-5730
ড়িয়া	-5731
▁চালের	-5732
▁জানতে	-5733
▁জ্বাল	-5734
▁নির্ণ	-5735
▁লাগসে	-5736
▁রামপুরা	-5737
▁স্থায়ী	-5738
▁প্রধানের	-5739
▁নির্মাণের	-5740
বুল	-5741
রীণ	-5742
ক্তা	-5743
্রেট	-5744
▁গৃহীত	-5745
▁ট্রিট	-5746
▁ফাস্ট	-5747
▁বিক্রম	-5748
▁সামান্য	-5749
▁যুক্তরাজ্য	-5750
ানু	-5751
▁জাফ	-5752
▁ঢুক	-5753
▁তরুণ	-5754
▁মঙ্গ	-5755
▁সমাধ	-5756
▁বান্ধ	-5757
▁লাগলো	-5758
▁ডিজাইন	-5759
▁সমৃদ্ধ	-5760
▁স্বাগতিক	-5761
▁চিত্রশিল্পী	-5762
গী	-5763
জেস	-5764
াদে	-5765
▁৪১	-5766
▁গার	-5767
ুয়াল	-5768
▁কাঁচ	-5769
▁দ্বি	-5770
▁বাজে	-5771
▁বিনা	-5772
▁ভাজা	-5773
▁মহাব	-5774
▁১৯৩৩	-5775
▁তুরস্	-5776
▁বুঝতে	-5777
▁ইরাকের	-5778
▁প্রতিক	-5779
▁ভাষাতে	-5780
▁উপনিবেশ	-5781
▁গার্লিক	-5782
▁তাপমাত্রা	-5783
▁শিক্ষাবিদ	-5784
▁বিদ্যালয়টি	-5785
কন	-5786
ৈত	-5787
ঙ্গো	-5788
টিভি	-5789
িংটন	-5790
্যুত	-5791
▁মাক	-5792
▁রোল	-5793
▁লেজ	-5794
▁হুস	-5795
্লিষ্ট	-5796
▁করলেও	-5797
▁বিস্ফ	-5798
▁রক্ষা	-5799
▁স্প্র	-5800
▁আপনারা	-5801
▁ফাউন্ড	-5802
▁বিনোদন	-5803
▁শুরুতে	-5804
▁ওলন্দাজ	-5805
▁শতাব্দী	-5806
▁মন্দিরটি	-5807
নাল	-5808
িজা	-5809
্ভব	-5810
▁৮৯	-5811
িমান	-5812
▁ঘুর	-5813
▁হতা	-5814
▁আজিজ	-5815
▁১৯২১	-5816
▁ওয়ান	-5817
▁নজরুল	-5818
▁রেস্ত	-5819
▁সেন্টি	-5820
▁ক্রান্ত	-5821
▁মার্শাল	-5822
▁সাহিত্যের	-5823
▁বন্দ্যোপাধ্যায়	-5824
▁অগ	-5825
বক্স	-5826
▁গির	-5827
▁শরী	-5828
▁সুখ	-5829
কুড়া	-5830
ান্টি	-5831
▁আইইই	-5832
▁খুশি	-5833
▁যাপন	-5834
▁ইউক্র	-5835
▁জামাল	-5836
▁ভৌতিক	-5837
▁রাখতে	-5838
▁সরবরা	-5839
▁মধ্যেই	-5840
▁খেলেছেন	-5841
▁সঙ্গীতের	-5842
▁সমন্বয়ে	-5843
▁ব্যবস্থাপনা	-5844
▁থাইল্যান্ডের	-5845
দাস	-5846
বাজ	-5847
▁এপ	-5848
বারে	-5849
▁কির	-5850
▁ডিশ	-5851
▁পেই	-5852
তাদের	-5853
▁অরুণ	-5854
▁তোলা	-5855
▁আরবের	-5856
▁চিন্ত	-5857
▁জন্যই	-5858
▁রেজালা	-5859
▁উপদ্বীপ	-5860
▁প্রকাশন	-5861
▁উন্মুক্ত	-5862
▁মালয়েশিয়ার	-5863
দন	-5864
থায়	-5865
ামত	-5866
ুকুর	-5867
▁টোক	-5868
▁বলব	-5869
▁মুন	-5870
▁শাল	-5871
▁আওয়	-5872
▁আচরণ	-5873
▁মেরে	-5874
▁অনুষদ	-5875
▁ইচ্ছে	-5876
▁খানের	-5877
▁পর্যব	-5878
▁প্যাক	-5879
ডাব্লিউ	-5880
▁বিস্ফোর	-5881
▁সহায়তা	-5882
▁কানাডীয়	-5883
▁প্রারম্ভ	-5884
▁ব্যবস্থার	-5885
ুধ	-5886
মেন	-5887
াদুর	-5888
▁খাঁ	-5889
▁জিও	-5890
▁তোম	-5891
্যায়	-5892
▁উচিত	-5893
▁আপনাকে	-5894
▁তিব্বত	-5895
▁সবকিছু	-5896
▁মধ্যকার	-5897
▁শাস্ত্র	-5898
▁কম্বিনেশন	-5899
▁গ্র্যান্ড	-5900
▁মধ্যবর্তী	-5901
োর্স	-5902
▁কবর	-5903
▁ডেট	-5904
ক্ষিত	-5905
মান্ত	-5906
▁আশ্র	-5907
▁ইরান	-5908
▁ডলার	-5909
▁ভট্ট	-5910
▁ভাগে	-5911
▁১৯৩৯	-5912
▁খেলেন	-5913
▁গ্লিং	-5914
▁তুলতে	-5915
▁দ্বিপ	-5916
▁যথাক্রমে	-5917
▁তাত্ত্বিক	-5918
ুহ	-5919
ছাই	-5920
লিশ	-5921
্মু	-5922
ড়ির	-5923
াদির	-5924
োনার	-5925
িফাইন	-5926
হামদুল	-5927
▁গার্ড	-5928
▁ইসরায়	-5929
বিজ্ঞানের	-5930
▁ইতিহাসের	-5931
▁ত্রিপুরা	-5932
▁সম্পাদনা	-5933
▁প্রথমবারের	-5934
ইট	-5935
থন	-5936
ংকং	-5937
াদী	-5938
েশনে	-5939
▁থ্র	-5940
▁স্ল	-5941
▁একেব	-5942
▁বইটি	-5943
▁বিংশ	-5944
▁হস্ত	-5945
▁১৯৩৪	-5946
েম্বরে	-5947
▁উপযোগ	-5948
▁এদেরকে	-5949
▁গোষ্ঠী	-5950
▁চমৎকার	-5951
▁চাওমিন	-5952
▁স্যান্ড	-5953
▁অভিজ্ঞতা	-5954
▁পত্রিকার	-5955
▁কিশোরগঞ্জ	-5956
▁পর্যবেক্ষ	-5957
▁রবীন্দ্রনাথ	-5958
্ফ	-5959
ভাল	-5960
মুদ	-5961
্লি	-5962
স্বর	-5963
্টোর	-5964
▁১৭৪	-5965
▁কাপল	-5966
▁ডানার	-5967
▁প্রের	-5968
▁হাজির	-5969
▁গবেষণার	-5970
▁সেমিফাইন	-5971
▁কমপ্লেক্স	-5972
▁বিজয়ীদের	-5973
হল	-5974
বয়	-5975
িরো	-5976
াহিদ	-5977
মানের	-5978
▁আইএস	-5979
▁আখ্য	-5980
▁পতিত	-5981
▁পর্ন	-5982
▁ভূমি	-5983
স্থায়	-5984
▁গ্রাফ	-5985
▁তরঙ্গ	-5986
▁মাটির	-5987
▁একেবারে	-5988
▁ছড়িয়ে	-5989
▁ডানহাতি	-5990
▁মেডিকেল	-5991
▁রসায়নে	-5992
▁কম্পিউটিং	-5993
▁সঙ্গীতজ্ঞ	-5994
াখ	-5995
কেই	-5996
ডের	-5997
সাই	-5998
সূচক	-5999
▁আটল	-6000
▁ভবি	-6001
▁মেদ	-6002
▁রচন	-6003
িয়েল	-6004
▁কোনও	-6005
▁ফেলো	-6006
েন্দ্র	-6007
▁এমনকি	-6008
▁ফ্যাম	-6009
▁হার্ড	-6010
▁১০দাম	-6011
▁দিচ্ছে	-6012
▁ডাব্লিউ	-6013
▁যৌথভাবে	-6014
▁কালাভুনা	-6015
৬৬	-6016
▁ফো	-6017
োদিত	-6018
▁ঝোল	-6019
▁তান	-6020
▁ধাপ	-6021
▁যথা	-6022
▁রুট	-6023
কৃষ্ণ	-6024
ত্রিম	-6025
▁তাতে	-6026
▁মুভি	-6027
▁রয়ে	-6028
▁১৯২৫	-6029
▁কান্ট	-6030
▁স্যার	-6031
▁অনুশীল	-6032
▁আব্বাস	-6033
▁১০পরিবেশ	-6034
▁টেকনোলজির	-6035
▁প্রতিরক্ষ	-6036
▁সংশ্লিষ্ট	-6037
হামদুলিল্লাহ	-6038
▁প্রতিষ্ঠানটি	-6039
▁নিউজিল্যান্ডের	-6040
ফুড	-6041
বাই	-6042
বাল	-6043
সাধ	-6044
য়াল	-6045
র্জা	-6046
লগ্ন	-6047
▁জিগ	-6048
▁সুম	-6049
▁হংকং	-6050
প্রবাহ	-6051
▁ডেভিড	-6052
▁গম্বুজ	-6053
▁নিজেকে	-6054
▁পারলাম	-6055
▁সন্ত্র	-6056
▁সৌন্দর	-6057
▁নাস্তিক	-6058
▁বাংলায়	-6059
▁ড্রিংক্স	-6060
▁সদস্যদের	-6061
▁পুরুলিয়া	-6062
ষ্ক	-6063
হান	-6064
ামে	-6065
বিংশ	-6066
ভায়	-6067
র্দা	-6068
▁মধু	-6069
ড়কের	-6070
▁উপকূ	-6071
▁কারো	-6072
▁বেগম	-6073
▁রুফট	-6074
▁এগুলি	-6075
বিশিষ্ট	-6076
োগ্রাফি	-6077
▁লিপিতে	-6078
▁দেওয়ার	-6079
▁সাঁতারু	-6080
▁হয়েছেন	-6081
▁উদ্ভিদের	-6082
▁পৃথিবীতে	-6083
▁আখ্যায়িত	-6084
▁মেদিনীপুর	-6085
▁প্রারম্ভিক	-6086
জম	-6087
মর	-6088
য়ী	-6089
▁উত	-6090
▁শূ	-6091
িনাই	-6092
▁ফিন	-6093
▁লোহ	-6094
ওয়ের	-6095
▁ডাবল	-6096
▁গবেষক	-6097
▁বাফেট	-6098
▁অর্ধেক	-6099
▁ঘরোয়া	-6100
▁দেখানো	-6101
▁ভবিষ্য	-6102
ভিস	-6103
▁নী	-6104
▁৫ম	-6105
▁আসর	-6106
▁পেছ	-6107
▁সাস	-6108
লিখিত	-6109
▁ইউরো	-6110
▁উদ্ধ	-6111
▁রপ্ত	-6112
▁সন্ন	-6113
▁সাফল	-6114
▁হবেন	-6115
▁১৯৪৪	-6116
প্রাইস	-6117
▁বাসার	-6118
▁ভ্যান	-6119
▁মূলতঃ	-6120
▁কেরলের	-6121
▁লাচ্ছি	-6122
▁সংখ্যক	-6123
▁ট্রান্স	-6124
▁নেতৃত্ব	-6125
▁বিচ্ছিন্ন	-6126
▁ব্রাজিলের	-6127
▁কলাম্বিয়া	-6128
▁অঙ্গরাজ্যের	-6129
পাদ	-6130
▁ফস	-6131
চ্চি	-6132
ভারত	-6133
▁দুধ	-6134
▁নাস	-6135
▁পুঁ	-6136
নির্ম	-6137
েত্রে	-6138
▁মাটি	-6139
ুদ্রিক	-6140
▁গোয়ে	-6141
▁ঙ্গোর	-6142
▁নামাজ	-6143
▁সিন্ধ	-6144
▁এগিয়ে	-6145
▁কাবাডি	-6146
▁মাঝারি	-6147
▁উদ্বোধন	-6148
▁ধারণকৃত	-6149
▁সমালোচক	-6150
▁গ্রন্থের	-6151
▁ভূমিকায়	-6152
▁সিঙ্গাপুর	-6153
শাহ	-6154
োসফ	-6155
▁৯৮	-6156
থলেট	-6157
াওয়	-6158
্যাশ	-6159
▁ম্ছ	-6160
▁হিট	-6161
বাড়ি	-6162
▁ইমাম	-6163
▁পেরে	-6164
▁১৯২৯	-6165
▁ঙ্গাগ	-6166
▁বাগের	-6167
▁সাম্য	-6168
▁স্ক্র	-6169
▁কেরালা	-6170
▁যাত্রী	-6171
▁সুন্নি	-6172
▁ব্ল্যাক	-6173
▁এশিয়ায়	-6174
▁পর্তুগিজ	-6175
▁বারবিকিউ	-6176
াকু	-6177
▁খো	-6178
▁৯৭	-6179
▁ফাই	-6180
▁শেক	-6181
▁৬০০	-6182
▁আদাল	-6183
▁১৯১৬	-6184
▁১৯৩৮	-6185
িডিয়া	-6186
▁রাখেন	-6187
▁সাক্ষ	-6188
▁সূচনা	-6189
▁অবশেষে	-6190
▁ইন্সটি	-6191
▁টেস্টঃ	-6192
▁পুরাণে	-6193
▁নিশ্চিত	-6194
▁প্যাকেজ	-6195
▁নির্বাহী	-6196
▁নির্ধারিত	-6197
কট	-6198
চির	-6199
▁প্	-6200
▁সল	-6201
োনাল	-6202
▁ঘরে	-6203
▁রাগ	-6204
▁৩৫০	-6205
পাশের	-6206
▁গাঢ়	-6207
▁যাবো	-6208
▁সঞ্চ	-6209
▁১৯৪১	-6210
▁চার্জ	-6211
▁টুকরা	-6212
▁শিরোন	-6213
▁দিয়েছে	-6214
▁কানাডার	-6215
▁কৃত্রিম	-6216
▁প্লাটার	-6217
▁প্রভাবিত	-6218
▁বাগেরহাট	-6219
▁জিম্বাবুয়ের	-6220
েগ	-6221
▁মাধ	-6222
▁মেহ	-6223
▁১৯৩৭	-6224
▁উপজাত	-6225
▁গাড়ি	-6226
▁সেনান	-6227
▁খাগড়া	-6228
▁পৃথিবী	-6229
▁সরবরাহ	-6230
▁সাগরের	-6231
▁অভিনয়ে	-6232
▁জার্মানি	-6233
▁সাহিত্যে	-6234
▁সম্পাদনার	-6235
▁গ্রন্থপঞ্জি	-6236
রব	-6237
ূত	-6238
কাম	-6239
ঠাৎ	-6240
ত্ন	-6241
রান	-6242
িনো	-6243
োজা	-6244
োনি	-6245
▁পক	-6246
কারক	-6247
▁অণু	-6248
▁বোধ	-6249
▁রেস	-6250
বন্ধু	-6251
▁বহুল	-6252
▁অক্ষর	-6253
▁কল্যা	-6254
▁নেত্র	-6255
▁বাছাই	-6256
▁সমষ্টি	-6257
▁স্কটিশ	-6258
▁আটলান্ট	-6259
▁প্যারাল	-6260
▁মল্লক্র	-6261
▁রিপোর্ট	-6262
▁বাঁকুড়া	-6263
েবা	-6264
▁ঝর	-6265
দণ্ড	-6266
য়াং	-6267
ুজ্জ	-6268
্যাড	-6269
▁বীফ	-6270
▁লাও	-6271
▁টার্	-6272
▁ছয়টি	-6273
▁প্রোট	-6274
▁মেটাল	-6275
▁স্টাফ	-6276
▁ফার্সি	-6277
▁বিশ্বে	-6278
▁লেখিকা	-6279
▁সংগ্রাম	-6280
▁হারিয়ে	-6281
▁ব্যক্তির	-6282
▁সন্ত্রাস	-6283
র্স	-6284
াণু	-6285
▁ছা	-6286
াড়ী	-6287
পক্ষে	-6288
▁কন্স	-6289
▁করিম	-6290
▁লাইভ	-6291
▁১৯১২	-6292
▁দেখার	-6293
▁ম্ছোগ	-6294
▁লামার	-6295
▁পৌরসভার	-6296
▁ভাল্লাগ	-6297
▁অঙ্গরাজ্য	-6298
ষধি	-6299
দেশে	-6300
ৃষ্ট	-6301
▁নবী	-6302
▁হেন	-6303
▁ধনেশ	-6304
▁পল্ল	-6305
▁লীগের	-6306
▁অভিনীত	-6307
▁গান্ধী	-6308
▁ডব্লিউ	-6309
▁স্বাদে	-6310
িয়ানদের	-6311
▁সম্মুখীন	-6312
▁কার্যালয়	-6313
▁সামুদ্রিক	-6314
▁স্কটল্যান্ড	-6315
▁স্টেডিয়ামে	-6316
পরে	-6317
▁চৈ	-6318
বিটি	-6319
▁৫টি	-6320
▁প্রাস	-6321
▁রহস্য	-6322
▁অধিভুক্ত	-6323
▁আন্দোলনে	-6324
▁তান্দুরি	-6325
▁পার্বত্য	-6326
▁৭ম	-6327
▁ডেম	-6328
▁লোভ	-6329
কর্মী	-6330
তায়ন	-6331
▁অগ্ন	-6332
▁অনুপ	-6333
▁এত্ত	-6334
▁ছোটো	-6335
▁পরিস	-6336
▁শাহর	-6337
▁হানি	-6338
▁১৯২৬	-6339
▁১৯২৭	-6340
ক্ষত্র	-6341
▁ক্ষতি	-6342
▁বিকাশ	-6343
▁সমিতি	-6344
▁অফারটি	-6345
▁ফালুদা	-6346
▁বেইজিং	-6347
▁ড্রিংকস	-6348
▁ধানমন্ড	-6349
▁স্নায়ু	-6350
▁তুলনামূলক	-6351
▁প্রক্রিয়	-6352
থেকে	-6353
▁আজম	-6354
▁কৃত	-6355
▁ডিফ	-6356
▁তেম	-6357
▁পিপ	-6358
▁ভয়	-6359
▁ভরা	-6360
▁সৌর	-6361
টুয়া	-6362
▁মজুম	-6363
▁মিশি	-6364
▁সারণ	-6365
▁৪র্থ	-6366
▁অববাহ	-6367
▁অসম্প	-6368
▁চুক্ত	-6369
▁চিকিৎসক	-6370
▁প্রেক্ষ	-6371
▁বন্ধুদের	-6372
ঙা	-6373
জুন	-6374
বুক	-6375
▁হট	-6376
মোহন	-6377
▁বিগ	-6378
▁লেক	-6379
▁সরি	-6380
▁৬টি	-6381
▁৭০০	-6382
▁১৯২৪	-6383
▁মহকুম	-6384
▁ম্যাপ	-6385
▁ক্রোমোজ	-6386
▁পাওয়ার	-6387
▁ইলেক্ট্র	-6388
▁ক্রিস্পি	-6389
▁বিশ্বকাপে	-6390
▁সেনানিবাস	-6391
▁প্রত্নতত্ত্ব	-6392
▁প্রজাতন্ত্রের	-6393
▁আলহামদুলিল্লাহ	-6394
জী	-6395
ঝি	-6396
▁নও	-6397
ভূষণ	-6398
ামিন	-6399
▁ভিজ	-6400
▁মোড়	-6401
▁আহাম	-6402
▁অসমের	-6403
▁কাপুর	-6404
▁তফসিল	-6405
▁নরমাল	-6406
▁রক্ষণ	-6407
▁দেওয়ার	-6408
▁প্রাইসঃ	-6409
▁জনপ্রিয়তা	-6410
▁সেন্টিমিটার	-6411
েদ	-6412
ফির	-6413
▁৯৪	-6414
▁এসি	-6415
▁রুম	-6416
▁হিউ	-6417
জেন্ট	-6418
▁চলবে	-6419
▁বাঁধ	-6420
▁মাতা	-6421
▁স্টি	-6422
▁১৯২৩	-6423
▁ওয়াশ	-6424
▁সাহেব	-6425
▁এভারেজ	-6426
▁বেঙ্গল	-6427
▁কাবাবের	-6428
▁গণমাধ্য	-6429
▁প্রদর্শ	-6430
▁ভিক্ষুর	-6431
▁প্রচারিত	-6432
▁ভালোবাসা	-6433
▁বিস্তারিত	-6434
▁অভ্যন্তরীণ	-6435
▁ক্রান্তীয়	-6436
▁খাগড়াছড়ি	-6437
▁ডাব্লিউডাব্লিউ	-6438
▁তি	-6439
▁মৈ	-6440
▁০৯	-6441
▁৯৬	-6442
ন্টু	-6443
স্পর	-6444
▁উপস	-6445
▁ওরা	-6446
▁নবম	-6447
▁সরল	-6448
▁সসেজ	-6449
▁১৯১৮	-6450
▁১৯৩৫	-6451
গুলোকে	-6452
▁ফাংশন	-6453
▁ফ্যাক	-6454
▁রাজার	-6455
▁স্মরণ	-6456
▁একধরনের	-6457
▁ভিক্টোর	-6458
▁নারায়ণগঞ্জ	-6459
▁অ্যাসোসিয়েশন	-6460
ঙ্খ	-6461
জিন	-6462
তান	-6463
লেস	-6464
েমি	-6465
জীবী	-6466
োপিত	-6467
▁কেল	-6468
▁গুন	-6469
▁তেজ	-6470
▁নুর	-6471
▁পড়ে	-6472
ামূলক	-6473
িয়ের	-6474
▁গেলো	-6475
▁জয়ী	-6476
▁সদরদ	-6477
▁হঠাৎ	-6478
িয়েন্স	-6479
▁দ্জিন	-6480
▁ব্রিজ	-6481
▁অনেকেই	-6482
▁আহামরি	-6483
▁উন্নীত	-6484
▁রক্ষিত	-6485
▁মাস্টার	-6486
ীণ	-6487
োলি	-6488
্লো	-6489
▁খন	-6490
▁হস	-6491
▁হৃ	-6492
ন্টা	-6493
োক্ত	-6494
াঞ্চল	-6495
▁আসলো	-6496
▁কালি	-6497
▁খুবি	-6498
▁চূড়	-6499
গুলিকে	-6500
▁আইইইই	-6501
▁উত্তম	-6502
▁পিটার	-6503
▁ব্রাউ	-6504
▁কম্বোড	-6505
▁জলবায়	-6506
▁বিশেষত	-6507
▁জুনিয়র	-6508
▁পরিষেবা	-6509
▁উপস্থিতি	-6510
ীয়	-6511
৮০	-6512
গতি	-6513
▁চিপ	-6514
▁১০ম	-6515
▁আহমদ	-6516
▁কাটা	-6517
▁সেটি	-6518
াগুলির	-6519
▁উপভোগ	-6520
▁ছেড়ে	-6521
▁অভিযোগ	-6522
▁প্রণয়	-6523
▁তালিকার	-6524
▁সত্যজিৎ	-6525
▁কান্ট্রি	-6526
▁কেমব্রিজ	-6527
▁শ্রীলঙ্ক	-6528
▁আটলান্টিক	-6529
▁খ্রিস্টান	-6530
▁পর্যায়ের	-6531
▁প্রত্যাহার	-6532
্ধ	-6533
চাঁ	-6534
তপুর	-6535
ব্যব	-6536
্রাল	-6537
ড়িয়ে	-6538
▁কিল	-6539
▁গলি	-6540
▁সোহ	-6541
পন্থী	-6542
িবদ্ধ	-6543
যুদ্ধে	-6544
▁উদ্দিন	-6545
▁টি২০আই	-6546
▁দোকানে	-6547
▁মাহমুদ	-6548
▁গায়িকা	-6549
▁নক্ষত্র	-6550
▁পরিবর্তে	-6551
▁ইতিহাসবিদ	-6552
অল	-6553
দৈ	-6554
কিন	-6555
▁দম	-6556
ক্রা	-6557
গ্নি	-6558
▁তির	-6559
▁ফেস	-6560
▁বরং	-6561
▁শিস	-6562
▁যেয়ে	-6563
▁শরীর	-6564
▁১৯১৪	-6565
▁১৯২৮	-6566
ক্ষীরা	-6567
▁বসন্ত	-6568
▁মুষ্টি	-6569
▁শিকাগো	-6570
▁সমীকরণ	-6571
▁স্কুলে	-6572
▁অনুশীলন	-6573
▁ব্যাটিং	-6574
▁সন্ধ্যা	-6575
▁তুরস্কের	-6576
▁প্যারালিম্প	-6577
২৪	-6578
বছর	-6579
হোক	-6580
▁০৪	-6581
াবলি	-6582
েন্স	-6583
▁জমি	-6584
▁বটি	-6585
▁সিড	-6586
ক্ষ্ম	-6587
দ্দীন	-6588
ভূমির	-6589
▁ঘরের	-6590
▁পেশা	-6591
▁হতাশ	-6592
▁কোর্ট	-6593
▁পিছনে	-6594
▁বিবেক	-6595
▁অভিহিত	-6596
▁জন্মের	-6597
▁প্রিয়	-6598
▁সাধারন	-6599
▁ক্যারিব	-6600
▁কোরিয়ার	-6601
▁প্রতিরোধ	-6602
▁বাসস্থান	-6603
▁স্বাক্ষর	-6604
শক	-6605
নাগ	-6606
্না	-6607
▁ইথ	-6608
তারা	-6609
দর্শ	-6610
▁চীজ	-6611
▁তরল	-6612
▁ফোট	-6613
▁বেদ	-6614
▁মিজ	-6615
▁সরু	-6616
বিভাগ	-6617
▁অপার	-6618
▁কন্ন	-6619
▁কিনে	-6620
▁বদলে	-6621
▁১৯০০	-6622
▁১৯৪৩	-6623
▁অজানা	-6624
▁টমেটো	-6625
▁তিনজন	-6626
▁তোলার	-6627
▁স্লাই	-6628
▁হাস্য	-6629
াপ্তরিক	-6630
▁হুমায়	-6631
▁গাজীপুর	-6632
▁স্কয়ার	-6633
▁অসম্পূর্ণ	-6634
িগ	-6635
ঃপর	-6636
ানীর	-6637
▁ঢাল	-6638
▁রিং	-6639
▁লাখ	-6640
ভাবেই	-6641
▁কেটে	-6642
▁রেখা	-6643
িন্যাস	-6644
▁পুরাই	-6645
▁আল্লাহ	-6646
▁সামনের	-6647
▁ওড়িশার	-6648
▁ভাস্কর্য	-6649
▁সদরদপ্তর	-6650
▁দ্বীপপুঞ্জের	-6651
ুচ	-6652
শনে	-6653
িয়া	-6654
ন্দন	-6655
▁খরচ	-6656
▁গোস	-6657
▁মতন	-6658
▁সীম	-6659
ুয়েল	-6660
▁টুকর	-6661
▁ডাউন	-6662
▁পরেই	-6663
▁বেলজ	-6664
▁সুফি	-6665
▁স্তর	-6666
িমিয়াম	-6667
▁এভাবে	-6668
▁ধ্বনি	-6669
▁লোকের	-6670
▁জমিদারি	-6671
▁পঞ্চগড়	-6672
▁অধিদপ্তর	-6673
▁দাপ্তরিক	-6674
▁ক্যাম্পাস	-6675
▁গোয়েন্দা	-6676
▁পর্বতমালা	-6677
▁ব্রাজিলীয়	-6678
▁মালিকানাধীন	-6679
▁ইলেকট্রনিক্স	-6680
গরে	-6681
সীম	-6682
াগরে	-6683
িকের	-6684
িতির	-6685
▁২২০	-6686
ভারের	-6687
াজিরা	-6688
▁আমিও	-6689
▁চাঁদ	-6690
▁মহার	-6691
▁সচিব	-6692
▁অতঃপর	-6693
▁অ্যাট	-6694
▁সংকলন	-6695
▁ন্যায়	-6696
▁বিদেশী	-6697
▁মঙ্গোল	-6698
▁কারখানা	-6699
▁প্রবন্ধ	-6700
▁ক্রিকেটের	-6701
লস	-6702
ফিন	-6703
সিন	-6704
সুল	-6705
্বা	-6706
ন্না	-6707
▁কিচ	-6708
▁নোট	-6709
▁সংয	-6710
▁সন্	-6711
▁আরাম	-6712
▁ক্রু	-6713
▁ক্ষু	-6714
▁ভেঙে	-6715
▁ল্হা	-6716
▁হাতি	-6717
▁জিয়া	-6718
▁ঢাকায়	-6719
▁দামের	-6720
▁বাইরের	-6721
▁যেকোনো	-6722
▁হিমবাহ	-6723
▁ফরিদপুর	-6724
▁আইসক্রিম	-6725
▁অনুষ্ঠানে	-6726
▁অনুসন্ধান	-6727
▁আলোকচিত্র	-6728
▁ফ্রান্সিস	-6729
▁ফ্রেন্ডলি	-6730
▁কর্পোরেশনের	-6731
গ্ধ	-6732
পথে	-6733
েয়	-6734
▁চত	-6735
অনেক	-6736
েঞ্জ	-6737
▁মণি	-6738
পুত্র	-6739
▁অবধি	-6740
▁কমলা	-6741
▁১৯২২	-6742
▁৬ষ্ঠ	-6743
ার্কের	-6744
▁এএফসি	-6745
▁বাচ্চ	-6746
▁আমিরাত	-6747
▁প্যাটি	-6748
▁শক্তিশ	-6749
বাংলাদেশ	-6750
▁আওয়ামী	-6751
▁আক্রান্ত	-6752
▁ফ্যামিলি	-6753
▁মানচিত্র	-6754
▁জাতিসংঘের	-6755
▁ইন্সটিটিউট	-6756
▁জিম্বাবুয়ে	-6757
জিত	-6758
মিল	-6759
▁তল	-6760
▁ভু	-6761
ছাড়া	-6762
শালী	-6763
াকৃত	-6764
▁চুই	-6765
▁তবু	-6766
▁বেঁ	-6767
যাত্র	-6768
▁আকবর	-6769
▁আগ্র	-6770
▁আমলে	-6771
▁আসনে	-6772
▁মনের	-6773
ুল্লাহ	-6774
▁গ্লোব	-6775
▁তৈরির	-6776
▁পাবনা	-6777
▁বেষ্ট	-6778
▁যমুনা	-6779
▁এখানের	-6780
▁টিক্কা	-6781
▁দেশটির	-6782
▁বোঝাতে	-6783
▁সমর্থন	-6784
▁ডেলিভারি	-6785
▁মানিকগঞ্জ	-6786
▁সাতক্ষীরা	-6787
▁বর্ষপঞ্জীর	-6788
▁ডাব্লিউডাব্লিউই	-6789
পরিচ	-6790
ভাষী	-6791
▁ঠোঁ	-6792
াইয়া	-6793
ান্ধা	-6794
▁অভাব	-6795
▁আমির	-6796
▁জুডো	-6797
▁মাতৃ	-6798
▁সবজি	-6799
▁সৈন্য	-6800
▁হসপিট	-6801
য়েডীয়	-6802
▁ওড়িশা	-6803
▁জয়লাভ	-6804
▁থাকায়	-6805
▁ব্ক্রা	-6806
▁মুরগির	-6807
▁অনুবাদক	-6808
▁বৃদ্ধির	-6809
▁লক্ষ্যে	-6810
▁চূড়ান্ত	-6811
▁স্ট্যান্ড	-6812
▁প্রয়োজনীয়	-6813
ফো	-6814
হো	-6815
নেড	-6816
বিল	-6817
াচক	-6818
ুইন	-6819
োমা	-6820
োলো	-6821
▁এথ	-6822
▁নন	-6823
▁ভগ	-6824
সিডে	-6825
গুড়ি	-6826
স্যের	-6827
▁নর্থ	-6828
▁সুইড	-6829
িবারিক	-6830
▁থেকেও	-6831
▁শেষের	-6832
▁অনুমান	-6833
▁আরেকটা	-6834
▁ইন্দ্র	-6835
▁উদ্ভূত	-6836
▁পানিতে	-6837
▁শক্তির	-6838
▁সংলগ্ন	-6839
▁মায়ানমার	-6840
▁রাজনীতিতে	-6841
▁ভিয়েতনামের	-6842
আপ	-6843
টপ	-6844
৩৩	-6845
প্ল	-6846
িসন	-6847
োটি	-6848
▁কপ	-6849
ঙ্গি	-6850
চেতন	-6851
▁তৃণ	-6852
শীপের	-6853
্রতিক	-6854
▁দৌড়	-6855
▁ভক্ত	-6856
ুডেন্ট	-6857
▁অর্থে	-6858
▁আগ্নে	-6859
▁ইন্সট	-6860
▁চোখের	-6861
▁তেমনি	-6862
▁ভবনের	-6863
▁মেয়র	-6864
▁একত্রে	-6865
▁শ্রমিক	-6866
▁অধীনস্থ	-6867
▁সংক্ষেপ	-6868
▁উপকূলীয়	-6869
▁একাডেমির	-6870
▁সম্ভাবনা	-6871
▁১০লোকেশন	-6872
▁পারিবারিক	-6873
▁খ্রিস্টাব্দে	-6874
্ণ	-6875
বৃহ	-6876
সেফ	-6877
কায়	-6878
্থান	-6879
▁জংশ	-6880
▁জার	-6881
▁ডার	-6882
▁তাক	-6883
▁মীর	-6884
কাণ্ড	-6885
▁কক্স	-6886
▁বিয়ে	-6887
▁১৯০৮	-6888
▁১৯১৭	-6889
▁২০২২	-6890
ুয়ারী	-6891
▁উপকরণ	-6892
▁গ্রিন	-6893
▁শাখার	-6894
▁সম্পদ	-6895
▁সাথেই	-6896
▁সুরার	-6897
▁আর্থিক	-6898
▁জোয়ার	-6899
▁পটুয়া	-6900
▁বইয়ের	-6901
▁গোল্ডেন	-6902
▁পূর্বের	-6903
▁মিলিয়ে	-6904
▁হাঙ্গের	-6905
▁অ্যাথলেট	-6906
▁প্রিমিয়াম	-6907
▁শক্তিশালী	-6908
্কি	-6909
্মি	-6910
▁ওষ	-6911
বাদের	-6912
ষিদ্ধ	-6913
▁আজাদ	-6914
ডাঙ্গা	-6915
্রিয়া	-6916
▁দারুণ	-6917
▁বেতার	-6918
▁অনুসরণ	-6919
▁টিনটিন	-6920
▁দ্রব্য	-6921
▁আগ্নেয়	-6922
▁কোরিয়া	-6923
▁নিষিদ্ধ	-6924
▁পরিবেশে	-6925
▁সাময়িক	-6926
▁সাম্প্রতিক	-6927
মল	-6928
ডিং	-6929
▁৯২	-6930
গণিত	-6931
ঙ্কা	-6932
াম্প	-6933
▁চর্	-6934
▁ছাপ	-6935
ামরিক	-6936
▁খুজে	-6937
▁গঙ্গ	-6938
▁রীতি	-6939
▁১৯১৩	-6940
পরিবহন	-6941
▁ছোট্ট	-6942
▁জোড়া	-6943
▁পুনর্	-6944
▁খ্যাতি	-6945
▁ফিলোসফ	-6946
▁বিপ্লব	-6947
▁বিষ্ণু	-6948
▁হিমাচল	-6949
▁সম্মানসূচক	-6950
▁সাধারণভাবে	-6951
▁বিদ্যালয়ের	-6952
ংগ	-6953
বেগ	-6954
ন্সী	-6955
স্যু	-6956
াহিত	-6957
ুরের	-6958
ুলার	-6959
▁গরু	-6960
▁রৌপ	-6961
▁লাউ	-6962
▁১৪৯	-6963
র্কের	-6964
্যাংশ	-6965
▁মতোই	-6966
▁হার্	-6967
▁জলপাই	-6968
▁জাস্ট	-6969
▁বিনিম	-6970
▁অনেকের	-6971
▁কমিটির	-6972
▁মারাঠি	-6973
▁উপলক্ষে	-6974
▁অক্সফোর্ড	-6975
▁উইকিপিডিয়ানদের	-6976
ওল	-6977
৬০	-6978
▁আউ	-6979
কোণা	-6980
ন্থন	-6981
▁এটিই	-6982
▁কূটন	-6983
▁অগ্নি	-6984
▁অন্তর	-6985
▁কুড়ি	-6986
▁জম্মু	-6987
▁ট্রফি	-6988
▁তারকা	-6989
▁বান্দ	-6990
▁রুফটপ	-6991
▁সুপ্র	-6992
▁অসংখ্য	-6993
▁বিবর্ত	-6994
▁স্বায়	-6995
▁জলবায়ু	-6996
▁বাজারের	-6997
▁প্রিন্সটন	-6998
▁স্বতন্ত্র	-6999
▁জীববিজ্ঞান	-7000
ডোর	-7001
দাদ	-7002
▁বট	-7003
▁০৮	-7004
িমের	-7005
▁জলা	-7006
▁সমা	-7007
াকারী	-7008
▁আলেক	-7009
▁কথাই	-7010
▁কায়	-7011
▁খনিজ	-7012
▁রাতে	-7013
▁২০২১	-7014
শস্ত্র	-7015
েশ্বরী	-7016
▁ছায়া	-7017
▁বর্জন	-7018
▁কোরীয়	-7019
▁বিদেশি	-7020
▁ব্যাংকিং	-7021
▁ব্যাবহার	-7022
▁নিম্নলিখিত	-7023
▁নিয়েছিলাম	-7024
▁প্রতিরক্ষা	-7025
▁বিশ্বব্যাপী	-7026
চৌ	-7027
মূ	-7028
▁চও	-7029
▁টো	-7030
চক্র	-7031
ভূতি	-7032
িকাল	-7033
▁দীঘ	-7034
▁বিট	-7035
▁২টা	-7036
গ্রাফ	-7037
চেঞ্জ	-7038
▁অমৃত	-7039
▁তুমি	-7040
▁নেমে	-7041
▁ফেনী	-7042
▁যুগে	-7043
▁শরবত	-7044
▁বললেই	-7045
▁বিকাস	-7046
▁মিশরের	-7047
▁অধিকারী	-7048
াতিষ্ঠানিক	-7049
▁প্রতিনিধি	-7050
▁বিধানসভার	-7051
▁মুহাম্মাদ	-7052
▁ফিলোসফিক্যাল	-7053
গল্প	-7054
▁চকো	-7055
▁জাগ	-7056
প্লেস	-7057
র্শিদ	-7058
▁ইলিন	-7059
▁জেনে	-7060
▁দলাই	-7061
▁প্রথ	-7062
▁গ্রাহ	-7063
▁পাতলা	-7064
▁পালিত	-7065
▁পোর্ট	-7066
▁সাতটি	-7067
বাহিনীর	-7068
▁বাদামি	-7069
▁ব্যস্ত	-7070
▁শাখায়	-7071
▁টাওয়ার	-7072
▁পাচ্ছেন	-7073
▁প্রশাসন	-7074
▁প্রসারিত	-7075
▁প্রান্তে	-7076
▁বর্ণমালা	-7077
▁অ্যান্ড্র	-7078
▁ইন্দোনেশিয়া	-7079
ন্ঠ	-7080
য়ং	-7081
▁ভী	-7082
ৃশ্য	-7083
▁দোল	-7084
▁নিপ	-7085
ত্বের	-7086
▁ইম্প	-7087
▁খ্রী	-7088
▁ডোরে	-7089
▁তেলে	-7090
খণ্ডের	-7091
▁কথায়	-7092
▁খেলাধ	-7093
▁টোকিও	-7094
▁অন্ধ্র	-7095
▁কুষ্টি	-7096
▁জাপানে	-7097
▁মাত্রা	-7098
▁মায়ের	-7099
▁শিরোপা	-7100
▁সবথেকে	-7101
▁খিচুড়ি	-7102
▁মুর্শিদ	-7103
▁কেন্দ্রে	-7104
▁রেস্তোরা	-7105
▁প্রস্তুতি	-7106
▁ভিয়েতনাম	-7107
▁মালয়েশিয়া	-7108
▁মহাবিদ্যালয়ে	-7109
ইল	-7110
ষে	-7111
জনে	-7112
ফেস	-7113
▁ঢি	-7114
▁দীপ	-7115
ক্রমে	-7116
▁ওয়েল	-7117
▁ভূষিত	-7118
▁ভ্যাল	-7119
ন্দ্রনাথ	-7120
▁ক্যামের	-7121
▁তাদেরকে	-7122
▁বাড়িতে	-7123
▁রিচার্ড	-7124
▁প্রকৃতির	-7125
▁অঞ্চলসমূহ	-7126
▁ক্রোমোজোম	-7127
▁প্রণয়ধর্মী	-7128
▁শ্রেষ্ঠাংশে	-7129
▁প্রাতিষ্ঠানিক	-7130
কেশ	-7131
ভুত	-7132
লো	-7133
াইভ	-7134
ুলি	-7135
েটর	-7136
নাড়	-7137
▁খাত	-7138
▁ঘ্র	-7139
▁ডিভ	-7140
▁শুভ	-7141
▁মোরগ	-7142
স্বরূপ	-7143
▁ফ্রেশ	-7144
▁বাঙাল	-7145
▁তুলনায়	-7146
▁যেগুলো	-7147
▁আদিবাসী	-7148
▁মজুমদার	-7149
▁উচ্চতায়	-7150
▁পদার্থের	-7151
▁প্রস্তুতকারক	-7152
ফু	-7153
ঝাল	-7154
রেশ	-7155
্যব	-7156
াম্স	-7157
▁কাই	-7158
পুরুষ	-7159
প্রতি	-7160
▁খিলা	-7161
▁বক্ত	-7162
▁মেরি	-7163
▁ড্রাম	-7164
▁বায়ু	-7165
▁সুভাষ	-7166
যোগাযোগ	-7167
▁মাগুরা	-7168
▁টেস্টের	-7169
▁স্মার্ট	-7170
▁নাট্যকার	-7171
▁নিম্নরূপ	-7172
▁কর্মকাণ্ড	-7173
▁স্বর্ণপদক	-7174
▁পটুয়াখালী	-7175
▁জাতীয়তাবাদী	-7176
বীর	-7177
সাদ	-7178
▁ওঠ	-7179
ীকার	-7180
▁জনক	-7181
▁ঝরঝ	-7182
▁সুদ	-7183
▁ক্রে	-7184
▁নিউজ	-7185
▁বয়ে	-7186
▁মিশে	-7187
▁১৯১১	-7188
▁ধ্রুব	-7189
▁নোয়া	-7190
▁প্যাস	-7191
▁মঙ্গল	-7192
▁প্রমুখ	-7193
▁ব্যর্থ	-7194
▁যাইহোক	-7195
▁লালবাগ	-7196
▁সমাধান	-7197
▁মন্দিরে	-7198
▁মেক্সিক	-7199
▁লেগেছিল	-7200
▁উপপ্রজাত	-7201
▁নিকটবর্তী	-7202
▁সুয়েডীয়	-7203
▁বিদ্যালয়ে	-7204
ইস	-7205
ধন	-7206
ফর	-7207
গাছ	-7208
ুনার	-7209
▁ফিট	-7210
▁বিউ	-7211
▁সুগ	-7212
িরহাট	-7213
▁আগুন	-7214
গ্রস্ত	-7215
▁একদিন	-7216
▁ওখানে	-7217
▁কাছেই	-7218
▁গানটি	-7219
▁ঘূর্ণ	-7220
▁ফ্লোর	-7221
▁সহজেই	-7222
▁উপযোগী	-7223
▁এন্টার	-7224
▁গভীরতা	-7225
▁টেস্টে	-7226
▁মানসিক	-7227
▁হচ্ছেন	-7228
ুজ্জামান	-7229
▁ফিলিস্ত	-7230
▁বিরোধীদ	-7231
▁এক্সচেঞ্জ	-7232
▁সুরারোপিত	-7233
▁ভট্টাচার্য	-7234
পৃ	-7235
৩৪	-7236
▁কৈ	-7237
কাঠি	-7238
▁গ্য	-7239
▁নড়	-7240
▁নাক	-7241
িয়োগ	-7242
▁আঘাত	-7243
▁জনতা	-7244
▁জমির	-7245
▁দাবি	-7246
▁ধূসর	-7247
▁পিজা	-7248
বয়স্ক	-7249
▁কামাল	-7250
▁প্রোফ	-7251
▁সালাম	-7252
▁অফারের	-7253
▁ওয়েটার	-7254
▁কুস্তি	-7255
▁বিকল্প	-7256
▁ছোটগল্প	-7257
▁নিদর্শন	-7258
▁প্রায়ই	-7259
▁ফাইনালে	-7260
▁অনুমোদিত	-7261
▁বিরিয়ানির	-7262
▁ভারতবর্ষের	-7263
বৈ	-7264
সঙ্গ	-7265
▁গোম	-7266
▁গ্ন	-7267
▁তাজ	-7268
▁ভিড়	-7269
ারণের	-7270
▁ছত্র	-7271
▁সফরে	-7272
▁স্লো	-7273
▁১৯১০	-7274
ীবাজার	-7275
▁ত্যাগ	-7276
▁স্থির	-7277
▁অপজিটে	-7278
▁জনগণনা	-7279
▁পানীয়	-7280
বাড়িয়া	-7281
▁ক্ষেত্রের	-7282
▁স্টুডেন্ট	-7283
▁নেদারল্যান্ডস	-7284
শম	-7285
ষী	-7286
াটো	-7287
▁মল	-7288
▁০২	-7289
বৃহৎ	-7290
্টের	-7291
▁ডেস	-7292
▁ত্শ	-7293
▁বলল	-7294
▁য়ে	-7295
চুম্ব	-7296
টাকার	-7297
ার্থে	-7298
িয়াজ	-7299
▁অবাক	-7300
▁পুনঃ	-7301
▁মেনে	-7302
▁আজকের	-7303
▁ইউনিট	-7304
িয়ানার	-7305
▁অনুপাত	-7306
▁কন্নড়	-7307
▁জুলীয়	-7308
▁নরওয়ে	-7309
▁সংজ্ঞা	-7310
▁অরুণাচল	-7311
▁বিরিয়ানী	-7312
▁মহাদেশের	-7313
খের	-7314
▁খা	-7315
ঢাকা	-7316
▁ধাম	-7317
▁নুড	-7318
▁হাক	-7319
ন্টির	-7320
বৃত্ত	-7321
▁আগেও	-7322
▁খুলে	-7323
▁জংশন	-7324
▁পেলে	-7325
▁মঞ্জ	-7326
▁হয়তো	-7327
▁ধারার	-7328
▁পরমাণ	-7329
▁বাবার	-7330
▁মাজার	-7331
▁মিষ্ট	-7332
▁সোনার	-7333
▁খেলছেন	-7334
▁ম্যানেজ	-7335
▁রাশিয়া	-7336
▁মেক্সিকো	-7337
▁ফাউন্ডেশন	-7338
▁ফিজিক্যাল	-7339
▁মধ্যপ্রাচ	-7340
▁নির্বাচনের	-7341
▁বিষয়বস্তু	-7342
▁ভাষাবিজ্ঞানী	-7343
▁ম্যাসাচুসেট্	-7344
গি	-7345
ুশ	-7346
ুবি	-7347
গিরি	-7348
রূপে	-7349
োধনী	-7350
▁উইথ	-7351
▁হেম	-7352
▁ডক্ট	-7353
▁পৌরা	-7354
▁ভুলে	-7355
▁ঘুরতে	-7356
▁জন্মঃ	-7357
▁প্রেস	-7358
▁ফ্যান	-7359
▁তাছাড়	-7360
▁পাথরের	-7361
▁মহম্মদ	-7362
▁সাফল্য	-7363
্যান্ডের	-7364
▁গ্রামীণ	-7365
▁সূর্যের	-7366
▁ঠাকুরগাঁও	-7367
পন	-7368
ানস	-7369
য়ান	-7370
গ্রী	-7371
্রাহ	-7372
্লার	-7373
▁শিম	-7374
▁হরম	-7375
াগারে	-7376
▁কুরআ	-7377
▁মিশন	-7378
▁সোজা	-7379
▁১৯১৫	-7380
বান্ধা	-7381
▁উপনদী	-7382
▁ব্রিট	-7383
▁কর্মসূ	-7384
▁কানাডা	-7385
▁সম্মেল	-7386
▁স্থপতি	-7387
▁ইসলামিক	-7388
▁দিয়েছে	-7389
▁বাতায়ন	-7390
▁বিষয়ের	-7391
▁মাইক্রোস	-7392
▁সমালোচনা	-7393
▁হয়েছিলো	-7394
▁জানুয়ারী	-7395
উড	-7396
দর	-7397
আমি	-7398
দেন	-7399
রাট	-7400
রার	-7401
▁এজ	-7402
▁গজ	-7403
▁নল	-7404
▁ফট	-7405
ইটার	-7406
োত্ত	-7407
্যাত	-7408
▁গলা	-7409
▁মিথ	-7410
ন্ট্র	-7411
মার্ক	-7412
▁কচ্ছ	-7413
▁চিজি	-7414
▁পিঠে	-7415
▁বাদে	-7416
▁ভোলা	-7417
▁মাঠে	-7418
▁ঘোষিত	-7419
▁ডক্টর	-7420
▁বছরকে	-7421
▁ব্যার	-7422
▁যুক্তি	-7423
▁রেখেছে	-7424
▁অনেকদিন	-7425
▁প্রাণীর	-7426
▁প্রসিদ্ধ	-7427
▁স্টেশনটি	-7428
▁গ্রন্থাগার	-7429
জাম	-7430
মির	-7431
র্ট	-7432
ড়ির	-7433
▁৯৩	-7434
টুকু	-7435
▁তের	-7436
▁দাশ	-7437
▁শ্ব	-7438
▁ইউনে	-7439
▁দাবা	-7440
▁মুলত	-7441
▁১৯০৫	-7442
টেকনিক	-7443
▁আলেকজ	-7444
▁কাপের	-7445
▁চার্চ	-7446
▁চেন্ন	-7447
▁নাটোর	-7448
▁ফ্লাই	-7449
▁শৃঙ্গ	-7450
▁অর্জুন	-7451
▁অ্যানো	-7452
▁বালিকা	-7453
▁রাইসের	-7454
▁লাগেনি	-7455
▁হাল্কা	-7456
▁অভিবাসী	-7457
▁উদ্ভাবক	-7458
▁এক্সপের	-7459
▁ক্রাস্ট	-7460
▁গোবিন্দ	-7461
▁পার্সেল	-7462
▁পৌরাণিক	-7463
▁প্রশংসা	-7464
▁সশস্ত্র	-7465
▁রূপান্তর	-7466
▁ওয়াশিংটন	-7467
▁সুনামগঞ্জ	-7468
▁বিবেকানন্দ	-7469
▁আর্জেন্টিনার	-7470
▁সায়েন্সেসের	-7471
িৎ	-7472
▁০৫	-7473
▁০৭	-7474
কাটা	-7475
পাইন	-7476
রণের	-7477
াহার	-7478
ুড়ি	-7479
্যাজ	-7480
্লাম	-7481
▁গুর	-7482
▁গ্স	-7483
▁ডুব	-7484
▁লাস	-7485
▁সনি	-7486
ওয়াই	-7487
▁ফ্রী	-7488
▁হাউস	-7489
▁পাঠ্য	-7490
▁এলাকায়	-7491
▁কন্সাল	-7492
▁ডোমিনি	-7493
▁সত্ত্ব	-7494
▁আয়োজিত	-7495
▁পুরাণের	-7496
▁হাস্যরস	-7497
▁গণমাধ্যম	-7498
▁পলিটেকনিক	-7499
▁ক্যারিয়ার	-7500
টায়	-7501
শেন	-7502
িনে	-7503
ুখী	-7504
▁দফ	-7505
▁০৩	-7506
ামাণ	-7507
▁কেপ	-7508
▁৫৯৯	-7509
▁৮টি	-7510
প্তাহ	-7511
সিলাম	-7512
ুয়ান	-7513
▁আছেই	-7514
▁কোলা	-7515
▁ডানা	-7516
▁বাঁশ	-7517
▁ভারী	-7518
▁মোটর	-7519
▁রশিদ	-7520
বাহিনী	-7521
▁এজন্য	-7522
▁চ্যাল	-7523
▁প্রাব	-7524
▁বেগুন	-7525
▁হওয়ায়	-7526
ন্দিতার	-7527
িয়ামের	-7528
▁জিতেছে	-7529
▁তেহারি	-7530
▁উৎপাদিত	-7531
▁ম্যাক্স	-7532
▁সাধারনত	-7533
▁ইন্ডিজের	-7534
▁ওয়ার্ডে	-7535
▁জনগোষ্ঠী	-7536
▁তত্ত্বের	-7537
▁বিচারপতি	-7538
▁সৌন্দর্য	-7539
▁হাসপাতাল	-7540
▁কুষ্টিয়া	-7541
▁তামিলনাড়	-7542
▁মুসলমানদের	-7543
▁আর্জেন্টিনীয়	-7544
▁০৬	-7545
োসের	-7546
্নার	-7547
▁গুহ	-7548
▁চায়	-7549
▁ভাস	-7550
দৈর্ঘ	-7551
ভাগের	-7552
শৃঙ্গ	-7553
▁উরবে	-7554
▁মনোর	-7555
াহিত্য	-7556
্যাপার	-7557
▁নামেই	-7558
▁মুখের	-7559
▁আরেকটু	-7560
▁গুয়াহ	-7561
▁জিজ্ঞেস	-7562
▁দুইজনের	-7563
▁মিশিগান	-7564
▁স্টেশনের	-7565
▁লোকসংখ্যা	-7566
▁সেমিফাইনাল	-7567
▁ইন্সটাগ্রাম	-7568
▁কন্সালশীপের	-7569
ঠন	-7570
মিং	-7571
লোড	-7572
▁ভো	-7573
এসপি	-7574
▁নিত	-7575
▁সেং	-7576
▁১৬৪	-7577
ডিয়াম	-7578
িবর্গ	-7579
িয়েন	-7580
▁কালে	-7581
▁কিংব	-7582
▁নায়	-7583
▁ফুটব	-7584
▁ফ্রা	-7585
▁বালি	-7586
▁মদিন	-7587
▁রচয়	-7588
াকৃতির	-7589
▁অন্তত	-7590
▁গোলাপ	-7591
▁গ্রেট	-7592
▁নিকটে	-7593
▁বাদাম	-7594
▁লিস্ট	-7595
▁মার্কস	-7596
▁লাইব্র	-7597
▁সেক্টর	-7598
▁ফার্স্ট	-7599
▁মেট্রোপ	-7600
▁রয়েছেন	-7601
▁মেক্সিকান	-7602
▁সাম্যবাদী	-7603
▁ক্যন্দিতার	-7604
▁টেলিযোগাযোগ	-7605
৯০	-7606
তলী	-7607
শাখ	-7608
স্র	-7609
জারব	-7610
বন্দ	-7611
▁গিল	-7612
▁ফিশ	-7613
আইটেম	-7614
াবশেষ	-7615
▁অশোক	-7616
▁অস্ব	-7617
্যেষ্ঠ	-7618
▁আবদ্ধ	-7619
▁কারনে	-7620
▁ক্রিম	-7621
▁ক্লাস	-7622
▁টেষ্ট	-7623
▁পৌঁছে	-7624
▁ফিরনি	-7625
▁ব্যয়	-7626
▁কুইন্স	-7627
▁মার্কা	-7628
▁হচ্ছিল	-7629
▁অ্যান্ট	-7630
▁প্রামাণ	-7631
▁মার্কেট	-7632
▁পাহাড়ের	-7633
▁সর্ববৃহৎ	-7634
▁হরিয়ানার	-7635
ডস	-7636
ৎপ	-7637
ীর্ণ	-7638
্যুদ	-7639
▁টের	-7640
▁বাব	-7641
▁বৎস	-7642
▁সীত	-7643
বিশ্ব	-7644
ষ্টিত	-7645
ান্দি	-7646
াবদ্ধ	-7647
ার্ধে	-7648
▁এক্ষ	-7649
▁কুকড	-7650
▁জলের	-7651
▁পদের	-7652
▁পৌঁছ	-7653
▁বললে	-7654
▁১৯০৯	-7655
পরিচিত	-7656
াঙ্কিত	-7657
▁ইতালি	-7658
▁মানেই	-7659
▁স্ত্র	-7660
▁তেহারী	-7661
▁বন্ধুর	-7662
▁স্মোকি	-7663
▁দর্শনের	-7664
▁পরিষদের	-7665
▁প্রতিটা	-7666
▁মার্টিন	-7667
▁শ্রেণীব	-7668
▁উপস্থাপন	-7669
▁কিংবদন্ত	-7670
▁পরিষ্কার	-7671
▁নেত্রকোণা	-7672
▁মন্ত্রণালয়ের	-7673
িওপ	-7674
োড়	-7675
▁হয	-7676
স্তক	-7677
▁হাশ	-7678
▁১৫৫	-7679
গড়ের	-7680
চ্ছেদ	-7681
▁উসুল	-7682
▁করলো	-7683
জাতীয়	-7684
ফেয়ার	-7685
োনিয়া	-7686
▁এইবার	-7687
▁ঝিনাই	-7688
▁ভুটান	-7689
▁মাথায়	-7690
▁হাওয়	-7691
▁ব্যুফে	-7692
▁ভূমধ্য	-7693
▁মানবিক	-7694
▁সাইন্স	-7695
▁চেন্নাই	-7696
▁অনেকগুলি	-7697
▁পর্বতমালার	-7698
সাস	-7699
োনো	-7700
▁অদ	-7701
আমার	-7702
এক্স	-7703
োগ্স	-7704
▁দুঃ	-7705
জাতিক	-7706
জাহান	-7707
পোর্ট	-7708
হত্যা	-7709
▁অর্ক	-7710
▁এলজি	-7711
▁ওষুধ	-7712
▁গৌতম	-7713
▁ঘিরে	-7714
▁জাফর	-7715
▁ডিভি	-7716
ওয়ালা	-7717
▁কাঠের	-7718
▁কাণ্ড	-7719
▁কোথায়	-7720
▁চাহিদ	-7721
▁মিন্ট	-7722
▁র্ত্স	-7723
▁ছায়াপ	-7724
▁দ্বাদশ	-7725
▁নেপথ্য	-7726
▁শাহরুখ	-7727
▁র্গ্যাস	-7728
▁নামাঙ্কিত	-7729
▁পরিবর্তিত	-7730
▁সংস্কৃতির	-7731
ঘা	-7732
হু	-7733
টনের	-7734
বিলে	-7735
▁খাওয়	-7736
▁নষ্ট	-7737
▁নিঃস	-7738
▁বলছি	-7739
▁লিখন	-7740
▁সহজে	-7741
▁হাঁস	-7742
▁আইএসও	-7743
▁দলীয়	-7744
▁দুপুর	-7745
▁দুর্ঘ	-7746
▁সেঞ্চ	-7747
জারবাইজ	-7748
ীড়াবিদ	-7749
▁এখানেই	-7750
▁কর্নেল	-7751
▁অধ্যায়	-7752
▁প্রশস্ত	-7753
▁প্রায়শ	-7754
▁রিসার্চ	-7755
▁শব্দটির	-7756
▁হায়দ্র	-7757
▁ইলেকট্রন	-7758
▁উপাচার্য	-7759
▁সুপরিচিত	-7760
▁স্বরবর্ণ	-7761
▁বিক্রিয়া	-7762
▁অংশগ্রহণের	-7763
▁পার্শ্ববর্তী	-7764
ঘু	-7765
চন	-7766
হাজ	-7767
ড়াও	-7768
▁সত	-7769
ীনগর	-7770
ীব্র	-7771
▁খড়	-7772
▁খনন	-7773
রেটিং	-7774
স্তান	-7775
ার্জী	-7776
্যস্ত	-7777
▁একেক	-7778
▁ফলের	-7779
▁ঘটনার	-7780
▁ড্যান	-7781
▁তিনিই	-7782
▁নাচোস	-7783
▁বন্দী	-7784
▁সীমিত	-7785
▁সন্ধান	-7786
▁স্ক্যা	-7787
▁অন্যরকম	-7788
▁অ্যাকশন	-7789
▁অ্যাসিড	-7790
▁গোষ্ঠীর	-7791
▁গ্রহণের	-7792
▁জনপ্রতি	-7793
▁বিবিকিউ	-7794
▁বিরোধীদল	-7795
▁ব্যান্ডের	-7796
▁প্রার্থীতা	-7797
▁মল্লক্রীড়াবিদ	-7798
টল	-7799
২৭	-7800
ভের	-7801
সময়	-7802
খন্ড	-7803
▁ঘাস	-7804
▁মেস	-7805
ন্ধিক	-7806
সভায়	-7807
াত্রী	-7808
▁করবো	-7809
▁রাণী	-7810
▁গোয়া	-7811
▁দুর্ব	-7812
▁প্রচে	-7813
▁মুজিব	-7814
▁স্তরে	-7815
ধ্যায়ের	-7816
▁বাহাদুর	-7817
▁বিনিয়োগ	-7818
▁উপন্যাসের	-7819
▁পরিচালনার	-7820
▁প্রকল্পের	-7821
▁অর্থনীতিতে	-7822
▁চলচ্চিত্রসমূহ	-7823
োষ	-7824
ংকর	-7825
লাপ	-7826
ুতে	-7827
ন্ডা	-7828
ল্লা	-7829
▁অলি	-7830
▁খুজ	-7831
▁হবি	-7832
কারের	-7833
স্টিক	-7834
▁গোলাম	-7835
▁টুকরো	-7836
▁পড়েন	-7837
▁পরোটা	-7838
▁বাদ্য	-7839
▁সান্ত	-7840
▁গ্রুপে	-7841
▁ভিতরের	-7842
▁রায়ের	-7843
▁ক্যাপ্ট	-7844
▁নির্ণয়	-7845
▁প্রদেশে	-7846
▁শারীরিক	-7847
▁সাপ্তাহ	-7848
▁প্রযোজিত	-7849
খর	-7850
বক	-7851
খাল	-7852
দীপ	-7853
রাত	-7854
সেট	-7855
াপর	-7856
▁ডল	-7857
▁৯ম	-7858
িক্ত	-7859
েটিক	-7860
▁কপি	-7861
▁খোর	-7862
▁জোর	-7863
▁দোন	-7864
▁ফিস	-7865
▁ফুস	-7866
▁মোঃ	-7867
▁৭টি	-7868
দিয়া	-7869
▁পরিদ	-7870
▁মামা	-7871
▁১৯০৬	-7872
বুন্টু	-7873
রামপুর	-7874
▁এসময়	-7875
▁কালাই	-7876
▁তীব্র	-7877
▁দলটির	-7878
▁পাণ্ড	-7879
▁সমাধি	-7880
▁হওয়ার	-7881
▁হাদিস	-7882
ান্টিটি	-7883
▁অর্কিড	-7884
▁মাঝামা	-7885
▁সংঘর্ষ	-7886
▁সমূহের	-7887
▁ভুটানের	-7888
▁মন্তব্য	-7889
▁রচয়িতা	-7890
▁মিডিয়াম	-7891
▁রামকৃষ্ণ	-7892
▁আবদুল্লাহ	-7893
▁উন্নয়নের	-7894
▁গাইবান্ধা	-7895
▁দৈর্ঘ্যের	-7896
▁সংজ্ঞায়িত	-7897
▁আয়ারল্যান্ডের	-7898
৩৬	-7899
এনএ	-7900
নীয়	-7901
ুড়	-7902
োসা	-7903
্দে	-7904
▁ইজ	-7905
▁ওন	-7906
▁টন	-7907
ড়াল	-7908
▁কণা	-7909
▁ঝাঁ	-7910
▁দেও	-7911
▁পির	-7912
▁সুত	-7913
▁১২৫	-7914
ঞ্জাম	-7915
▁আলুর	-7916
▁ওয়ান	-7917
▁দিলো	-7918
▁পরগণ	-7919
▁বাইট	-7920
▁বিজন	-7921
▁স্কয়	-7922
▁হোয়	-7923
▁গ্রীক	-7924
▁নওগাঁ	-7925
▁স্পেন	-7926
▁আর্সেন	-7927
▁ইভেন্ট	-7928
▁দ্বীপে	-7929
▁নড়াইল	-7930
▁ফ্রাইস	-7931
▁মুন্সী	-7932
▁শাসনাম	-7933
▁সাউন্ড	-7934
▁স্বয়ং	-7935
▁অঞ্চলটি	-7936
▁শিশুদের	-7937
▁এলজিবিটি	-7938
▁প্রযুক্ত	-7939
▁বহুজাতিক	-7940
▁চ্যালেঞ্জ	-7941
▁ফিলিপাইনের	-7942
▁নিয়ন্ত্রিত	-7943
উব	-7944
গম	-7945
সেস	-7946
ুরো	-7947
্কো	-7948
▁৮ম	-7949
মুখী	-7950
▁গেই	-7951
▁জোট	-7952
▁দেল	-7953
পৃষ্ঠ	-7954
▁কোপা	-7955
▁গাড়	-7956
▁চীনে	-7957
▁১৯০৩	-7958
▁ইরাকি	-7959
▁গতকাল	-7960
গোষ্ঠীর	-7961
বাবগঞ্জ	-7962
▁কল্যাণ	-7963
▁জায়গার	-7964
▁খাওয়ার	-7965
▁ডক্টরেট	-7966
▁ব্যাম্স	-7967
▁প্রাচীনতম	-7968
▁প্রামাণ্য	-7969
▁মাস্টার্স	-7970
▁মুখ্যমন্ত্রী	-7971
ঠের	-7972
াসহ	-7973
পর্ব	-7974
বাচক	-7975
▁আরোও	-7976
▁আসুন	-7977
▁মৌলভ	-7978
▁অতিথি	-7979
▁কালীম	-7980
▁ঘনত্ব	-7981
▁নাম্স	-7982
▁ব্যান	-7983
শ্রেষ্ঠ	-7984
▁দেয়ার	-7985
▁স্পর্শ	-7986
▁আনোয়ার	-7987
▁উপত্যকা	-7988
▁সেনগুপ্ত	-7989
পরিসংখ্যান	-7990
▁দ্রুতগামী	-7991
▁মেট্রোপলি	-7992
▁ব্যক্তিবর্গ	-7993
▁ব্যঞ্জনবর্ণ	-7994
▁বিরোধীদলগুলি	-7995
৬৫	-7996
জেন	-7997
ডিস	-7998
তাপ	-7999
ফেল	-8000
িসা	-8001
োলন	-8002
পাতি	-8003
হমান	-8004
্লিক	-8005
▁খোঁ	-8006
▁১টা	-8007
▁২৮০	-8008
▁আলোর	-8009
▁বাকী	-8010
▁লাইট	-8011
▁শর্ত	-8012
▁১৯০৪	-8013
িয়ানি	-8014
▁আকৃতি	-8015
▁কলিজা	-8016
▁পর্বে	-8017
▁পাত্র	-8018
▁বারের	-8019
▁বার্ক	-8020
▁মিনার	-8021
▁মেডিস	-8022
▁হ্যাঁ	-8023
▁মুরগীর	-8024
▁স্বাদঃ	-8025
▁কার্টুন	-8026
▁রাজকীয়	-8027
▁আজারবাইজ	-8028
▁গ্রন্থটি	-8029
▁প্রোফাইল	-8030
▁শাসনকারী	-8031
▁হরিয়ানা	-8032
▁পার্ফেক্ট	-8033
▁ব্যক্তিদের	-8034
▁মাইক্রোসফট	-8035
▁হাস্যরসাত্মক	-8036
গীর	-8037
ছাম	-8038
ভান	-8039
াতো	-8040
▁আঠ	-8041
▁ঢু	-8042
▁সক	-8043
ক্ষা	-8044
ামার	-8045
ুরিং	-8046
োরাম	-8047
▁আহত	-8048
▁ফেম	-8049
▁১৬৫	-8050
▁৩টা	-8051
নবিংশ	-8052
▁অডিও	-8053
▁ক্রস	-8054
▁জালি	-8055
▁পেরি	-8056
▁মোড়	-8057
▁লেবু	-8058
▁গ্রোস	-8059
▁নিজেই	-8060
▁পার্স	-8061
▁মুরগি	-8062
▁অভিধান	-8063
▁কীভাবে	-8064
▁ডেটাবে	-8065
▁শনাক্ত	-8066
▁নিবন্ধন	-8067
▁পাহাড়ি	-8068
▁প্রথমেই	-8069
▁লিনাক্স	-8070
▁কর্মচারী	-8071
▁ব্রাঞ্চে	-8072
▁সন্ন্যাস	-8073
▁কক্সবাজার	-8074
▁বিশেষভাবে	-8075
▁প্রতিস্থাপ	-8076
▁চলচ্চিত্রটির	-8077
▁চ্যাম্পিয়নস	-8078
▁আনুষ্ঠানিকভাবে	-8079
▁জ্যোতির্বিজ্ঞান	-8080
জগ	-8081
কিউ	-8082
জাল	-8083
রিত	-8084
াগা	-8085
▁গ্	-8086
▁হপ	-8087
িনিউ	-8088
িলের	-8089
ুমার	-8090
▁দিঘ	-8091
▁ফিউ	-8092
▁র্ন	-8093
▁১লা	-8094
▁৮০০	-8095
▁বিসম	-8096
▁ব্কা	-8097
▁ব্লু	-8098
▁আকর্ষ	-8099
▁উদ্ভব	-8100
▁চিজের	-8101
▁বাগান	-8102
▁বাঙ্গ	-8103
▁মতবাদ	-8104
▁মতামত	-8105
▁মেরিল	-8106
▁হ্রাস	-8107
▁অসম্ভব	-8108
▁কিভাবে	-8109
▁চতুর্দ	-8110
▁নাজিরা	-8111
▁ব্লকের	-8112
▁ভালবাস	-8113
▁সড়কের	-8114
▁সত্যিই	-8115
▁সুগন্ধ	-8116
▁সংবিধান	-8117
▁প্রকারের	-8118
▁দিয়েছিলেন	-8119
▁ব্যাপকভাবে	-8120
৬৪	-8121
জিও	-8122
ফোন	-8123
▁ভল	-8124
ারিত	-8125
▁গোর	-8126
▁টোট	-8127
▁সবই	-8128
স্পতি	-8129
▁আর্য	-8130
▁তবুও	-8131
▁বর্ম	-8132
▁ব্লে	-8133
▁ভালে	-8134
▁শৈশব	-8135
▁১০টি	-8136
পশ্চিম	-8137
প্রধান	-8138
াবাদের	-8139
েক্ষিক	-8140
▁কিচেন	-8141
▁চওড়া	-8142
▁থাকায়	-8143
▁পাটনা	-8144
▁মিলবে	-8145
▁লাহোর	-8146
▁সাভার	-8147
▁হ্যাল	-8148
বিদ্যার	-8149
▁টেবিলে	-8150
▁ত্রিপা	-8151
▁দিল্লী	-8152
▁নেপালি	-8153
▁সমাজের	-8154
▁স্লাইস	-8155
▁জ্যেষ্ঠ	-8156
▁বন্ধুরা	-8157
▁শিরোনাম	-8158
▁অংশবিশেষ	-8159
▁থিয়েটার	-8160
▁ফ্রান্সে	-8161
▁ব্যাংকের	-8162
▁মাঝামাঝি	-8163
▁সম্ভাব্য	-8164
▁কিংবদন্তি	-8165
পাইনবাবগঞ্জ	-8166
▁পর্যবেক্ষণ	-8167
▁প্রাবন্ধিক	-8168
রাং	-8169
প্তি	-8170
িয়ান	-8171
▁ছদ্	-8172
▁লেভ	-8173
▁হান	-8174
টিয়া	-8175
পেক্ষ	-8176
িয়াং	-8177
্যাংস	-8178
▁খন্ড	-8179
▁বিপদ	-8180
▁শপিং	-8181
▁১৮২২	-8182
▁কয়লা	-8183
▁বার্ন	-8184
▁সিদ্দ	-8185
▁স্যাট	-8186
▁স্যাম	-8187
▁হামলা	-8188
▁উপকূলে	-8189
▁পটভূমি	-8190
▁পারস্য	-8191
▁শরীরের	-8192
▁স্তম্ভ	-8193
▁আয়তনের	-8194
▁বার্সেল	-8195
▁শিল্পের	-8196
▁আবহাওয়া	-8197
▁একাডেমিক	-8198
▁নোয়াখালী	-8199
▁ব্যবসায়িক	-8200
▁শ্রেণীবিন্যাস	-8201
▁চ্যাম্পিয়নশীপ	-8202
োং	-8203
এটি	-8204
ফরম	-8205
▁ডা	-8206
▁বব	-8207
▁চিত	-8208
▁জমে	-8209
▁ঝুঁ	-8210
▁ম্য	-8211
▁১০৫	-8212
গেটিভ	-8213
ভূক্ত	-8214
▁উষ্ণ	-8215
▁ওশেন	-8216
▁দুর্	-8217
▁পদবি	-8218
▁পিঠা	-8219
▁ব্লগ	-8220
▁হেভি	-8221
▁অন্থন	-8222
▁খিলাফ	-8223
▁গোস্ত	-8224
▁তারার	-8225
▁তেলের	-8226
▁ব্রেক	-8227
▁সন্দে	-8228
▁স্কোর	-8229
নির্মাণ	-8230
▁খাবারে	-8231
▁তালতলা	-8232
▁দুইবার	-8233
▁ফ্যাশন	-8234
▁বারবার	-8235
▁হুমকির	-8236
▁ক্রিয়া	-8237
▁গ্রেপ্ত	-8238
▁বিশেষজ্ঞ	-8239
▁চ্যানেলটি	-8240
▁জনপরিসংখ্যান	-8241
ক্ক	-8242
মিশ	-8243
ষ্প	-8244
ণবিক	-8245
মনের	-8246
লাইট	-8247
▁অমর	-8248
▁গাল	-8249
▁ঘুম	-8250
▁পেপ	-8251
▁১৩৫	-8252
▁১৫৭	-8253
খাবার	-8254
ষ্ঠিত	-8255
ান্দা	-8256
্যর্থ	-8257
▁কমিশ	-8258
▁ন্যা	-8259
▁বোমা	-8260
▁মোটা	-8261
▁রাশি	-8262
গতভাবে	-8263
▁অবতার	-8264
▁ইংলিশ	-8265
▁ঘোড়া	-8266
▁ত্রয়	-8267
▁ত্রিশ	-8268
▁ধ্রুপ	-8269
▁পড়ার	-8270
▁বিবিধ	-8271
▁ব্সোদ	-8272
▁পরিস্থ	-8273
▁মাউন্ট	-8274
▁আন্তরিক	-8275
▁ঝিনাইদহ	-8276
▁তাছাড়া	-8277
▁থ্রিলার	-8278
▁মিডিয়াম	-8279
▁আপেক্ষিক	-8280
▁গণপরিবহন	-8281
▁দ্ব্যাংস	-8282
▁শিল্পকলা	-8283
▁শুক্রবার	-8284
▁সাপ্তাহিক	-8285
ঘন	-8286
২৫	-8287
২৯	-8288
িজম	-8289
▁অট	-8290
▁রণ	-8291
ংশিক	-8292
বপুর	-8293
▁তাস	-8294
▁লোম	-8295
▁১৮শ	-8296
ঙ্গের	-8297
যায়ী	-8298
▁কথ্য	-8299
▁কবির	-8300
▁খায়	-8301
▁পশ্চ	-8302
▁পিকচ	-8303
▁বসতি	-8304
▁১৯০১	-8305
▁১৯০২	-8306
ান্টাম	-8307
ুদ্দিন	-8308
্যাপ্ত	-8309
▁ঘন্টা	-8310
▁চৌধুর	-8311
▁পেয়াজ	-8312
▁ফ্রিড	-8313
▁মধ্যম	-8314
সীমান্ত	-8315
▁মহকুমা	-8316
▁মাটিতে	-8317
▁শিয়াল	-8318
শায়ারের	-8319
▁ক্রিকইন	-8320
▁চাঁদপুর	-8321
▁পদ্ধতির	-8322
▁পাস্তার	-8323
▁বিলিয়ন	-8324
▁রপ্তানি	-8325
▁সংগঠনের	-8326
▁হিমালয়	-8327
▁বেসামরিক	-8328
▁সুইডেনের	-8329
▁মুসলিমদের	-8330
▁মেক্সিকোর	-8331
▁সেন্ট্রাল	-8332
▁ক্যান্সারে	-8333
▁সম্প্রচারিত	-8334
২৩	-8335
চাপ	-8336
থার	-8337
নাফ	-8338
ছানো	-8339
▁তিল	-8340
▁রাউ	-8341
▁লতা	-8342
▁পরাম	-8343
▁পাকা	-8344
▁ফেলা	-8345
▁মোহন	-8346
▁শত্র	-8347
▁সোনা	-8348
াকালীন	-8349
▁এটাকে	-8350
▁খেতেও	-8351
▁চুম্ব	-8352
▁বেশিই	-8353
▁মাথার	-8354
▁শ্রেন	-8355
▁জয়পুর	-8356
▁পালিয়ে	-8357
▁আশেপাশের	-8358
▁সন্তানের	-8359
▁১০প্রাইস	-8360
▁প্রত্যক্ষ	-8361
▁পানিপ্রবাহ	-8362
▁পৌরসংস্থার	-8363
▁রূপান্তরিত	-8364
▁ফিল্মফেয়ার	-8365
▁ভাষাবিজ্ঞান	-8366
গির	-8367
ভিং	-8368
▁ওস	-8369
▁নৃ	-8370
হারা	-8371
েকার	-8372
▁জেল	-8373
▁লিব	-8374
▁লুং	-8375
▁১৫৪	-8376
ক্ষিণ	-8377
▁আইপি	-8378
▁আধ্য	-8379
▁কিয়	-8380
▁ক্যি	-8381
▁দফতর	-8382
▁ফোটে	-8383
▁১৭৫৮	-8384
▁এথনোল	-8385
▁বৈশাখ	-8386
▁যাবার	-8387
▁হাবিব	-8388
▁বুঝলাম	-8389
▁লন্ডনে	-8390
▁শেয়ার	-8391
▁পঞ্জিকা	-8392
ার্টমেন্ট	-8393
▁অ্যান্টি	-8394
▁জামালপুর	-8395
▁আফ্রিকায়	-8396
▁চিত্রকর্ম	-8397
▁প্রবর্তিত	-8398
▁কম্পিউটারের	-8399
▁গণতান্ত্রিক	-8400
▁সুইজারল্যান্ড	-8401
ঠাক	-8402
ফিল	-8403
বোধ	-8404
▁নু	-8405
বাদে	-8406
বিবি	-8407
ভাজন	-8408
য়েজ	-8409
▁গর্	-8410
▁ডিল	-8411
▁ফরম	-8412
▁ভোল	-8413
▁মিঠ	-8414
▁৯৯৯	-8415
ন্নাথ	-8416
ভিয়া	-8417
▁করছি	-8418
▁জগতে	-8419
▁ভাজি	-8420
▁উৎসবে	-8421
▁কাঁচা	-8422
▁গেলেও	-8423
▁জন্মে	-8424
▁ডেভেল	-8425
▁দর্শক	-8426
▁প্যাট	-8427
▁অনুরোধ	-8428
▁এথনোলগ	-8429
▁ছত্তিশ	-8430
▁জনগণের	-8431
▁মিক্সড	-8432
▁যানবাহ	-8433
▁র্ত্সে	-8434
▁স্বভাব	-8435
▁আশেপাশে	-8436
▁ডানহাতে	-8437
▁প্রজন্ম	-8438
▁হবিগঞ্জ	-8439
▁এম্পায়ার	-8440
▁বিভাগসমূহ	-8441
▁রোমান্টিক	-8442
▁প্রত্নস্থল	-8443
▁উত্তরপ্রদেশের	-8444
▁এক্সপেরিয়েন্স	-8445
২৬	-8446
৩৫	-8447
৩৮	-8448
প্প	-8449
াইর	-8450
ালম	-8451
জনীন	-8452
তাকে	-8453
▁কনফ	-8454
▁ডিউ	-8455
▁নূর	-8456
▁ভিট	-8457
▁ম্দ	-8458
▁লেব	-8459
▁১৬৭	-8460
কীর্ণ	-8461
ন্দের	-8462
াকালে	-8463
▁আমিন	-8464
▁বৎসর	-8465
▁ভাবা	-8466
▁মোমো	-8467
▁শীতল	-8468
▁সৈকত	-8469
িস্টার	-8470
ুরিয়া	-8471
▁অংশটি	-8472
▁কুরআন	-8473
▁কেননা	-8474
▁টেলিফ	-8475
▁ট্রেড	-8476
▁পরগণা	-8477
▁ওভারঅল	-8478
▁বিপন্ন	-8479
▁মাথায়	-8480
▁স্মারক	-8481
▁অক্সাইড	-8482
▁অনুমোদন	-8483
▁কারিগরি	-8484
▁আব্বাসীয়	-8485
▁দায়িত্বে	-8486
▁অনুষ্ঠানের	-8487
▁মৃত্যুদণ্ড	-8488
▁হাইড্রোজেন	-8489
৩৭	-8490
কাব	-8491
জিদ	-8492
তিত	-8493
ীতা	-8494
োবর	-8495
মিনি	-8496
াইয়া	-8497
াগ্র	-8498
ূনতম	-8499
্যিং	-8500
▁ডেল	-8501
ঙ্কের	-8502
▁ইউসু	-8503
▁চায়	-8504
াময়িক	-8505
▁আংশিক	-8506
▁ইয়েল	-8507
▁গুল্ম	-8508
▁গেলেই	-8509
▁পাইনি	-8510
▁পেছনে	-8511
▁চকোলেট	-8512
▁সংগঠিত	-8513
▁ইতালিতে	-8514
▁র্ন্যিং	-8515
▁আবাসস্থল	-8516
▁উদ্বোধনী	-8517
▁বাক্যাংশ	-8518
▁ভূমিকম্প	-8519
▁সম্মানিত	-8520
▁অস্ট্রীয়	-8521
▁উপপ্রজাতি	-8522
▁পদার্থবিদ	-8523
▁সমসাময়িক	-8524
▁সিরাজগঞ্জ	-8525
▁চাঁপাইনবাবগঞ্জ	-8526
উইচ	-8527
পির	-8528
হাত	-8529
▁কোণ	-8530
▁জিত	-8531
বিহার	-8532
▁দাবী	-8533
▁নৌকা	-8534
▁রত্ন	-8535
▁সনের	-8536
▁হইছে	-8537
▁১৯০৭	-8538
▁র্নাম	-8539
▁লিভার	-8540
▁শিয়া	-8541
▁ইলিনয়	-8542
▁ক্ষুধা	-8543
▁ঠিকঠাক	-8544
▁পারেনি	-8545
▁পঞ্চকোট	-8546
▁স্প্যান	-8547
তাত্ত্বিক	-8548
▁সিংহাসনে	-8549
▁আমেরিকায়	-8550
▁পরীক্ষায়	-8551
▁পর্বতশ্রে	-8552
▁প্রদর্শিত	-8553
▁মিষ্টান্ন	-8554
▁কুড়িগ্রাম	-8555
▁ব্যঞ্জনধ্বনি	-8556
শু	-8557
নিস	-8558
পিজ	-8559
মহল	-8560
লীর	-8561
▁জহ	-8562
▁শক	-8563
ঘাটা	-8564
ীভূত	-8565
▁অরণ	-8566
▁দাল	-8567
▁পরম	-8568
▁ভোগ	-8569
▁মাএ	-8570
▁স্র	-8571
ফ্রেড	-8572
▁এসিড	-8573
▁তন্ম	-8574
▁মেজর	-8575
▁ম্খা	-8576
▁রানী	-8577
▁সোয়	-8578
▁হযরত	-8579
মন্দির	-8580
শিক্ষা	-8581
াদেশিক	-8582
▁চলমান	-8583
▁তারাম	-8584
▁পাড়ে	-8585
▁প্যাল	-8586
▁ব্যাঙ	-8587
▁রক্ষক	-8588
▁রাতের	-8589
▁সার্ক	-8590
▁অফিসার	-8591
▁করেননি	-8592
▁পরবর্ত	-8593
▁সাহাবা	-8594
মোহাম্মদ	-8595
োগ্রাফিক	-8596
▁দেশসমূহ	-8597
▁ন্যূনতম	-8598
▁প্যারিস	-8599
▁অধিগ্রহণ	-8600
▁সামগ্রিক	-8601
▁অ্যাঞ্জেল	-8602
▁গোপালগঞ্জ	-8603
▁মৌলভীবাজার	-8604
▁আন্তঃসীমান্ত	-8605
৩২	-8606
গুণ	-8607
শির	-8608
ুকা	-8609
ুখি	-8610
▁পপ	-8611
▁পয়	-8612
কামী	-8613
টেইন	-8614
▁ফাগ	-8615
▁১৪৫	-8616
▁১৬৯	-8617
ওয়েট	-8618
িবর্ত	-8619
▁আসবে	-8620
▁করতো	-8621
▁খাচ্	-8622
▁গণনা	-8623
▁ঠোঁট	-8624
▁ঢিবি	-8625
▁নামঃ	-8626
▁বললো	-8627
▁লেমন	-8628
▁কঙ্গো	-8629
▁কমেডি	-8630
▁করেনি	-8631
▁টাকাস	-8632
▁হ্যাম	-8633
▁অফারটা	-8634
▁আইটেমই	-8635
▁টাকাতে	-8636
▁নাইজের	-8637
▁প্রশ্ন	-8638
▁সবাইকে	-8639
▁সিজলিং	-8640
▁জগন্নাথ	-8641
▁প্রভাবে	-8642
▁স্নাতকো	-8643
▁কাউন্টির	-8644
▁সীমাবদ্ধ	-8645
▁পাঞ্জাবের	-8646
▁প্রাদেশিক	-8647
▁যুক্তরাজ্যে	-8648
ঁয়	-8649
গেট	-8650
জাজ	-8651
লির	-8652
্বি	-8653
▁নৈ	-8654
ংকার	-8655
উত্ত	-8656
বাদক	-8657
াণ্ড	-8658
াতিক	-8659
ালাম	-8660
িশতম	-8661
েকশন	-8662
▁টান	-8663
▁তাৎ	-8664
▁নথি	-8665
জিস্ট	-8666
মেন্ড	-8667
িয়াক	-8668
্লাহর	-8669
▁আহোম	-8670
▁এলাম	-8671
▁ওপরে	-8672
▁কথিত	-8673
▁পাইল	-8674
▁পেটি	-8675
▁লুইস	-8676
▁১২টি	-8677
ঞ্চলের	-8678
▁আগামী	-8679
▁কিছুর	-8680
▁ক্যাট	-8681
▁ক্রুসে	-8682
▁গণিতের	-8683
▁ডিভাইস	-8684
▁পুনর্জ	-8685
▁স্বর্গ	-8686
▁হয়েছিল	-8687
▁কুরআনের	-8688
▁বোর্ডের	-8689
▁মিটবক্স	-8690
▁আমিরাতের	-8691
▁ইউনেস্কো	-8692
▁পর্যাপ্ত	-8693
▁পেয়েছেন	-8694
▁প্রেসিডে	-8695
▁মালদ্বীপ	-8696
▁গ্রেপ্তার	-8697
▁কোয়ান্টাম	-8698
▁প্রদানকারী	-8699
▁প্রভাবশালী	-8700
▁মুন্সীগঞ্জ	-8701
▁মুর্শিদাবাদ	-8702
▁খ্রিষ্টপূর্ব	-8703
ভৌ	-8704
াৎ	-8705
তাস	-8706
তুর	-8707
▁তহ	-8708
টিসি	-8709
সেরা	-8710
াত্য	-8711
্তার	-8712
ৎস্য	-8713
▁কুঁ	-8714
▁ডাট	-8715
▁নাও	-8716
▁সুফ	-8717
দেশের	-8718
ফেডার	-8719
শানের	-8720
হ্যাম	-8721
▁গানে	-8722
▁জানে	-8723
▁অফারে	-8724
▁চৌম্ব	-8725
▁জোসেফ	-8726
▁পুকুর	-8727
▁পেট্র	-8728
▁বাস্ক	-8729
▁রাসেল	-8730
▁হরমোন	-8731
▁হেনরি	-8732
দৈর্ঘ্য	-8733
মনিরহাট	-8734
▁অনুমতি	-8735
▁ওয়েজেস	-8736
▁ছত্তিস	-8737
▁দেয়াল	-8738
▁গিয়েছে	-8739
▁পর্বতের	-8740
▁সদস্যের	-8741
▁সভ্যতার	-8742
▁সেখানেই	-8743
▁উল্লেখ্য	-8744
▁কমান্ডার	-8745
▁প্রযোজ্য	-8746
▁ল্যাবরেট	-8747
▁ক্যাপ্টেন	-8748
▁পত্রিকাটি	-8749
▁প্রদর্শনী	-8750
▁কালীমন্দির	-8751
▁ধ্বংসাবশেষ	-8752
▁পূর্ববর্তী	-8753
▁অ্যানিমেটেড	-8754
▁স্নাতকোত্তর	-8755
▁প্রাথমিকভাবে	-8756
টস	-8757
লভ	-8758
াথ	-8759
কেও	-8760
ডেট	-8761
ুলস	-8762
াদেব	-8763
োনিজ	-8764
▁কুশ	-8765
▁ত্ব	-8766
▁থাং	-8767
▁মেক	-8768
▁মোন	-8769
▁রিম	-8770
▁সিস	-8771
▁১৫৯	-8772
▁২৪০	-8773
র্ডার	-8774
স্থিত	-8775
োজপুর	-8776
▁কাগজ	-8777
▁পালক	-8778
▁বলেই	-8779
▁ব্রড	-8780
▁শিলা	-8781
▁১৮৯০	-8782
দুয়ার	-8783
▁অনন্য	-8784
▁বন্যা	-8785
▁মেশিন	-8786
▁শিলাল	-8787
রেন্দ্র	-8788
্কাউন্ট	-8789
▁অনুরূপ	-8790
▁এইখানে	-8791
▁বুঝায়	-8792
▁ভাষাটি	-8793
▁শেরপুর	-8794
▁সিন্ধু	-8795
▁ম্যাচের	-8796
▁কাস্টমার	-8797
▁নামকরণের	-8798
▁বিপ্লবের	-8799
▁খেয়েছিলাম	-8800
▁বিরিয়ানি	-8801
▁সন্ত্রাসী	-8802
▁আবিষ্কারের	-8803
▁বাঙালিয়ানা	-8804
▁বাদ্যযন্ত্র	-8805
আম	-8806
লিপ	-8807
োকল	-8808
ছন্ন	-8809
হিংস	-8810
▁ইবন	-8811
▁ঘাঁ	-8812
▁দিত	-8813
▁মতি	-8814
ঙ্কার	-8815
তীর্ণ	-8816
পাদ্য	-8817
পুরার	-8818
শ্বিক	-8819
ীর্তি	-8820
ুলিপি	-8821
▁অশ্ব	-8822
▁আপাত	-8823
▁ফুডব	-8824
▁সীমা	-8825
▁১৮৯৮	-8826
ভিনেতা	-8827
ভিয়ার	-8828
▁আণবিক	-8829
▁বিকির	-8830
▁বৈষ্ণ	-8831
▁ভবনটি	-8832
▁রৌপ্য	-8833
▁লেনিন	-8834
▁শুকনো	-8835
▁সন্তু	-8836
▁অবতীর্ণ	-8837
▁উত্তরের	-8838
▁একাডেমী	-8839
▁টার্মিন	-8840
▁পুলিশের	-8841
▁বান্ধবী	-8842
▁তত্ত্বাব	-8843
▁প্রদানের	-8844
▁বাসিন্দা	-8845
▁হুমায়ুন	-8846
▁নির্ভরশীল	-8847
▁পদার্থবিজ্ঞানের	-8848
৬৮	-8849
সুর	-8850
িবল	-8851
▁রও	-8852
ত্রী	-8853
ধানম	-8854
বদ্ধ	-8855
োক্র	-8856
▁কিম	-8857
▁জ্য	-8858
▁বনা	-8859
▁হয়ত	-8860
শক্তি	-8861
াদেমি	-8862
▁গাজী	-8863
▁ভোজন	-8864
প্রাইজ	-8865
িমিটার	-8866
িমেন্ট	-8867
িয়ানো	-8868
▁ইউসুফ	-8869
▁কাদের	-8870
▁গঙ্গা	-8871
▁গ্রীন	-8872
▁ডিস্ক	-8873
▁পরিচ্	-8874
▁রেষ্ট	-8875
▁সুবিধ	-8876
তন্ত্রী	-8877
▁আশ্রয়	-8878
▁সহায়ক	-8879
বিজ্ঞানে	-8880
▁খেলাধুলা	-8881
▁প্রায়শই	-8882
▁সেঞ্চুরি	-8883
▁যোগাযোগের	-8884
▁ক্যারিবীয়	-8885
ডন	-8886
উইন	-8887
টান	-8888
ঠিত	-8889
রাও	-8890
বর্ধ	-8891
সূচী	-8892
াইলে	-8893
▁জিহ	-8894
▁নাব	-8895
▁বিঃ	-8896
▁মাজ	-8897
▁মোল	-8898
▁২৬০	-8899
ুমারী	-8900
▁তখনই	-8901
▁নগরী	-8902
▁পেটে	-8903
▁লাইফ	-8904
উদ্দীন	-8905
াওয়ার	-8906
াধিকার	-8907
ার্থীর	-8908
▁অপরের	-8909
▁আবেদন	-8910
▁আরম্ভ	-8911
▁জাতের	-8912
▁ডিনার	-8913
▁বিন্দ	-8914
▁লাইসে	-8915
▁লাভের	-8916
▁লেখার	-8917
▁শূন্য	-8918
▁শেয়ার	-8919
বিদ্যুৎ	-8920
▁উপজাতি	-8921
▁পড়েছে	-8922
▁পরস্পর	-8923
▁বঙ্গোপ	-8924
▁বিদ্যা	-8925
▁ভেঙ্গে	-8926
▁মাদ্রি	-8927
ধানমন্ডি	-8928
▁কনফেডার	-8929
▁সময়কাল	-8930
▁সমান্তর	-8931
▁ইন্ডাস্ট	-8932
▁চরিত্রের	-8933
▁পরিমাপের	-8934
▁শাসনামলে	-8935
▁শিক্ষাদান	-8936
▁জাতিগোষ্ঠী	-8937
▁সমাজতান্ত্রিক	-8938
রিও	-8939
হাল	-8940
▁ডু	-8941
▁লৌ	-8942
নপুর	-8943
মারা	-8944
াওয়া	-8945
াকের	-8946
ালোক	-8947
্তিক	-8948
▁আইও	-8949
▁চরম	-8950
▁২১০	-8951
নিম্ন	-8952
রসায়	-8953
িব্রু	-8954
▁জেলে	-8955
▁টিকে	-8956
▁ধরেই	-8957
▁বিএন	-8958
চুম্বী	-8959
পমেন্ট	-8960
াক্ষিক	-8961
াগুলোর	-8962
োর্টিং	-8963
▁কাঞ্চ	-8964
▁চাপের	-8965
▁ছুটির	-8966
▁বৈদেশ	-8967
▁মোস্ত	-8968
▁লিটার	-8969
▁সচেতন	-8970
খিলগাঁও	-8971
▁অক্সিজ	-8972
▁উপগ্রহ	-8973
▁ছাত্রী	-8974
▁পাউন্ড	-8975
▁কমিশনের	-8976
▁কৃতিত্ব	-8977
▁সিদ্দিক	-8978
▁সেনাপতি	-8979
▁আধ্যাত্ম	-8980
▁কোম্পানী	-8981
▁শ্রেণীতে	-8982
▁সত্ত্বেও	-8983
▁পর্য্যন্ত	-8984
▁প্রকারভেদ	-8985
▁ভালোবাসার	-8986
আব	-8987
দৌ	-8988
লু	-8989
২৮	-8990
গাম	-8991
ভ্র	-8992
েরী	-8993
তিনি	-8994
র্দি	-8995
ুজের	-8996
ৃঙ্খ	-8997
্কোন	-8998
▁জলে	-8999
▁বরফ	-9000
▁বাউ	-9001
ঞ্জার	-9002
ভাষ্য	-9003
াউন্ট	-9004
েক্ষা	-9005
▁অপ্র	-9006
▁আটটি	-9007
▁এইটি	-9008
▁এডিন	-9009
▁চম্প	-9010
▁পথের	-9011
▁মাখা	-9012
সিয়াস	-9013
▁আবির্	-9014
▁ইথিওপ	-9015
▁ক্যাস	-9016
▁নরসিং	-9017
▁নেওয়া	-9018
▁যায়গা	-9019
▁রাঙ্গ	-9020
▁শুষ্ক	-9021
▁সবসময়	-9022
▁অভিজাত	-9023
▁একসময়	-9024
▁কমান্ড	-9025
▁দুপুরে	-9026
▁হ্রদের	-9027
▁চিকেনটা	-9028
▁প্রকাশক	-9029
▁বৈদেশিক	-9030
▁বৃহস্পতি	-9031
▁শিক্ষকতা	-9032
▁সম্প্রতি	-9033
▁ধানমন্ডির	-9034
▁নিম্নোক্ত	-9035
▁রাজতন্ত্র	-9036
▁ডিস্কাউন্ট	-9037
▁লালমনিরহাট	-9038
▁আর্জেন্টিনা	-9039
৬৯	-9040
চাল	-9041
দূত	-9042
ভির	-9043
াজী	-9044
ুবন	-9045
োধী	-9046
▁মথ	-9047
আজকে	-9048
টিরও	-9049
বেলা	-9050
রাচর	-9051
সারণ	-9052
িংসে	-9053
োলজি	-9054
্বের	-9055
▁ইতি	-9056
▁ডেই	-9057
▁পীর	-9058
▁ফজল	-9059
▁ফসল	-9060
▁বিএ	-9061
জিটিভ	-9062
জিলিং	-9063
বিহীন	-9064
▁অনার	-9065
▁ইরাক	-9066
▁জিলা	-9067
▁সিপি	-9068
▁হইসে	-9069
▁হাজী	-9070
াদানের	-9071
▁একপ্র	-9072
▁করায়	-9073
▁কাজাখ	-9074
▁গঠনের	-9075
▁ঘ্রাণ	-9076
▁ডিপ্ল	-9077
▁দাওয়া	-9078
▁ব্র্গ	-9079
▁মিয়া	-9080
▁মুখোম	-9081
▁স্থিত	-9082
▁উপভাষা	-9083
▁দুর্বল	-9084
▁নাটকের	-9085
▁বাড়ির	-9086
াঞ্চলীয়	-9087
▁বৈচিত্র	-9088
▁ব্যাঙ্ক	-9089
▁মেডিসিন	-9090
▁উত্তরাংশ	-9091
▁নবাবগঞ্জ	-9092
▁পুরোপুরি	-9093
▁ব্যবধানে	-9094
▁মহাকাব্য	-9095
▁ছত্তিসগড়	-9096
▁পুনর্জন্ম	-9097
▁হিমালয়ের	-9098
▁অস্ট্রিয়ার	-9099
▁দক্ষিণপূর্ব	-9100
▁রেষ্টুরেন্ট	-9101
▁সিঙ্গাপুরের	-9102
▁ক্রিকেটারদের	-9103
খিক	-9104
জনি	-9105
ড়ী	-9106
মিথ	-9107
িমে	-9108
ইয়া	-9109
দগাহ	-9110
য়িং	-9111
িরের	-9112
▁কাচ	-9113
▁মগজ	-9114
▁শরৎ	-9115
▁সাক	-9116
িকাতে	-9117
▁আগমন	-9118
▁হত্য	-9119
▁১৬টি	-9120
এসপিএন	-9121
▁অতীতে	-9122
▁ঝরঝরে	-9123
▁টুরিং	-9124
▁নাসির	-9125
▁নিবাস	-9126
▁ভূমির	-9127
▁রেলের	-9128
▁চাহিদা	-9129
▁দ্বিপদ	-9130
▁পরিভাষ	-9131
▁অধ্যক্ষ	-9132
▁উবুন্টু	-9133
▁পারদর্শ	-9134
▁বাজেটের	-9135
▁রিজার্ভ	-9136
▁ল্যান্ড	-9137
▁তন্মধ্যে	-9138
▁প্রকৌশলে	-9139
▁ব্যক্তিকে	-9140
▁ডিপার্টমেন্ট	-9141
৮৬	-9142
জাদ	-9143
জুর	-9144
ণীর	-9145
তোষ	-9146
ভাস	-9147
াবো	-9148
নামা	-9149
য়েস	-9150
▁আটক	-9151
▁কেশ	-9152
যুগের	-9153
স্বাদ	-9154
াকৃতি	-9155
ান্তে	-9156
▁অন্ন	-9157
▁কর্ড	-9158
▁জোড়	-9159
▁বাটি	-9160
▁বাহি	-9161
▁বাড়ি	-9162
▁স্রো	-9163
ুনিয়া	-9164
▁ডিস্ট	-9165
▁দিয়েই	-9166
▁নিবেন	-9167
▁বাতাস	-9168
▁ভাটার	-9169
▁মুগ্ধ	-9170
▁কমেন্ট	-9171
▁দলসমূহ	-9172
▁বিজনেস	-9173
▁মিশ্রণ	-9174
▁আইনজীবী	-9175
▁ইলিয়াস	-9176
▁চতুর্দশ	-9177
▁ছায়াপথ	-9178
▁ধ্রুপদী	-9179
▁আন্দামান	-9180
▁মসজিদটির	-9181
▁মুখোমুখি	-9182
▁সহযোগিতা	-9183
▁টেলিভিশনের	-9184
▁পর্বতশৃঙ্গ	-9185
▁স্কটল্যান্ডের	-9186
জাই	-9187
তাই	-9188
তীত	-9189
ফুট	-9190
মোর	-9191
াবর	-9192
িওন	-9193
ঙ্গী	-9194
টনার	-9195
াবাস	-9196
▁কোপ	-9197
▁গুড	-9198
▁জলজ	-9199
▁যাদ	-9200
করনের	-9201
▁উপাস	-9202
▁কন্ঠ	-9203
▁টমাস	-9204
▁দলকে	-9205
▁দিবো	-9206
▁বিরল	-9207
▁হাড়	-9208
▁১৭৫৩	-9209
▁১৮৯৬	-9210
ওয়ারা	-9211
টেস্টঃ	-9212
াপাড়া	-9213
▁আদালত	-9214
▁আবর্ত	-9215
▁পান্ড	-9216
▁শতকরা	-9217
▁সারাব	-9218
▁সিডনি	-9219
▁স্তোন	-9220
▁উন্নতি	-9221
▁ফেসবুক	-9222
▁বাহিরে	-9223
▁বুলবুল	-9224
▁হালনাগ	-9225
▁প্ল্যান	-9226
▁ফ্লোরিড	-9227
▁ব্যাকরণ	-9228
▁সিংহাসন	-9229
▁সিনিয়র	-9230
▁পদ্মশ্রী	-9231
▁প্রবহমান	-9232
▁প্লেটারে	-9233
▁এক্ষেত্রে	-9234
▁ওয়ার্ডের	-9235
▁পেয়েছিলাম	-9236
▁খেলোয়াড়দের	-9237
৮৫	-9238
৮৭	-9239
৮৯	-9240
গোন	-9241
পাস	-9242
মাই	-9243
রাহ	-9244
ন্তী	-9245
িতাব	-9246
িনির	-9247
ীনের	-9248
▁থান	-9249
▁পশু	-9250
▁৩৬০	-9251
স্থলে	-9252
▁আঙ্গ	-9253
▁উরুগ	-9254
▁কৃষক	-9255
▁গণেশ	-9256
▁পরপর	-9257
▁পয়সা	-9258
▁মুড়ি	-9259
▁লর্ড	-9260
▁সূচক	-9261
▁অ্যার	-9262
▁গায়ে	-9263
▁পক্ষী	-9264
▁স্গ্র	-9265
▁হার্ট	-9266
▁উৎসবের	-9267
▁জলধারা	-9268
▁দুজনের	-9269
▁মাল্টি	-9270
▁লাইনের	-9271
▁ক্লাবটি	-9272
▁জায়গাটা	-9273
▁প্রণয়ন	-9274
▁মরুভূমি	-9275
▁রচনাবলী	-9276
▁সমস্যার	-9277
▁দ্ব্যর্থ	-9278
▁দার্জিলিং	-9279
▁বঙ্গবন্ধু	-9280
▁বাস্তবায়	-9281
▁আধ্যাত্মিক	-9282
▁হিন্দুধর্ম	-9283
▁ম্যাসাচুসেটস	-9284
তেও	-9285
বড়	-9286
ভুজ	-9287
হাউ	-9288
িউস	-9289
▁আয়	-9290
▁বউ	-9291
▁সপ	-9292
▁হু	-9293
ন্তু	-9294
▁গাম	-9295
▁দুল	-9296
▁বুন	-9297
▁১০৯	-9298
ওয়ালা	-9299
কোর্ট	-9300
সেন্ট	-9301
▁কুচি	-9302
▁গর্ভ	-9303
▁গেছি	-9304
▁দণ্ড	-9305
▁পলাশ	-9306
▁লিওন	-9307
▁১৮৯৯	-9308
▁করলেই	-9309
▁কালাম	-9310
▁কুকুর	-9311
▁তোমার	-9312
▁নান্দ	-9313
▁নিক্ষ	-9314
▁বংশের	-9315
▁বাক্য	-9316
▁বিরাট	-9317
▁রিফ্র	-9318
রনমেন্ট	-9319
▁ডাটাবে	-9320
▁ধ্রুবক	-9321
▁বুঝানো	-9322
▁ব্রাউন	-9323
িস্তানের	-9324
▁ইএসপিএন	-9325
▁ট্রাস্ট	-9326
▁পরিবেশঃ	-9327
▁প্রাসাদ	-9328
▁হোয়াইট	-9329
▁বিজ্ঞাপন	-9330
▁সীমান্তে	-9331
▁দুর্গাপুর	-9332
▁রেকর্ডসের	-9333
▁মহাবিদ্যালয়ের	-9334
▁নেদারল্যান্ডসের	-9335
নাই	-9336
ফেন	-9337
বতী	-9338
রাফ	-9339
োটাই	-9340
▁করব	-9341
▁গিব	-9342
▁গুঁ	-9343
▁নাথ	-9344
▁১২৭	-9345
দ্ভুত	-9346
নির্ধ	-9347
বাহিত	-9348
ায়ান	-9349
▁গাছে	-9350
▁জর্ড	-9351
▁জলাশ	-9352
▁পুরি	-9353
▁চত্বর	-9354
▁চিত্ত	-9355
▁টোটাল	-9356
▁দ্কোন	-9357
▁নিরসন	-9358
▁ব্রাগ	-9359
▁মালাই	-9360
▁মুস্ত	-9361
▁সিম্প	-9362
সংক্ষেপ	-9363
▁অগ্রসর	-9364
▁ছায়াছ	-9365
▁দেখবেন	-9366
▁পর্বের	-9367
▁পর্যটক	-9368
▁প্রাইম	-9369
▁বিচারক	-9370
▁সন্দেহ	-9371
▁সন্ধ্য	-9372
▁কয়েকজন	-9373
▁খাবারটা	-9374
▁চালিয়ে	-9375
▁পশ্চিমা	-9376
▁প্ল্যাট	-9377
▁ল্যাটিন	-9378
▁শীতকালে	-9379
▁সেরিয়ে	-9380
▁ইত্যাদির	-9381
▁নিয়োজিত	-9382
▁প্রতিবছর	-9383
▁মানুষদের	-9384
▁শিক্ষায়	-9385
▁এডওয়ার্ড	-9386
▁ব্র্গ্যুদ	-9387
▁পরিচালনায়	-9388
▁প্রাণরসায়	-9389
▁ব্যবস্থায়	-9390
▁কেন্দ্রশাসিত	-9391
▁সুইজারল্যান্ডের	-9392
আস	-9393
বস	-9394
যে	-9395
৩৯	-9396
বসু	-9397
বিট	-9398
মতে	-9399
রোচ	-9400
▁ওদ	-9401
▁লগ	-9402
হনের	-9403
িস্ক	-9404
▁নাল	-9405
▁নিচ	-9406
▁বুধ	-9407
▁হুই	-9408
▁হৃদ	-9409
কিন্স	-9410
ফিল্ড	-9411
মূল্য	-9412
রেস্ট	-9413
াক্কা	-9414
▁পুরু	-9415
▁ভদ্র	-9416
▁ভেনে	-9417
▁১৮৮৬	-9418
াবেক্ষ	-9419
▁করছিল	-9420
▁জন্যও	-9421
▁দেবীর	-9422
▁পদকের	-9423
▁পেঙ্গ	-9424
▁পেটের	-9425
▁বজায়	-9426
▁বাড়ির	-9427
▁মামার	-9428
▁সিটির	-9429
▁অগাস্ট	-9430
▁ওয়ার্	-9431
▁পায়ের	-9432
▁প্লেসঃ	-9433
▁ব্যতীত	-9434
▁ব্যুরো	-9435
▁মহাবিশ	-9436
▁সিরিজে	-9437
▁স্থানা	-9438
▁স্পেনে	-9439
▁অবস্থার	-9440
▁ত্রয়োদ	-9441
▁নরওয়েজ	-9442
▁পরামর্শ	-9443
▁বলছিলাম	-9444
▁বিশুদ্ধ	-9445
▁সরঞ্জাম	-9446
▁নারীবাদী	-9447
▁সাক্ষরতা	-9448
▁হালনাগাদ	-9449
▁ক্যাপিটাল	-9450
▁বিশ্বযুদ্ধ	-9451
▁স্থানান্তর	-9452
▁ব্রহ্মপুত্র	-9453
▁ভিক্টোরিয়া	-9454
▁হায়দ্রাবাদ	-9455
▁স্থানান্তরিত	-9456
রথ	-9457
ভৌম	-9458
জ্জা	-9459
পর্য	-9460
পোষক	-9461
স্টন	-9462
হানি	-9463
▁কাদ	-9464
▁টেম	-9465
▁পয়	-9466
▁পাও	-9467
▁ফলো	-9468
▁যেত	-9469
কারীর	-9470
ব্যাক	-9471
িমপুর	-9472
▁অজ্ঞ	-9473
▁ডিসি	-9474
▁নগ্ন	-9475
▁বজ্র	-9476
▁বিগত	-9477
▁লাদা	-9478
▁সাহা	-9479
বঙ্গের	-9480
য়ারের	-9481
াত্রিক	-9482
▁কিনলে	-9483
▁ঘটেছে	-9484
▁ডিরেক	-9485
▁ড্রাই	-9486
▁নাগাদ	-9487
▁নাটকে	-9488
▁বেটার	-9489
▁ব্ত্স	-9490
▁ভাষাত	-9491
▁মৎস্য	-9492
▁অনুপ্র	-9493
▁কয়েকটা	-9494
▁ধ্বনিম	-9495
▁পোলীয়	-9496
▁প্যারা	-9497
▁বীরভূম	-9498
▁লাগছিল	-9499
▁সবসময়	-9500
▁অনুভূতি	-9501
▁একত্রিত	-9502
▁ডাউনলোড	-9503
▁মার্ক্স	-9504
টেইনমেন্ট	-9505
▁অধিষ্ঠিত	-9506
▁উপস্থাপক	-9507
▁প্রকাশের	-9508
▁ফিলিপাইন	-9509
▁পৌরসংস্থা	-9510
▁ব্যতিক্রম	-9511
▁স্প্যানিশ	-9512
▁অ্যাঞ্জেলে	-9513
▁হাঙ্গেরীয়	-9514
▁কাব্যগ্রন্থ	-9515
▁অস্ট্রেলিয়ায়	-9516
৪৫	-9517
ফান	-9518
শিত	-9519
াবন	-9520
ারস	-9521
য়েড	-9522
▁নজ	-9523
কারে	-9524
ণ্ডী	-9525
সাইড	-9526
াবেন	-9527
ায়া	-9528
ীতিক	-9529
োল্ড	-9530
▁ইনি	-9531
▁কর্	-9532
▁গাঁ	-9533
▁টায়	-9534
▁ডাচ	-9535
▁পঁচ	-9536
▁ফোর	-9537
▁মায়	-9538
▁৩৯৯	-9539
চারের	-9540
ার্কট	-9541
্যাংক	-9542
▁উপদে	-9543
▁জঙ্গ	-9544
▁পারস	-9545
▁লিখা	-9546
শায়ার	-9547
ার্জিন	-9548
▁আবদুর	-9549
▁উনারা	-9550
▁রানার	-9551
▁লাগার	-9552
▁আচার্য	-9553
▁উচ্চতম	-9554
▁উদ্ধার	-9555
▁গানদেন	-9556
▁প্রেরণ	-9557
▁মির্জা	-9558
▁হিব্রু	-9559
স্থানীয়	-9560
▁উদ্যোগে	-9561
▁গোলাকার	-9562
▁স্কোয়া	-9563
▁প্রথমবার	-9564
▁সংস্থাটি	-9565
▁আলাউদ্দিন	-9566
▁কাউন্সিলর	-9567
▁অপেক্ষাকৃত	-9568
৬৭	-9569
বেই	-9570
াহু	-9571
কেরা	-9572
খালি	-9573
াজের	-9574
োরার	-9575
▁ইহা	-9576
▁এলি	-9577
▁ঝুল	-9578
▁ডেথ	-9579
▁পিট	-9580
▁পৌছ	-9581
▁৩২০	-9582
জ্জিত	-9583
ঞ্জের	-9584
নির্ব	-9585
াস্তব	-9586
োয়েশ	-9587
▁আনার	-9588
▁কথাস	-9589
▁চ্যা	-9590
▁দাঁত	-9591
▁নেয়া	-9592
▁ফ্যু	-9593
▁মেলে	-9594
▁ষোড়	-9595
▁্যাম	-9596
▁১৮৮৮	-9597
ক্ষমতা	-9598
▁আস্তে	-9599
▁ওজনের	-9600
▁গণিতে	-9601
▁দৃষ্ট	-9602
▁বেঁচে	-9603
▁মুরগী	-9604
▁লাস্ট	-9605
▁কবিতার	-9606
▁গ্রহের	-9607
▁গ্রেভি	-9608
▁নাগপুর	-9609
▁নিরাপদ	-9610
▁বৈষ্ণব	-9611
▁গেছিলাম	-9612
▁ডেসার্ট	-9613
▁বাস্কেট	-9614
▁মহকুমার	-9615
▁মুক্তির	-9616
▁রিফ্রেশ	-9617
▁সমন্বিত	-9618
▁সার্বভৌম	-9619
▁প্রস্তাবিত	-9620
▁আলেকজান্ডার	-9621
▁ছত্তিশগড়ের	-9622
▁প্রাপ্তবয়স্ক	-9623
বট	-9624
জিট	-9625
ডিট	-9626
হেল	-9627
▁ধো	-9628
▁মড	-9629
টিংস	-9630
ত্তন	-9631
দানী	-9632
াইটে	-9633
াস্থ	-9634
▁জাক	-9635
▁বরগ	-9636
মিত্র	-9637
▁উনিশ	-9638
▁কাঁক	-9639
▁কাপে	-9640
▁টাইট	-9641
▁তাড়	-9642
▁নদের	-9643
▁ফকির	-9644
▁বেছে	-9645
▁১৮৮৪	-9646
সঙ্গীত	-9647
ান্দ্র	-9648
▁গার্ল	-9649
▁জিগ্স	-9650
▁দেওয়	-9651
▁বংশধর	-9652
▁মাসিক	-9653
▁রাজ্জ	-9654
▁লিপির	-9655
▁শাস্ত	-9656
▁সবমিল	-9657
▁সাড়ে	-9658
সেকেন্ড	-9659
▁আওতায়	-9660
▁আলোচিত	-9661
▁নদিয়া	-9662
▁বাদামী	-9663
▁ভেলভেট	-9664
▁শিল্পে	-9665
▁সুতরাং	-9666
▁অধিবাসী	-9667
▁উপযুক্ত	-9668
▁ঠাকুরের	-9669
▁ঠিকানাঃ	-9670
▁দেওয়ান	-9671
▁ভিটামিন	-9672
▁সৃষ্টিক	-9673
তত্ত্ববিদ	-9674
▁অভিষিক্ত	-9675
▁গ্রাউন্ড	-9676
▁চিড়িয়া	-9677
▁পরিপূর্ণ	-9678
▁পেয়েছিল	-9679
▁আইটেমগুলো	-9680
▁কেন্দ্রটি	-9681
▁দাঁড়িয়ে	-9682
▁প্রতিবেদন	-9683
▁কণ্ঠশিল্পী	-9684
▁কোয়ান্টিটি	-9685
▁জীববিজ্ঞানী	-9686
▁মুক্তিযুদ্ধের	-9687
সো	-9688
ীশ	-9689
ব্ধ	-9690
লুক	-9691
াপি	-9692
্তো	-9693
জোড়	-9694
াইতে	-9695
ুলের	-9696
ূল্য	-9697
▁খায়	-9698
▁নাত	-9699
▁মদন	-9700
▁মোক	-9701
▁রিও	-9702
▁ক্লে	-9703
▁খালে	-9704
▁চার্	-9705
▁টানা	-9706
▁তোলে	-9707
▁লাসা	-9708
▁লেফট	-9709
▁শরীফ	-9710
▁শ্বে	-9711
ভারতের	-9712
িসংযোগ	-9713
▁কিন্ত	-9714
▁কোনটা	-9715
▁ডিএনএ	-9716
▁ডিম্ব	-9717
▁নামিব	-9718
▁প্লাস	-9719
▁মায়া	-9720
▁লাইনে	-9721
▁লেয়ার	-9722
▁ষোড়শ	-9723
কারীদের	-9724
▁উভয়ের	-9725
▁কারিগর	-9726
▁ছবিটির	-9727
▁নিউইয়	-9728
▁নেপালে	-9729
▁পতাকার	-9730
▁বান্দর	-9731
▁মূল্যঃ	-9732
▁যায়নি	-9733
▁শীর্ষে	-9734
▁ভার্জিন	-9735
▁হাইওয়ে	-9736
▁তালিকাটি	-9737
▁ত্রয়োদশ	-9738
▁দক্ষিণের	-9739
▁পরীক্ষার	-9740
▁সর্বনিম্ন	-9741
▁সিস্টেমের	-9742
▁হাসপাতালে	-9743
▁খ্রিস্টীয়	-9744
▁মহাসাগরীয়	-9745
▁যন্ত্রপাতি	-9746
▁কম্বোডিয়ার	-9747
▁নৃত্যশিল্পী	-9748
▁প্রকৃতপক্ষে	-9749
ৌর	-9750
৪৯	-9751
টেল	-9752
▁এঁ	-9753
তারি	-9754
মারী	-9755
র্শে	-9756
িবাদ	-9757
ুলাম	-9758
েশান	-9759
২০০৮	-9760
▁কেও	-9761
▁ফাত	-9762
▁মোগ	-9763
▁রাস	-9764
▁লোগ	-9765
▁১৩৭	-9766
▁১৪৭	-9767
ঙ্কিং	-9768
▁অভিম	-9769
▁গোশত	-9770
▁চাপা	-9771
▁মেয়ো	-9772
▁সমুহ	-9773
▁সাঁও	-9774
▁সাধন	-9775
▁১৪টি	-9776
মন্ত্র	-9777
▁আয়াত	-9778
▁ইয়ার	-9779
▁ওয়াট	-9780
▁কোস্ট	-9781
▁বিকাল	-9782
▁মির্জ	-9783
▁লেজের	-9784
▁হ্যার	-9785
▁অধিবাস	-9786
▁ডোরেমন	-9787
▁ফেললাম	-9788
▁বিবিসি	-9789
▁ভ্রাতা	-9790
▁মানবদে	-9791
▁যাতায়	-9792
▁সচরাচর	-9793
▁ওয়ার্ক	-9794
▁নরসিংদী	-9795
▁নিম্নের	-9796
▁পারেননি	-9797
▁মাঝখানে	-9798
▁যানবাহন	-9799
▁ক্যান্টন	-9800
▁অববাহিকার	-9801
▁অভ্যন্তরে	-9802
▁বর্ষপঞ্জি	-9803
োপাধ্যায়ের	-9804
▁অস্ট্রেলিয়ান	-9805
▁এন্টারটেইনমেন্ট	-9806
পল	-9807
৪০	-9808
উশন	-9809
গুন	-9810
গেল	-9811
টিই	-9812
ষার	-9813
িওর	-9814
িবা	-9815
ৎসি	-9816
▁ঘি	-9817
ক্ষন	-9818
ন্টন	-9819
ফলের	-9820
ভারে	-9821
স্কি	-9822
িমার	-9823
্তের	-9824
▁এলো	-9825
▁খাস	-9826
▁ডিন	-9827
▁নভো	-9828
▁বিজ	-9829
▁১০ই	-9830
▁৫৫০	-9831
পুরান	-9832
াগঞ্জ	-9833
েশন্স	-9834
▁আইডি	-9835
▁আবৃত	-9836
▁গর্ত	-9837
▁বানর	-9838
▁বৃহদ	-9839
▁মেলব	-9840
▁হলাম	-9841
স্থানে	-9842
ান্ডের	-9843
▁অ্যাব	-9844
▁ইয়েম	-9845
▁নানান	-9846
▁ন্যান	-9847
▁পুডিং	-9848
▁বিপুল	-9849
▁সকালে	-9850
▁সোর্স	-9851
▁আলেক্স	-9852
▁নুডুলস	-9853
▁পুষ্টি	-9854
▁প্রেমে	-9855
▁শাসনের	-9856
▁সংক্রম	-9857
▁সমাজসে	-9858
▁গার্ডেন	-9859
▁মেট্রিক	-9860
▁মেট্রোর	-9861
▁লেভেলের	-9862
▁পরিবেশের	-9863
▁প্রবর্তন	-9864
▁মারাত্মক	-9865
▁পৃষ্ঠপোষক	-9866
▁বার্গারটা	-9867
▁মেঘালয়ের	-9868
▁সেলসিয়াস	-9869
▁চট্টগ্রামে	-9870
▁জলপাইগুড়ি	-9871
▁দ্ব্যর্থতা	-9872
▁বিসমিল্লাহ	-9873
▁শ্রীলঙ্কান	-9874
▁প্যারালিম্পিক	-9875
ালক	-9876
ূপে	-9877
▁জব	-9878
▁লং	-9879
ানগর	-9880
▁চুন	-9881
▁জমা	-9882
▁ত্স	-9883
▁নিন	-9884
▁লরে	-9885
▁১১৭	-9886
▁৯০০	-9887
চ্যুত	-9888
জীবনী	-9889
াংশের	-9890
িটিকে	-9891
েশনাল	-9892
োয়াল	-9893
▁ইকোন	-9894
▁এইসব	-9895
▁গরমে	-9896
▁থাকি	-9897
▁প্রন	-9898
▁ফক্স	-9899
▁বেড়	-9900
▁বোঝা	-9901
▁মারি	-9902
▁সাধক	-9903
▁সিরা	-9904
উত্তরা	-9905
তিনিধি	-9906
▁ছদ্মন	-9907
▁জালাল	-9908
▁দ্বৈত	-9909
▁নারীর	-9910
▁পার্ট	-9911
▁ভাবতে	-9912
▁সৈনিক	-9913
▁নাস্তা	-9914
▁নিয়েছি	-9915
▁পঞ্চদশ	-9916
▁বাদশাহ	-9917
▁বার্তা	-9918
▁মক্কার	-9919
▁প্যাকেট	-9920
▁আর্সেনাল	-9921
▁গুজরাতের	-9922
▁দাশগুপ্ত	-9923
▁রাশিয়ান	-9924
▁মিলিমিটার	-9925
▁স্পোর্টিং	-9926
▁অঞ্চলসমূহের	-9927
▁প্ল্যাটফর্ম	-9928
▁শিক্ষার্থীর	-9929
▁প্রতিক্রিয়া	-9930
▁ইলেকট্রিক্যাল	-9931
ঃ১	-9932
৩১	-9933
দীন	-9934
বিত	-9935
রিচ	-9936
াবী	-9937
▁ফন	-9938
বলিত	-9939
মণ্ড	-9940
হাটি	-9941
োহান	-9942
▁ইউজ	-9943
▁কুব	-9944
▁মিঃ	-9945
▁লিও	-9946
▁হায়	-9947
▁হেড	-9948
▁২৯৯	-9949
▁৭৫০	-9950
বৃন্দ	-9951
▁আড্ড	-9952
▁করান	-9953
▁ঘেরা	-9954
▁টেরি	-9955
▁পোকা	-9956
▁ফ্লা	-9957
▁বিধি	-9958
▁ম্দো	-9959
▁রবিন	-9960
▁রোগে	-9961
▁সিয়	-9962
▁সুইট	-9963
▁সুড়	-9964
বিন্দু	-9965
ারেন্স	-9966
▁এটিতে	-9967
▁কাউকে	-9968
▁চাকরি	-9969
▁চারজন	-9970
▁দুধের	-9971
▁পারেঃ	-9972
▁বার্থ	-9973
▁ভালো	-9974
▁ভেনেজ	-9975
▁লিগার	-9976
▁হিজরি	-9977
▁ইনিংসে	-9978
▁তাইওয়	-9979
▁পাঠানো	-9980
▁সপ্তদশ	-9981
▁সমাচার	-9982
▁সমিতির	-9983
▁স্টাইল	-9984
▁উপপাদ্য	-9985
▁বিষাক্ত	-9986
▁হসপিটাল	-9987
▁আয়োজনের	-9988
▁উপদেষ্টা	-9989
▁পিজ্জাটা	-9990
▁সময়সূচী	-9991
▁ধ্বনিমূলক	-9992
▁পত্রিকায়	-9993
▁পূর্ণাঙ্গ	-9994
▁বাস্কেটবল	-9995
▁রেস্তোরাঁ	-9996
▁লক্ষ্মীপুর	-9997
ভল	-9998
লক	-9999
িলে	-10000
ুইচ	-10001
▁উগ	-10002
কলির	-10003
াতলা	-10004
ালেম	-10005
ুষ্য	-10006
ৃক্ত	-10007
▁অনি	-10008
▁ওয়া	-10009
▁চাচ	-10010
▁ভিউ	-10011
▁রেফ	-10012
কার্য	-10013
াকারে	-10014
ার্জি	-10015
▁আঁকা	-10016
▁জরিপ	-10017
▁১৮৯৫	-10018
▁একদমই	-10019
▁এরিয়া	-10020
▁কচ্ছপ	-10021
▁ঘাঁটি	-10022
▁জানান	-10023
▁জাহান	-10024
▁ড্রাগ	-10025
▁দিতেই	-10026
▁পাশ্চ	-10027
▁লাগতে	-10028
▁শঙ্কর	-10029
▁অ্যালব	-10030
▁আর্দ্র	-10031
▁ইব্রাহ	-10032
▁প্রাণি	-10033
▁ফেলুদা	-10034
▁বর্গের	-10035
▁বিড়াল	-10036
▁রিয়াল	-10037
▁হুসাইন	-10038
ুয়ারিতে	-10039
▁ইন্দিরা	-10040
▁জন্মদিন	-10041
▁বার্বিক	-10042
▁সারাবছর	-10043
▁সার্ভার	-10044
▁অধ্যাপনা	-10045
▁ইয়র্কের	-10046
▁ক্রোয়েশ	-10047
▁গবেষণায়	-10048
▁তাইওয়ান	-10049
▁সময়কালে	-10050
▁পরবর্তিতে	-10051
▁পূর্বদিকে	-10052
▁ওয়েবসাইটে	-10053
▁প্রত্যেকটা	-10054
▁সায়েন্সেস	-10055
▁প্রতিষ্ঠানে	-10056
জ্	-10057
ঘ্র	-10058
চৌধ	-10059
টনা	-10060
থিক	-10061
দিত	-10062
ভিক	-10063
্বো	-10064
▁আং	-10065
জনিত	-10066
াতেও	-10067
ুনাথ	-10068
▁আগা	-10069
▁আধা	-10070
▁আরে	-10071
▁কমল	-10072
▁জনস	-10073
▁নিখ	-10074
▁নিল	-10075
▁পাগ	-10076
▁ভের	-10077
▁রিড	-10078
▁লুস	-10079
মুক্ত	-10080
িস্তা	-10081
েলাইট	-10082
▁অপশন	-10083
▁আইনে	-10084
▁আর্ব	-10085
▁আলীর	-10086
▁ডানে	-10087
▁ধাতব	-10088
▁পকেট	-10089
▁মেরু	-10090
▁সংকর	-10091
▁সঞ্জ	-10092
▁স্কা	-10093
▁১৮৯৭	-10094
তালিকা	-10095
াইয়ের	-10096
▁অত্যা	-10097
▁অধুনা	-10098
▁বন্ধন	-10099
▁বাতিল	-10100
▁মাপের	-10101
▁স্পিন	-10102
▁ওয়েলস	-10103
▁ক্লাবে	-10104
▁টাইপের	-10105
▁তুরস্ক	-10106
▁বিরক্ত	-10107
▁ভিক্ষু	-10108
▁মরিচের	-10109
▁সাহারা	-10110
িমাত্রিক	-10111
▁আল্লাহর	-10112
▁উৎকীর্ণ	-10113
▁কমিশনার	-10114
▁প্রোটিন	-10115
▁বোরহানী	-10116
▁ব্যবস্থ	-10117
▁স্ত্রীর	-10118
▁উৎপাদনের	-10119
▁কিছুক্ষণ	-10120
▁দৃশ্যমান	-10121
▁প্রাইভেট	-10122
▁প্লেইটার	-10123
▁ত্রিপুরার	-10124
▁নৌবাহিনীর	-10125
▁পররাষ্ট্র	-10126
▁বর্ষাকালে	-10127
▁ধর্মগ্রন্থ	-10128
▁পরিবর্তনের	-10129
▁শাস্ত্রীয়	-10130
আউট	-10131
গোপ	-10132
▁আঙ	-10133
▁উজ	-10134
বিড়	-10135
রপুর	-10136
সিলি	-10137
িজীব	-10138
্গুন	-10139
▁আবদ	-10140
▁চটপ	-10141
▁ছাগ	-10142
▁বনে	-10143
▁মনি	-10144
▁১১৫	-10145
ন্ডিত	-10146
ভারিট	-10147
ানিতে	-10148
িয়াহ	-10149
▁আদেশ	-10150
▁আরকি	-10151
▁এনাফ	-10152
▁দাড়	-10153
▁যেনো	-10154
▁লায়	-10155
পনিবেশ	-10156
▁আলবেন	-10157
▁কালের	-10158
▁পড়তে	-10159
▁মনোরম	-10160
▁মশলার	-10161
▁হামিদ	-10162
▁আন্ডার	-10163
▁কাহিনি	-10164
▁দেশীয়	-10165
▁পিছনের	-10166
▁বাড়িয়ে	-10167
▁ভেক্টর	-10168
▁মাঙ্গা	-10169
▁মাদারী	-10170
▁দীর্ঘতম	-10171
▁বেরিয়ে	-10172
▁কোচবিহার	-10173
▁বহিসংযোগ	-10174
▁আত্মজীবনী	-10175
▁উপত্যকায়	-10176
▁গ্রামসমূহ	-10177
▁বার্বিকিউ	-10178
তিহাসিকভাবে	-10179
▁ইলেক্ট্রনিক	-10180
▁ওয়েস্টার্ন	-10181
৮১	-10182
পেট	-10183
োহী	-10184
▁কস	-10185
অফার	-10186
টিয়	-10187
প্রণ	-10188
িপ্ট	-10189
▁ওঠা	-10190
▁খুন	-10191
▁দুন	-10192
▁ধনী	-10193
▁পোক	-10194
▁ফান	-10195
▁১নং	-10196
▁২৭০	-10197
▁৪৯৯	-10198
মান্ড	-10199
ামাটি	-10200
্যাকা	-10201
▁উপরি	-10202
▁ওঠেন	-10203
▁দস্ত	-10204
▁বক্র	-10205
▁বিলা	-10206
▁যাবত	-10207
▁শৈলী	-10208
সাগরের	-10209
াঞ্চলে	-10210
▁ডিমের	-10211
▁পারলে	-10212
▁ফ্রিন	-10213
▁মসলার	-10214
▁ম্যাড	-10215
▁রুটির	-10216
▁লোহিত	-10217
▁শত্রু	-10218
▁শরীরে	-10219
▁শীতের	-10220
▁স্মেল	-10221
▁অভিবাস	-10222
▁কমিউনি	-10223
▁কোয়ার	-10224
▁ডাইনিং	-10225
▁থিয়েট	-10226
▁দিচ্ছি	-10227
বসুন্ধরা	-10228
▁অর্জনের	-10229
▁ক্ষমতার	-10230
▁পার্কের	-10231
▁বিক্রয়	-10232
▁বেঙ্গাল	-10233
▁মাইক্রো	-10234
▁সাফিক্স	-10235
▁ইস্টার্ন	-10236
▁পিরোজপুর	-10237
▁প্রতিবেশ	-10238
▁বার্গারে	-10239
▁কেবলমাত্র	-10240
▁সহায়তায়	-10241
▁প্রত্যেকটি	-10242
▁বিমানবন্দরের	-10243
▁ম্যানেজমেন্ট	-10244
▁ইউনিভার্সিটির	-10245
েত	-10246
গোর	-10247
ভবন	-10248
ভিচ	-10249
াজন	-10250
ামু	-10251
বর্গ	-10252
য়নে	-10253
াকরণ	-10254
▁অসু	-10255
▁পতন	-10256
▁পিঠ	-10257
▁বাধ	-10258
▁ভীড়	-10259
▁মেই	-10260
▁৪৫০	-10261
দিকের	-10262
মালার	-10263
মোনেড	-10264
িয়েট	-10265
▁অতুল	-10266
▁অর্ড	-10267
▁এ্যা	-10268
▁কামড়	-10269
▁খানা	-10270
▁খাসি	-10271
▁দারি	-10272
▁দিয়া	-10273
▁দেবন	-10274
▁বলের	-10275
▁বাদক	-10276
▁বিষয়	-10277
▁রানা	-10278
▁শ্যু	-10279
াবলম্ব	-10280
▁কালার	-10281
▁জানেন	-10282
▁তারাই	-10283
▁তোলেন	-10284
▁দেবার	-10285
▁ফার্ম	-10286
▁ফ্রেড	-10287
▁বিতরণ	-10288
▁বিনতে	-10289
▁সমাজে	-10290
▁সহস্র	-10291
▁সিক্স	-10292
▁স্টিভ	-10293
বার্গার	-10294
ভারতীয়	-10295
▁কুর্দি	-10296
▁দক্ষতা	-10297
▁নিম্নে	-10298
▁নেহারি	-10299
▁বিঃদ্র	-10300
▁অনুসারী	-10301
▁অভিষেকে	-10302
▁টেক্সাস	-10303
▁নিয়েছে	-10304
▁পর্বতার	-10305
▁বৃষ্টির	-10306
▁বেদান্ত	-10307
▁ভারোত্ত	-10308
▁মানুষকে	-10309
▁রাজ্জাক	-10310
▁লাগছিলো	-10311
▁হায়দার	-10312
▁ক্যামেরা	-10313
▁যন্ত্রের	-10314
▁ক্রিকইনফো	-10315
▁পুরস্কারে	-10316
▁প্রতিপক্ষ	-10317
▁পেয়েছিলেন	-10318
▁ভূমধ্যসাগর	-10319
বিষ	-10320
য়ক	-10321
সাং	-10322
সেই	-10323
স্ম	-10324
িকস	-10325
▁খল	-10326
▁রঘ	-10327
▁২য়	-10328
আইটি	-10329
বেরি	-10330
্বাদ	-10331
▁এফএ	-10332
▁এলে	-10333
▁ওকে	-10334
▁কনক	-10335
▁ছাত	-10336
▁বোস	-10337
▁ভাঁ	-10338
▁ভোক	-10339
▁লাফ	-10340
▁ষড়	-10341
▁১০১	-10342
কলায়	-10343
েনটিক	-10344
▁অসীম	-10345
▁গৌড়	-10346
▁ট্রি	-10347
▁পশতু	-10348
▁পাগল	-10349
▁পোড়	-10350
▁সফ্ট	-10351
▁হাইপ	-10352
▁১১টি	-10353
▁১৮৮২	-10354
কাচ্চি	-10355
বিরোধী	-10356
▁ইকবাল	-10357
▁করাচি	-10358
▁দরগাহ	-10359
▁নিবেদ	-10360
▁পাইলট	-10361
▁ফ্যুগ	-10362
▁বনশ্র	-10363
▁বোম্ব	-10364
▁মান্দ	-10365
▁যেমনঃ	-10366
▁আর্থার	-10367
▁আর্মেন	-10368
▁চৌম্বক	-10369
▁পুরানো	-10370
▁মধ্যমা	-10371
▁খ্রীষ্ট	-10372
▁মিজোরাম	-10373
▁হোটেলের	-10374
▁হ্যান্ড	-10375
▁আলজেরীয়	-10376
▁একপ্রকার	-10377
▁নামকরনের	-10378
▁শিলালিপি	-10379
▁ইউনিভার্স	-10380
▁একত্রীকরণ	-10381
▁নিউক্লীয়	-10382
▁প্যারিসের	-10383
▁বাছাইপর্ব	-10384
▁লাইব্রেরি	-10385
মস	-10386
ডিশ	-10387
পুট	-10388
ফিস	-10389
ভাক	-10390
রিন	-10391
ষেধ	-10392
ীমা	-10393
েরও	-10394
▁অয	-10395
কাতা	-10396
গনের	-10397
জয়ী	-10398
ড্ডি	-10399
ভেদে	-10400
▁তৈল	-10401
▁সিগ	-10402
দেরকে	-10403
সম্ভব	-10404
াত্মা	-10405
ান্তি	-10406
িয়াদ	-10407
▁এগার	-10408
▁গুহা	-10409
▁চামচ	-10410
▁লেডি	-10411
▁১৮৯২	-10412
ালিয়া	-10413
▁চালান	-10414
▁ছিলো	-10415
▁জনসাধ	-10416
▁ঝালের	-10417
▁তাওয়া	-10418
▁দশমিক	-10419
▁দুবাই	-10420
▁বাষ্প	-10421
▁মক্কা	-10422
টিক্যাল	-10423
▁আইটেমঃ	-10424
▁ইসলামে	-10425
▁ছাড়াই	-10426
▁টাওয়ার	-10427
▁টেক্সট	-10428
▁তারপরে	-10429
▁পরাজয়	-10430
▁পরিশোধ	-10431
▁পারিনি	-10432
▁পুস্তক	-10433
▁বরগুনা	-10434
▁লোকেরা	-10435
পনিবেশিক	-10436
▁ক্রুসেড	-10437
▁গন্তব্য	-10438
▁চারপাশে	-10439
▁অক্সিজেন	-10440
▁পেঙ্গুইন	-10441
▁সন্তুষ্ট	-10442
▁স্বায়ত্ত	-10443
▁অগ্নিযুগের	-10444
▁মনোবিজ্ঞান	-10445
▁উদাহরণস্বরূপ	-10446
২১	-10447
কৌশ	-10448
তলি	-10449
দাই	-10450
ালু	-10451
াহক	-10452
িকন	-10453
ুমে	-10454
▁ইঁ	-10455
▁চপ	-10456
কল্প	-10457
খোলা	-10458
টাকে	-10459
তানি	-10460
ন্দি	-10461
স্কে	-10462
্টিন	-10463
্সের	-10464
▁অটো	-10465
▁আহা	-10466
▁জোশ	-10467
▁তুষ	-10468
▁ধ্য	-10469
▁পিন	-10470
▁ফেই	-10471
▁ভিল	-10472
▁যেট	-10473
▁রিগ	-10474
▁রোজ	-10475
▁লেম	-10476
▁সিঁ	-10477
▁হোল	-10478
▁১২৯	-10479
করণের	-10480
ষিক্ত	-10481
াটিকে	-10482
▁একদল	-10483
▁একাদ	-10484
▁তলায়	-10485
▁দশটি	-10486
▁দিছে	-10487
▁নিষ্	-10488
▁বিমল	-10489
▁স্টে	-10490
▁১৮৮৫	-10491
▁এছাড়া	-10492
▁খেলতে	-10493
▁চালিত	-10494
▁জাদুঘ	-10495
▁নিয়েই	-10496
▁পিতাম	-10497
▁প্রসে	-10498
▁ব্রুন	-10499
▁ভার্স	-10500
▁মুল্য	-10501
▁ঘনিষ্ঠ	-10502
▁দেবনাগ	-10503
▁পরমাণু	-10504
▁বরাবরই	-10505
▁বলেছেন	-10506
▁বাড্ডা	-10507
▁বাসায়	-10508
▁মণিপুর	-10509
▁সম্রাজ	-10510
▁অষ্টাদশ	-10511
▁ক্যান্ড	-10512
▁তিব্বতি	-10513
▁দেয়ালে	-10514
▁বিবর্তন	-10515
▁মাত্রার	-10516
▁সপ্তাহে	-10517
▁স্প্রিং	-10518
▁হচ্ছিলো	-10519
▁নির্দেশক	-10520
▁নির্মাণে	-10521
▁বিতর্কিত	-10522
▁সংখ্যায়	-10523
▁জনগোষ্ঠীর	-10524
▁প্রাণীদের	-10525
▁বৃষ্টিপাত	-10526
▁ব্যাপারটা	-10527
▁কাউন্সিলের	-10528
▁জার্মানিতে	-10529
কাস	-10530
▁ঘা	-10531
▁ডন	-10532
▁নগ	-10533
ঙ্কল	-10534
লাতে	-10535
ুমিন	-10536
▁চের	-10537
▁জলদ	-10538
▁পরই	-10539
▁ফতে	-10540
▁বিস	-10541
▁সলি	-10542
▁৩৮০	-10543
ত্তার	-10544
ন্টের	-10545
প্রেম	-10546
াপত্র	-10547
ুয়েট	-10548
ৎসরিক	-10549
▁আইস্	-10550
▁এসআই	-10551
▁টেনে	-10552
▁ট্রে	-10553
▁দেশি	-10554
▁বালক	-10555
▁মহেশ	-10556
▁রেজি	-10557
▁শ্রম	-10558
▁সসের	-10559
পদার্থ	-10560
যাত্রা	-10561
স্পষ্ট	-10562
ারেস্ট	-10563
োনাল্ড	-10564
▁উপভাষ	-10565
▁জর্দা	-10566
▁জলপ্র	-10567
▁ডিজনি	-10568
▁পিয়াজ	-10569
▁পুতুল	-10570
▁পেশাদ	-10571
▁যৌনতা	-10572
▁রিজনে	-10573
▁উৎসর্গ	-10574
▁নিপতিত	-10575
▁বাসমতী	-10576
▁ভেতরের	-10577
▁লাওসের	-10578
▁সেতুটি	-10579
▁কালচক্র	-10580
▁দ্বীপটি	-10581
▁বৈশ্বিক	-10582
▁মহাকর্ষ	-10583
▁লেমোনেড	-10584
▁শিবগঞ্জ	-10585
▁সম্পদের	-10586
▁ইব্রাহিম	-10587
▁কাচ্চিতে	-10588
▁ক্যাপসিক	-10589
▁বিজ্ঞানে	-10590
▁লিপিবদ্ধ	-10591
▁সম্পৃক্ত	-10592
▁সাধারণতঃ	-10593
▁সুন্দরবন	-10594
▁সেখানকার	-10595
▁অভিযাত্রী	-10596
▁ভাল্লাগসে	-10597
▁নরওয়েজীয়	-10598
▁নিয়েছিলেন	-10599
▁হাসপাতালের	-10600
▁পর্নোগ্রাফি	-10601
▁পর্নোগ্রাফিক	-10602
▁প্রতিষ্ঠানসমূহ	-10603
ঁপ	-10604
চম	-10605
ডল	-10606
দক	-10607
হী	-10608
হ্	-10609
োশ	-10610
দীর	-10611
পান	-10612
ভোজ	-10613
শাদ	-10614
াঁস	-10615
▁এব	-10616
▁ডো	-10617
▁বক	-10618
▁লক	-10619
গুরু	-10620
মিলা	-10621
সম্ম	-10622
াদ্দ	-10623
াসার	-10624
িকোণ	-10625
িতাস	-10626
ুকের	-10627
▁ইসম	-10628
▁উমর	-10629
▁ছাড়	-10630
▁থিও	-10631
▁১০৪	-10632
▁১৬শ	-10633
টিনের	-10634
তাবেক	-10635
াবলিক	-10636
▁অতীত	-10637
▁আদান	-10638
▁এটাও	-10639
▁মাইন	-10640
▁মিমি	-10641
▁লালন	-10642
▁শস্য	-10643
▁১৮৭৪	-10644
পূর্বে	-10645
িয়াকে	-10646
েন্ডার	-10647
▁ইউরেশ	-10648
▁এসেছি	-10649
▁ক্লিন	-10650
▁চুয়া	-10651
▁তাঁকে	-10652
▁দ্বার	-10653
▁পর্দা	-10654
▁পেপার	-10655
▁ফেমাস	-10656
▁বলতেই	-10657
▁রচনার	-10658
▁রোগের	-10659
▁স্বাম	-10660
▁্যাংক	-10661
ানীগঞ্জ	-10662
▁কল্পনা	-10663
▁তফসিলি	-10664
▁দেখেছি	-10665
▁পন্ডিত	-10666
▁বিভাজন	-10667
▁যেভাবে	-10668
▁সাইপ্র	-10669
▁অবশিষ্ট	-10670
▁গ্রিসের	-10671
▁মহাভারত	-10672
▁মেয়োনিজ	-10673
▁শ্যাম্প	-10674
▁অবস্থানে	-10675
▁জলপ্রপাত	-10676
▁ডিপ্লোমা	-10677
▁বার্কলির	-10678
▁আকর্ষণীয়	-10679
▁আদমশুমারী	-10680
▁উপন্যাসটি	-10681
▁মাদারীপুর	-10682
▁লিমিটেডের	-10683
▁রক্ষণাবেক্ষ	-10684
▁বিমানবন্দরটি	-10685
▁স্টেডিয়ামের	-10686
থী	-10687
রফ	-10688
াভ	-10689
ীজ	-10690
গেড	-10691
রাগ	-10692
শিক	-10693
াকো	-10694
ৈষী	-10695
য়েন	-10696
▁হজ	-10697
▁৯১	-10698
ছড়া	-10699
ঞ্জি	-10700
টায়	-10701
বনের	-10702
রাইল	-10703
াগড়	-10704
াপার	-10705
ামাল	-10706
িনেস	-10707
িম্স	-10708
▁অয়	-10709
▁করপ	-10710
▁কেই	-10711
▁জিল	-10712
▁টিম	-10713
▁দৌল	-10714
▁পেল	-10715
▁লিথ	-10716
▁১৭শ	-10717
▁গোপন	-10718
▁দিসে	-10719
▁দেড়	-10720
▁পরিন	-10721
▁পালা	-10722
▁বাঁচ	-10723
▁বাধা	-10724
▁বুঝা	-10725
▁মক্ক	-10726
▁মঠের	-10727
াবার্গ	-10728
াস্টার	-10729
▁আকাশে	-10730
▁উল্টো	-10731
▁কালচে	-10732
▁চেঞ্জ	-10733
▁ট্যাব	-10734
▁ধর্মে	-10735
▁নৈতিক	-10736
▁পটেটো	-10737
▁প্রথা	-10738
▁ফরাসী	-10739
▁বিউটি	-10740
▁ভাগ্য	-10741
▁মেহের	-10742
▁রিভার	-10743
▁সাধনা	-10744
▁সেন্স	-10745
▁উচ্চতর	-10746
▁প্লেটে	-10747
▁ফায়ার	-10748
▁বয়স্ক	-10749
▁মনুষ্য	-10750
▁মারাঠা	-10751
▁শ্রেণি	-10752
▁সর্বাপ	-10753
▁সেসময়	-10754
▁সোনালী	-10755
▁তিব্বতে	-10756
▁পুরুষের	-10757
▁প্রচন্ড	-10758
▁বনাঞ্চল	-10759
▁বুদ্ধের	-10760
▁সংখ্যাল	-10761
▁স্ক্রিন	-10762
▁স্থানটি	-10763
▁আমন্ত্রণ	-10764
▁উপাদানের	-10765
▁কার্যকরী	-10766
▁কেনিয়ার	-10767
▁বর্ষসেরা	-10768
▁মালয়ালম	-10769
▁লেগেছিলো	-10770
▁সম্পাদিত	-10771
▁সম্পর্কের	-10772
▁স্টেডিয়ামটি	-10773
▁ক্যান্টনমেন্ট	-10774
চো	-10775
ুভ	-10776
ড়ী	-10777
কাজ	-10778
কাত	-10779
ফেট	-10780
বরে	-10781
বাক	-10782
▁ঘু	-10783
▁চু	-10784
▁পণ	-10785
ফতার	-10786
র্ণা	-10787
র্বর	-10788
শব্দ	-10789
েকের	-10790
▁ওরে	-10791
▁ঘুষ	-10792
▁ছাব	-10793
▁দেউ	-10794
▁পিচ	-10795
▁ষোল	-10796
ছাড়াও	-10797
ঞ্চার	-10798
ধিকার	-10799
▁অনিয়	-10800
▁আলাই	-10801
▁আসরে	-10802
▁ইয়া	-10803
▁এসআর	-10804
▁কাচা	-10805
▁কারী	-10806
▁দেবে	-10807
▁পরেও	-10808
▁বহুম	-10809
▁বারি	-10810
▁রানে	-10811
▁লাগল	-10812
▁সদ্য	-10813
▁সুইস	-10814
▁১৮৫৭	-10815
▁১৮৭৬	-10816
ৎপত্তি	-10817
▁ওয়াই	-10818
▁খাম্স	-10819
▁চ্যাট	-10820
▁দিলেই	-10821
▁নয়টি	-10822
▁বেলার	-10823
▁সার্চ	-10824
ব্যবহার	-10825
▁ইন্টেল	-10826
▁খিচুরি	-10827
▁গিয়েছি	-10828
▁গুজরাত	-10829
▁ভাইয়ের	-10830
▁মডেলিং	-10831
▁রবিবার	-10832
▁হত্যার	-10833
▁হেক্টর	-10834
▁উমাইয়া	-10835
▁ক্যালকু	-10836
▁ক্রিসপি	-10837
▁দুপুরের	-10838
▁দৃষ্টিভ	-10839
▁নদীটিতে	-10840
▁বন্দরটি	-10841
▁বাৎসরিক	-10842
▁মাওবাদী	-10843
▁মোতাবেক	-10844
▁লক্ষ্মী	-10845
▁অভিযোজিত	-10846
▁কাউন্টার	-10847
▁দেবনাগরী	-10848
▁নিবন্ধিত	-10849
▁বিদ্রোহী	-10850
▁্যাঙ্কিং	-10851
▁ডিসেম্বরে	-10852
▁প্রজন্মের	-10853
▁বসবাসকারী	-10854
▁বান্দরবান	-10855
▁ব্র্যান্ড	-10856
▁আলজেরিয়ার	-10857
▁প্রতিস্থাপন	-10858
পণ	-10859
রুল	-10860
লিস	-10861
াবহ	-10862
িদা	-10863
১৯৯	-10864
ত্রি	-10865
পাড়	-10866
মানে	-10867
রঙ্গ	-10868
ালীর	-10869
িবির	-10870
োধিক	-10871
ড়েঘর	-10872
▁অবস	-10873
▁আজও	-10874
▁কিস	-10875
▁খোল	-10876
▁গেজ	-10877
▁টোব	-10878
▁তোর	-10879
▁ধর্	-10880
▁ফয়	-10881
▁ল্চ	-10882
▁৬৫০	-10883
ষ্টার	-10884
▁আক্ষ	-10885
▁ইঙ্গ	-10886
▁উদয়	-10887
▁উম্ম	-10888
▁জাভা	-10889
▁নব্য	-10890
▁ফেরত	-10891
▁বসুর	-10892
▁বিয়	-10893
▁মিলন	-10894
▁মেজব	-10895
▁শর্ম	-10896
▁১৮৬৫	-10897
▁১৮৭০	-10898
▁১৮৭৫	-10899
স্টেশন	-10900
▁অ্যাভ	-10901
▁উপায়	-10902
▁ক্ষয়	-10903
▁গেয়ে	-10904
▁ছিলনা	-10905
▁তীক্ষ	-10906
▁নায়ক	-10907
▁যুগ্ম	-10908
▁অদ্ভুত	-10909
▁ততোধিক	-10910
▁বাজেটে	-10911
▁বিয়ের	-10912
▁মহারাজ	-10913
▁রেটিংস	-10914
▁সোমবার	-10915
▁স্পাইস	-10916
▁ক্যাডেট	-10917
▁চুক্তির	-10918
▁দূরত্বে	-10919
▁বিঃদ্রঃ	-10920
▁মুদ্রিত	-10921
▁জ্বালানি	-10922
▁পশ্চিমের	-10923
▁মাধ্যমেই	-10924
▁লাইসেন্স	-10925
▁অর্থনীতির	-10926
▁ওয়ার্ডটি	-10927
▁কাশ্মীরের	-10928
▁মধ্যযুগের	-10929
▁মহাদেশীয়	-10930
▁সংখ্যালঘু	-10931
▁ইউক্রেনীয়	-10932
▁এক্সচেঞ্জে	-10933
▁স্যাটেলাইট	-10934
▁ক্ষেত্রগুলি	-10935
▁দ্বিপাক্ষিক	-10936
▁বন্যপ্রাণীর	-10937
▁মার্ক্সবাদী	-10938
▁রাষ্ট্রপতির	-10939
ঁচা	-10940
ঙের	-10941
ডাক	-10942
নিউ	-10943
▁্য	-10944
গাছা	-10945
থায়	-10946
পথের	-10947
িয়ার	-10948
ৈষ্ঠ	-10949
্টরি	-10950
▁অার	-10951
▁ইনক	-10952
▁জুম	-10953
▁ডাউ	-10954
▁নাং	-10955
▁পলা	-10956
▁বনু	-10957
▁মাঘ	-10958
▁৪টা	-10959
গোত্র	-10960
শ্যাম	-10961
ীতায়	-10962
▁আবাহ	-10963
▁উড়ি	-10964
▁এলিজ	-10965
▁কারা	-10966
▁গুড়	-10967
▁ডাটা	-10968
▁ড্রি	-10969
▁পাঠক	-10970
▁পূরণ	-10971
▁ফরিদ	-10972
▁মহাম	-10973
▁রঙ্গ	-10974
▁সেসব	-10975
▁১২০০	-10976
▁১৮৭২	-10977
▁১৮৮০	-10978
▁২০২৩	-10979
শ্রুতি	-10980
▁আইসোট	-10981
▁এন্টি	-10982
▁এসিসি	-10983
▁নামায	-10984
▁পার্থ	-10985
▁মাসুদ	-10986
▁রানের	-10987
▁শ্বেত	-10988
সংস্থান	-10989
▁অঙ্কিত	-10990
▁উমিয়া	-10991
▁গাওয়া	-10992
▁পৃষ্ঠা	-10993
▁বিকিরণ	-10994
▁বুঝবেন	-10995
▁ভূখণ্ড	-10996
▁মেয়ের	-10997
▁সংযোজন	-10998
▁সবশেষে	-10999
▁সমভূমি	-11000
▁সাইবের	-11001
▁সিটিতে	-11002
তন্ত্রের	-11003
▁অথেনটিক	-11004
▁জাহাঙ্গ	-11005
▁প্রস্তর	-11006
▁মাদ্রিদ	-11007
▁মৌসুমের	-11008
▁সর্বত্র	-11009
▁সুন্দরী	-11010
▁আক্রমণের	-11011
▁বিনিময়ে	-11012
▁বেসরকারী	-11013
▁রিকমেন্ড	-11014
▁খাবারগুলো	-11015
▁মাস্টার্ড	-11016
▁ইসরায়েলের	-11017
▁প্রাণরসায়ন	-11018
▁সর্বাপেক্ষা	-11019
▁প্যারালিম্পিকে	-11020
▁নিউজিল্যান্ডীয়	-11021
ৃণ	-11022
৮৪	-11023
ফাই	-11024
াণী	-11025
েলো	-11026
োলে	-11027
১০০	-11028
একটি	-11029
গণের	-11030
গর্ভ	-11031
ট্টা	-11032
ঠনিক	-11033
র্কে	-11034
িদের	-11035
ূর্ত	-11036
্লাস	-11037
▁আড়	-11038
▁কুচ	-11039
▁খনি	-11040
▁লবন	-11041
▁লেট	-11042
▁১০৭	-11043
▁২জন	-11044
▁৬৪০	-11045
জুড়ে	-11046
তুল্য	-11047
েক্ষে	-11048
্যালি	-11049
▁অভার	-11050
▁আমান	-11051
▁এন্ট	-11052
▁ডোরা	-11053
▁দরজা	-11054
▁বসতে	-11055
▁বারো	-11056
▁বিপণ	-11057
▁সাইন	-11058
▁সারি	-11059
ার্ধের	-11060
▁অনিয়ন	-11061
▁আখতার	-11062
▁আদায়	-11063
▁টাইমস	-11064
▁তালুক	-11065
▁ত্শুল	-11066
▁পল্লী	-11067
▁বইটির	-11068
▁ব্যথা	-11069
▁মিল্ক	-11070
▁শহরকে	-11071
▁স্মিথ	-11072
▁অস্কার	-11073
▁গোয়াল	-11074
▁তাঁদের	-11075
▁দুইটাই	-11076
▁নোবিতা	-11077
▁বারগার	-11078
▁বাহরাই	-11079
▁ভাষাকে	-11080
▁মহাদেব	-11081
▁সংবলিত	-11082
▁সরিষার	-11083
▁সামনেই	-11084
▁হ্যারি	-11085
▁আক্ষরিক	-11086
▁আর্কাইভ	-11087
▁ক্লাসিক	-11088
▁খিচুড়ির	-11089
▁জন্মায়	-11090
▁জ্যৈষ্ঠ	-11091
▁প্রমিলা	-11092
▁বরাবরের	-11093
▁রিজনেবল	-11094
▁শান্তির	-11095
▁সামগ্রী	-11096
▁স্বীকার	-11097
▁হপকিন্স	-11098
▁ইন্ডিয়ান	-11099
▁উপন্যাসে	-11100
▁তীরবর্তী	-11101
▁টেলিভিশনে	-11102
▁প্রচেষ্টা	-11103
▁বিপদগ্রস্ত	-11104
▁সুভাষচন্দ্র	-11105
৬১	-11106
চিব	-11107
দ্জ	-11108
পুং	-11109
মেট	-11110
রির	-11111
▁গন	-11112
▁জং	-11113
▁ডট	-11114
▁বখ	-11115
উচ্চ	-11116
ন্ডল	-11117
পাতা	-11118
ভক্ত	-11119
রিটি	-11120
ারণে	-11121
াহীর	-11122
ুদেব	-11123
্লুক	-11124
▁এপি	-11125
▁ছাদ	-11126
▁জাব	-11127
▁তিম	-11128
▁ভিন	-11129
বুর্গ	-11130
▁ইচ্ছ	-11131
▁উড্ড	-11132
▁গিনি	-11133
▁পরিল	-11134
▁বানি	-11135
▁বেলে	-11136
▁ব্দে	-11137
▁মালা	-11138
▁মুসা	-11139
▁সলিড	-11140
▁হাসি	-11141
▁১৮৮৯	-11142
▁১৮৯৪	-11143
প্রসাদ	-11144
ানিয়া	-11145
িয়নের	-11146
োরেটেড	-11147
▁অন্তঃ	-11148
▁অর্থম	-11149
▁উদ্যো	-11150
▁একটাই	-11151
▁কাতাল	-11152
▁খামার	-11153
▁জঙ্গল	-11154
▁তহবিল	-11155
▁পাতাল	-11156
▁পেস্ট	-11157
▁ফারুক	-11158
▁মৌর্য	-11159
▁রামেন	-11160
▁ল্যাং	-11161
▁সেদিন	-11162
▁অসুস্থ	-11163
▁আউটলেট	-11164
▁আকাশের	-11165
▁গির্জা	-11166
▁টেকনিক	-11167
▁বর্তনী	-11168
▁বস্ত্র	-11169
▁বিএসসি	-11170
▁বিগ্রহ	-11171
▁সালতান	-11172
▁স্পষ্ট	-11173
▁স্বদেশ	-11174
▁আগস্টের	-11175
▁খ্রিম্স	-11176
▁জড়িয়ে	-11177
▁জলদস্যু	-11178
▁প্রথাগত	-11179
▁প্রার্থ	-11180
▁মুজিবুর	-11181
▁শ্রেণির	-11182
▁স্ট্রাই	-11183
▁গোলার্ধে	-11184
▁পারদর্শী	-11185
▁ক্ষেত্রেই	-11186
▁মির্জাপুর	-11187
▁স্ন্যাপার	-11188
▁কলম্বিয়ার	-11189
▁স্মার্টফোন	-11190
▁বিশ্বযুদ্ধে	-11191
▁অ্যান্ড্রয়েড	-11192
▁চ্যাম্পিয়নশিপে	-11193
ভী	-11194
ভো	-11195
াঝ	-11196
েং	-11197
জিক	-11198
টিও	-11199
পিড	-11200
বিস	-11201
্টে	-11202
▁উড	-11203
▁টর	-11204
▁মম	-11205
চালা	-11206
জবেক	-11207
দামঃ	-11208
াজির	-11209
িয়ো	-11210
▁অবজ	-11211
▁কলম	-11212
▁জগৎ	-11213
▁ধূম	-11214
▁বেহ	-11215
▁ভিস	-11216
▁১২৪	-11217
▁২৩০	-11218
ন্ডের	-11219
শ্বাস	-11220
িতীয়	-11221
িনিটি	-11222
▁তুলা	-11223
▁পত্ন	-11224
▁ফর্ম	-11225
▁বাঁক	-11226
▁বামন	-11227
▁ভাইস	-11228
▁সংবি	-11229
▁সময়ে	-11230
▁হরিণ	-11231
টাকাতে	-11232
ডব্লিউ	-11233
ণাত্মক	-11234
সিয়াম	-11235
স্টাইন	-11236
হিতৈষী	-11237
ীয়মান	-11238
▁অনন্ত	-11239
▁আবারও	-11240
▁আর্মি	-11241
▁আশরাফ	-11242
▁কামার	-11243
▁কোরআন	-11244
▁ক্রাই	-11245
▁টপিংস	-11246
▁নমুনা	-11247
▁নিউটন	-11248
▁বসলাম	-11249
▁বহির্	-11250
▁বাঘের	-11251
▁বানান	-11252
▁হিসেব	-11253
িত্যক্ত	-11254
িশিয়াল	-11255
▁অফিসের	-11256
▁কনিষ্ঠ	-11257
▁গল্পের	-11258
▁চালানো	-11259
▁ডেনীয়	-11260
▁থাকবেন	-11261
▁পাক্কি	-11262
▁মসজিদে	-11263
▁শনিবার	-11264
▁শুনেছি	-11265
মন্ত্রীর	-11266
▁ইউনিকোড	-11267
▁তারিখের	-11268
▁নেগেটিভ	-11269
▁ফাল্গুন	-11270
▁মহাত্মা	-11271
▁যাচ্ছিল	-11272
▁রান্নার	-11273
▁শুকিয়ে	-11274
▁সমন্বয়	-11275
▁সুপ্রিম	-11276
▁জ্যামিতি	-11277
▁পরিবহনের	-11278
▁পরিত্যক্ত	-11279
▁পরিলক্ষিত	-11280
▁অ্যানিমেশন	-11281
▁তাপমাত্রার	-11282
▁সমালোচকদের	-11283
▁মেট্রোপলিটন	-11284
▁এক্সপ্রেসওয়ে	-11285
ছো	-11286
পস	-11287
৬৩	-11288
৮৮	-11289
কথা	-11290
নিও	-11291
িকম	-11292
িজি	-11293
ুপি	-11294
▁অই	-11295
▁ডঃ	-11296
▁ডগ	-11297
▁ঢে	-11298
▁তথ	-11299
▁শও	-11300
▁ৎস	-11301
ফাইড	-11302
লপুর	-11303
স্কা	-11304
াগোর	-11305
ারিও	-11306
ার্ধ	-11307
ুপার	-11308
োলাই	-11309
▁এতই	-11310
▁করল	-11311
▁ফুর	-11312
▁ভেজ	-11313
▁রেই	-11314
▁লৌহ	-11315
▁শরণ	-11316
▁হাড়	-11317
▁৩৩০	-11318
সম্মত	-11319
সাম্য	-11320
স্টিং	-11321
▁আঠার	-11322
▁আরবী	-11323
▁ইলিশ	-11324
▁কন্ট	-11325
▁কৌতু	-11326
▁চারি	-11327
▁ধরার	-11328
▁পিয়	-11329
▁বাইন	-11330
▁বানা	-11331
▁সংকট	-11332
▁স্কু	-11333
▁স্বে	-11334
▁১৮৮৩	-11335
▁১৮৯৩	-11336
দক্ষিণ	-11337
োয়ারা	-11338
▁আজীবন	-11339
▁খেয়াল	-11340
▁তদন্ত	-11341
▁তুষার	-11342
▁ব্যুং	-11343
▁মেরিন	-11344
▁শরীয়	-11345
▁হলিউড	-11346
বেষ্টিত	-11347
্লিকেশন	-11348
▁অভ্যুত	-11349
▁ইন্টের	-11350
▁কর্ণেল	-11351
▁গানটির	-11352
▁গোয়ার	-11353
▁তাছাড়া	-11354
▁পার্কে	-11355
▁এলাকাটি	-11356
▁এলিজাবে	-11357
▁ক্লার্ক	-11358
▁জৈনধর্ম	-11359
▁জ্ঞানের	-11360
▁রানার্স	-11361
▁সাদৃশ্য	-11362
▁সিয়েরা	-11363
▁সিরিয়া	-11364
▁হয়েছিলো	-11365
েক্ষেত্রে	-11366
▁এভারেস্ট	-11367
▁গিয়েছিল	-11368
▁প্লেয়ার	-11369
▁বঙ্গাব্দ	-11370
▁সমুদ্রের	-11371
▁জয়পুরহাট	-11372
▁পরিচ্ছন্ন	-11373
▁প্রেক্ষাপ	-11374
▁সীমান্তের	-11375
▁ডেভেলপমেন্ট	-11376
▁মুক্তিযুদ্ধ	-11377
▁অ্যান্টার্কট	-11378
▁প্রক্রিয়ায়	-11379
▁প্রক্রিয়াকরণ	-11380
যা	-11381
ৃশ	-11382
ভিউ	-11383
হাব	-11384
ুলী	-11385
েপণ	-11386
েসে	-11387
োদর	-11388
গতির	-11389
নশীল	-11390
লেশন	-11391
সিতে	-11392
াসিন	-11393
িনাল	-11394
িশীল	-11395
ুদার	-11396
োক্স	-11397
্নান	-11398
▁খোদ	-11399
▁চিট	-11400
▁ছিম	-11401
▁তেই	-11402
▁দরি	-11403
▁দাদ	-11404
▁পদত	-11405
▁পোর	-11406
▁বকর	-11407
▁ভুম	-11408
▁মেগ	-11409
▁রুব	-11410
▁লোড	-11411
ন্টাল	-11412
স্তাদ	-11413
াৎকার	-11414
োত্তর	-11415
▁আমদো	-11416
▁আয়ু	-11417
▁আসছি	-11418
▁এস্ত	-11419
▁ওহাই	-11420
▁করাই	-11421
▁গতির	-11422
▁চাপে	-11423
▁দুঃখ	-11424
▁দেহে	-11425
▁ধারে	-11426
▁পাবো	-11427
▁ফলিত	-11428
▁বড়ো	-11429
▁ভবনে	-11430
▁মুরা	-11431
▁রফিক	-11432
▁শ্রো	-11433
▁সংগে	-11434
▁সন্দ	-11435
▁সরণি	-11436
▁সিডি	-11437
▁সুনি	-11438
▁১৮০০	-11439
▁১৮৮১	-11440
লাভজনক	-11441
ামান্য	-11442
▁অনুভব	-11443
▁অফিসে	-11444
▁আসানস	-11445
▁এরপরে	-11446
▁ক্রয়	-11447
▁খাইলে	-11448
▁গলিতে	-11449
▁চিংড়ি	-11450
▁চিলির	-11451
▁জমিতে	-11452
▁দাবার	-11453
▁পুষ্প	-11454
▁পোষ্ট	-11455
▁বিনাম	-11456
▁ব্যাড	-11457
▁ভাতের	-11458
▁লেগ্স	-11459
▁শ্রাব	-11460
▁সিভিল	-11461
▁সেকশন	-11462
▁সেনেগ	-11463
রাবৃত্ত	-11464
র্দিষ্ট	-11465
িয়েছেন	-11466
▁কমার্স	-11467
▁ত্রিনি	-11468
▁দেখায়	-11469
▁সেগুলি	-11470
▁অপারেশন	-11471
▁উপকূলের	-11472
▁এনওয়াই	-11473
▁জার্নাল	-11474
▁নেওয়ার	-11475
▁বার্কলে	-11476
▁বার্লিন	-11477
▁মোস্তফা	-11478
▁শিক্ষিত	-11479
▁সিনেমার	-11480
▁হাওয়াই	-11481
▁অ্যানিমে	-11482
▁দাঁড়ায়	-11483
▁বিরোধিতা	-11484
▁মহাসাগরে	-11485
▁আইস্ক্রিম	-11486
▁আত্মহত্যা	-11487
▁উত্তরাধিক	-11488
▁ক্রীড়ায়	-11489
▁সমান্তরাল	-11490
▁ব্যুৎপত্তি	-11491
▁উত্তরপ্রদেশ	-11492
▁ধারাবাহিকের	-11493
▁সমুদ্রপৃষ্ঠ	-11494
▁খেতাবপ্রাপ্ত	-11495
▁পুনর্নির্মাণ	-11496
▁মুক্তিযুদ্ধে	-11497
ৈব	-11498
৮২	-11499
নিত	-11500
পাশ	-11501
হুন	-11502
ুবা	-11503
্তে	-11504
▁শৌ	-11505
কেজি	-11506
ধন্য	-11507
াদিন	-11508
ার্ম	-11509
ুরির	-11510
▁উইন	-11511
▁কিব	-11512
▁ভাট	-11513
▁লতি	-11514
▁লিম	-11515
▁ল্য	-11516
▁শরি	-11517
▁১১ই	-11518
▁১১৯	-11519
▁১৫ই	-11520
ত্যের	-11521
ৃদ্ধি	-11522
োনীয়	-11523
▁এডুক	-11524
▁করেও	-11525
▁গ্যু	-11526
▁দানব	-11527
▁শামস	-11528
▁স্যা	-11529
▁১৮৭৭	-11530
চৌধুরী	-11531
নাকারী	-11532
ায়ণের	-11533
িয়ামে	-11534
িয়েছে	-11535
▁অভিনে	-11536
▁ইনস্ট	-11537
▁উজবেক	-11538
▁উপহার	-11539
▁করতেই	-11540
▁কাটার	-11541
▁চলেছে	-11542
▁জামাই	-11543
▁তুলার	-11544
▁পদ্মা	-11545
▁লাগলে	-11546
▁লালচে	-11547
▁লেখেন	-11548
▁শার্ল	-11549
▁সূরার	-11550
নারায়ণ	-11551
োরিয়াল	-11552
▁গোছানো	-11553
▁চালায়	-11554
▁তৃপ্তি	-11555
▁পাখিটি	-11556
▁ফুটবলে	-11557
▁বিহারী	-11558
▁বুলগের	-11559
▁বেগুনি	-11560
▁মল্লিক	-11561
▁মিনিটে	-11562
▁সারণীর	-11563
▁সালমান	-11564
▁অপরাজিত	-11565
▁অলাভজনক	-11566
▁আইসোটোপ	-11567
▁কারিগরী	-11568
▁প্রেমিক	-11569
▁মাপকাঠি	-11570
▁মুদ্রার	-11571
▁ম্যাট্র	-11572
▁সমাপ্তি	-11573
▁সম্মেলন	-11574
▁সুড়ঙ্গ	-11575
▁অভিযানের	-11576
▁উল্লেখিত	-11577
▁কমিউনিটি	-11578
▁ক্ষমতায়	-11579
▁পণ্ডিতের	-11580
▁ভাল্লাগে	-11581
▁রাজবাড়ী	-11582
▁রিপাবলিক	-11583
▁সংগ্রামী	-11584
▁সন্ধ্যার	-11585
▁স্কয়ারের	-11586
▁গুয়াহাটি	-11587
▁পাশ্চাত্য	-11588
▁বুদ্ধিজীব	-11589
▁হিন্দুদের	-11590
▁কোয়ার্টার	-11591
▁ঝাড়খণ্ডের	-11592
▁তামিলনাড়ু	-11593
▁মার্কসবাদী	-11594
▁সাক্ষাৎকার	-11595
▁প্রজাতিটিকে	-11596
▁গ্যাসক্ষেত্র	-11597
▁নেটওয়ার্কের	-11598
ফফ	-11599
৬২	-11600
খাব	-11601
ভীর	-11602
লাউ	-11603
াহা	-11604
ুনে	-11605
েকা	-11606
▁এও	-11607
▁ফৌ	-11608
কত্ব	-11609
ন্টো	-11610
পোশে	-11611
ফায়	-11612
লাভি	-11613
শাহী	-11614
িবের	-11615
ুগড়	-11616
ৃত্ব	-11617
▁চুম	-11618
▁থের	-11619
▁দীন	-11620
▁নিস	-11621
▁পাম	-11622
▁পুঠ	-11623
▁বাচ	-11624
▁ভাঙ	-11625
▁রেন	-11626
▁সমর	-11627
▁১৩৯	-11628
গঙ্গা	-11629
রক্ষক	-11630
শ্রুত	-11631
স্ক্র	-11632
াচ্ছে	-11633
▁ওনার	-11634
▁খুঁজ	-11635
▁গারো	-11636
▁গ্রু	-11637
▁জিনি	-11638
▁দাদা	-11639
▁পালি	-11640
▁ফুলে	-11641
▁বছরই	-11642
▁বাকল	-11643
▁বিহে	-11644
▁রেশম	-11645
▁লীগে	-11646
▁সলিম	-11647
▁১৫টি	-11648
▁১৮৬১	-11649
▁১৮৮৭	-11650
▁২০টি	-11651
স্পরিক	-11652
▁পার্ল	-11653
▁ফেরার	-11654
▁বোনের	-11655
▁মস্তি	-11656
▁রিভিও	-11657
▁শাহের	-11658
▁শ্বাস	-11659
▁হান্ট	-11660
হাম্মাদ	-11661
▁আলিপুর	-11662
▁কামরূপ	-11663
▁ক্রিমি	-11664
▁তথ্যের	-11665
▁তাজমহল	-11666
▁পুরোনো	-11667
▁প্রজ্ঞ	-11668
▁রেপোশে	-11669
▁শুনলাম	-11670
▁সুবাদে	-11671
াহিত্যিক	-11672
▁অ্যাঙ্গ	-11673
▁আলফ্রেড	-11674
▁আসানসোল	-11675
▁ইকোনমিক	-11676
▁কার্তিক	-11677
▁কেনিয়া	-11678
▁তীক্ষ্ণ	-11679
▁পার্বতী	-11680
▁মক্কায়	-11681
▁মুহম্মদ	-11682
▁সম্মানে	-11683
▁স্টেকের	-11684
▁উপত্যকার	-11685
▁নিরপেক্ষ	-11686
▁স্থাপনের	-11687
▁ইউনিয়নটি	-11688
▁ইসরায়েলি	-11689
▁গ্রাফিক্স	-11690
▁টার্মিনাল	-11691
▁তীর্থঙ্কর	-11692
▁পারস্পরিক	-11693
▁রিফ্রেশিং	-11694
▁কম্বোডিয়া	-11695
▁ক্যাপসিকাম	-11696
▁তাপমাত্রায়	-11697
▁মধ্যপ্রাচ্য	-11698
▁চিড়িয়াখানা	-11699
▁প্রতিষ্ঠানটির	-11700
ংরা	-11701
ক্য	-11702
তুক	-11703
বিফ	-11704
▁ইশ	-11705
খানি	-11706
সনের	-11707
ারিন	-11708
িকুল	-11709
▁কিক	-11710
▁কোট	-11711
▁গগন	-11712
▁থুব	-11713
▁পেজ	-11714
▁বাথ	-11715
▁হিপ	-11716
▁৬৯৯	-11717
ন্টিক	-11718
বেলের	-11719
মধ্যে	-11720
মিশ্র	-11721
াগাস্	-11722
াপন্ন	-11723
োর্টে	-11724
▁উভচর	-11725
▁কিংস	-11726
▁কুইন	-11727
▁গোটা	-11728
▁চেইন	-11729
▁জয়ন	-11730
▁ডেনম	-11731
▁ত্শে	-11732
▁দেশী	-11733
▁পুনর	-11734
▁ফটিক	-11735
▁বামে	-11736
▁বিএস	-11737
▁বুকে	-11738
▁মায়ো	-11739
▁মিলি	-11740
▁যাদু	-11741
▁হারে	-11742
▁১৫০০	-11743
▁১৮৬০	-11744
▁১৮৭৮	-11745
কীর্তি	-11746
ভাঙ্গা	-11747
াণ্ডার	-11748
▁ওসমান	-11749
▁ক্রমশ	-11750
▁গেটের	-11751
▁গোস্ব	-11752
▁জগতের	-11753
▁জেতেন	-11754
▁দেখেন	-11755
▁নৌযান	-11756
▁বইয়ে	-11757
▁ভাগের	-11758
▁ভোটার	-11759
▁ভ্রাত	-11760
▁মস্কো	-11761
▁মেনুর	-11762
▁লোকাল	-11763
▁সাগরে	-11764
প্রণালী	-11765
িবর্ত্ম	-11766
▁উদ্দীপ	-11767
▁কন্ট্র	-11768
▁কারণেই	-11769
▁তৃণমূল	-11770
▁নামকরা	-11771
▁পেশায়	-11772
▁প্রসাদ	-11773
▁সমকামী	-11774
▁স্বরূপ	-11775
▁আর্বানা	-11776
▁উত্তরার	-11777
▁কমপক্ষে	-11778
▁করছিলেন	-11779
▁কর্মজীব	-11780
▁চ্যাপ্ট	-11781
▁ফেভারিট	-11782
▁ব্র্ত্স	-11783
▁মারিয়া	-11784
▁মিশিয়ে	-11785
▁মিষ্টির	-11786
▁সমতুল্য	-11787
▁স্বেচ্ছ	-11788
▁উত্তীর্ণ	-11789
▁কাশ্মীরি	-11790
▁ট্রিনিটি	-11791
▁নিয়েছেন	-11792
▁মালিকানা	-11793
▁লিভারপুল	-11794
▁সিরিয়াল	-11795
▁অনুপস্থিত	-11796
▁খ্যাতনামা	-11797
▁পরিকল্পিত	-11798
▁প্রতিবেশী	-11799
▁সংরক্ষণের	-11800
▁আইসল্যান্ড	-11801
▁গিরিবর্ত্ম	-11802
▁পুনরাবৃত্ত	-11803
▁প্রযুক্তির	-11804
▁খেলোয়াড়ের	-11805
ণ্	-11806
য়ন	-11807
চিন	-11808
জনা	-11809
দগা	-11810
ফুর	-11811
ীকে	-11812
কম্প	-11813
কৃতি	-11814
ক্ষু	-11815
জায়	-11816
ব্লো	-11817
িণ্ড	-11818
িপির	-11819
▁অবত	-11820
▁উঠা	-11821
▁চেল	-11822
▁টুল	-11823
▁ডিই	-11824
▁ভাদ	-11825
▁শিষ	-11826
▁শুল	-11827
▁সোড	-11828
▁অরিজ	-11829
▁ইয়ে	-11830
▁উঠতে	-11831
▁ওয়াও	-11832
▁ঘোড়	-11833
▁জহির	-11834
▁ত্শা	-11835
▁হলের	-11836
▁হিরো	-11837
▁হয়না	-11838
াকাণ্ড	-11839
ামাটির	-11840
▁অবরোধ	-11841
▁আড়াই	-11842
▁আবারো	-11843
▁ইয়াক	-11844
▁উড়িষ	-11845
▁কুরাই	-11846
▁দেখলে	-11847
▁নন্দী	-11848
▁পঁচিশ	-11849
▁পাঞ্চ	-11850
▁প্লাট	-11851
▁ফ্রুট	-11852
▁ব্রেড	-11853
▁সহিংস	-11854
▁সাইডে	-11855
▁সেতুর	-11856
▁স্টিক	-11857
বিধানিক	-11858
াসমূহের	-11859
ুয়েলার	-11860
▁কাঞ্চন	-11861
▁খাইলাম	-11862
▁দরিদ্র	-11863
▁বয়সের	-11864
▁মেনুতে	-11865
▁সারিতে	-11866
▁গ্রন্থি	-11867
▁জিনিসটা	-11868
▁জ্যোতিষ	-11869
▁ব্রাউনি	-11870
▁ব্রেস্ট	-11871
▁সঙ্গীতে	-11872
▁সুগন্ধি	-11873
▁অতিবাহিত	-11874
▁বিশেষত্ব	-11875
▁মাতৃভাষা	-11876
▁ক্ষেত্রফল	-11877
▁বর্ণমালার	-11878
▁মহাসড়কের	-11879
▁অ্যালবামের	-11880
▁শিল্পকলায়	-11881
▁সংস্কৃতিতে	-11882
▁সম্প্রসারণ	-11883
▁আগ্নেয়গিরি	-11884
▁অভিনয়শিল্পী	-11885
▁মুষ্টিযোদ্ধা	-11886
▁স্বয়ংক্রিয়	-11887
▁হার্ডওয়্যার	-11888
▁স্কটল্যান্ডীয়	-11889
ট্	-11890
ধু	-11891
কিক	-11892
কোর	-11893
নাস	-11894
লেজ	-11895
ুকি	-11896
ৃহে	-11897
▁ওব	-11898
▁ভয়	-11899
▁রথ	-11900
ংসের	-11901
ব্রত	-11902
রীতি	-11903
সমাজ	-11904
াম্ব	-11905
িক্য	-11906
▁কমই	-11907
▁নেক	-11908
▁বটে	-11909
▁বেত	-11910
▁রেখ	-11911
▁সয়	-11912
▁হোপ	-11913
নাধীন	-11914
ন্টিং	-11915
ফাস্ট	-11916
াব্যব	-11917
ামোটি	-11918
োয়ান	-11919
্যামি	-11920
▁আনতে	-11921
▁উইকি	-11922
▁ক্ষত	-11923
▁ছড়া	-11924
▁জনঘন	-11925
▁তারই	-11926
▁বাগদ	-11927
▁বুঝে	-11928
▁ভাষী	-11929
▁মেধা	-11930
▁মেসে	-11931
▁সমাব	-11932
▁১৮৯১	-11933
▁অরণ্য	-11934
▁কণ্ঠা	-11935
▁কিতাব	-11936
▁খণ্ডে	-11937
▁খানজী	-11938
▁খালিদ	-11939
▁গাঙ্গ	-11940
▁চটপটি	-11941
▁চর্চা	-11942
▁টেরিট	-11943
▁তলায়	-11944
▁নাইটস	-11945
▁পিরাম	-11946
▁ফেরদৌ	-11947
▁বাকের	-11948
▁মথুরা	-11949
▁মারাঠ	-11950
▁মিউনি	-11951
▁মেরুদ	-11952
▁ম্যাথ	-11953
▁রাজীব	-11954
▁রেঞ্জ	-11955
▁লোকজন	-11956
▁হেলিক	-11957
▁খাচ্ছি	-11958
▁চুইঝাল	-11959
▁ডাকনাম	-11960
▁তৈরিতে	-11961
▁নেতাজি	-11962
▁পণ্যের	-11963
▁প্রগতি	-11964
▁বক্তৃত	-11965
▁বাচ্চা	-11966
▁বিহারে	-11967
▁লাগানো	-11968
▁শহরতলি	-11969
▁সূত্রে	-11970
দ্বিতীয়	-11971
ন্সিয়াল	-11972
▁অবলম্বন	-11973
▁জনপ্রিয়	-11974
▁জিয়াউর	-11975
▁প্রিয়া	-11976
▁ফ্রাঙ্ক	-11977
▁ভাইয়ের	-11978
▁মান্নান	-11979
▁অধিকাংশই	-11980
▁আবির্ভাব	-11981
▁দিল্লিতে	-11982
▁প্যারিসে	-11983
▁প্রোটোকল	-11984
▁বাইজেন্ট	-11985
▁বাজারজাত	-11986
▁শিয়ালদহ	-11987
▁সংস্করণে	-11988
▁সার্ভিসঃ	-11989
▁অনুষ্ঠানম	-11990
▁কলম্বিয়া	-11991
▁পদ্মসম্ভব	-11992
▁মেডিক্যাল	-11993
▁ধারাবাহিকে	-11994
▁সাংবিধানিক	-11995
▁ত্রিমাত্রিক	-11996
▁প্রস্তুতিমূলক	-11997
▁স্ট্যান্ডার্ড	-11998
িঝ	-11999
৪৭	-12000
৮৩	-12001
জ্র	-12002
টকি	-12003
ফলে	-12004
বোর	-12005
মুল	-12006
মোচ	-12007
িলী	-12008
্কে	-12009
▁যশ	-12010
▁রব	-12011
মাইল	-12012
রত্ন	-12013
াজাত	-12014
াপিত	-12015
িয়ট	-12016
োজাহ	-12017
▁কীর	-12018
▁জেট	-12019
▁টিউ	-12020
▁ধাঁ	-12021
▁রিল	-12022
▁সিট	-12023
▁হেব	-12024
পালের	-12025
বোর্ড	-12026
মিনিট	-12027
রঞ্জন	-12028
হাবাদ	-12029
াবাদি	-12030
িসেবা	-12031
েইনের	-12032
▁এমএস	-12033
▁এরিক	-12034
▁খাটো	-12035
▁জলপথ	-12036
▁ন্যি	-12037
▁বিকে	-12038
▁মূলক	-12039
▁রোবট	-12040
▁সমাদ	-12041
▁হইতে	-12042
▁হাঁট	-12043
▁হানা	-12044
▁১৮৫০	-12045
গ্রাহক	-12046
্যালোচ	-12047
▁আমাজন	-12048
▁কারাদ	-12049
▁কাস্ত	-12050
▁গুচ্ছ	-12051
▁গুলির	-12052
▁গ্যুর	-12053
▁ডেভিস	-12054
▁দিবেন	-12055
▁ধরণের	-12056
▁বিকেল	-12057
▁ভোকাল	-12058
▁মদিনা	-12059
▁মূর্ত	-12060
▁ম্যার	-12061
▁রিফিল	-12062
▁লিঙ্ক	-12063
▁অনুদান	-12064
▁আবাহনী	-12065
▁গিয়েছে	-12066
▁জুডোকা	-12067
▁ত্রুটি	-12068
▁দর্শনে	-12069
▁ফ্লোরে	-12070
▁বাবুর্	-12071
▁ম্যানু	-12072
▁রহনপুর	-12073
▁সাইক্ল	-12074
▁হাঁসের	-12075
বিদ্যায়	-12076
মাধ্যমিক	-12077
▁অন্তর্ব	-12078
▁ডাক্তার	-12079
▁ধনাত্মক	-12080
▁নির্বাস	-12081
▁পাশ্চিম	-12082
▁লম্বায়	-12083
▁লাভকারী	-12084
▁সিক্রেট	-12085
▁হিসেবেই	-12086
লাভিষিক্ত	-12087
▁অনুপ্রের	-12088
▁কর্মসূচি	-12089
▁তান্দুরী	-12090
▁ফ্যাক্টর	-12091
▁মাদাগাস্	-12092
▁মোটামোটি	-12093
▁সাপেক্ষে	-12094
▁উপস্থাপনা	-12095
▁তারামণ্ডল	-12096
▁রেজিমেন্ট	-12097
▁কেরানীগঞ্জ	-12098
▁ছোটগল্পকার	-12099
▁খ্রিস্টাব্দ	-12100
▁মুহাম্মাদের	-12101
▁অন্ধ্রপ্রদেশের	-12102
নান	-12103
পাক	-12104
ভায়	-12105
মতী	-12106
ালন	-12107
িকর	-12108
েষজ	-12109
ৈরব	-12110
▁গহ	-12111
ফেসর	-12112
র্ষক	-12113
ুমান	-12114
ৃহীত	-12115
োটিক	-12116
▁ইকু	-12117
▁এজে	-12118
▁দাত	-12119
▁নিশ	-12120
▁বুর	-12121
▁ষাট	-12122
▁হির	-12123
▁১৭ই	-12124
উত্তর	-12125
ঙ্কাল	-12126
▁উপাধ	-12127
▁গণ্ড	-12128
▁দ্রে	-12129
▁পেইড	-12130
▁ভেষজ	-12131
▁মানি	-12132
▁রাইড	-12133
▁রাজি	-12134
▁লীলা	-12135
▁হজ্জ	-12136
▁হাজি	-12137
▁হারি	-12138
▁১৮৬৪	-12139
খিলগাও	-12140
স্তম্ভ	-12141
▁কণিকা	-12142
▁করলেন	-12143
▁কাঁটা	-12144
▁গ্নাস	-12145
▁চন্দন	-12146
▁জান্ন	-12147
▁নগরীর	-12148
▁নাগাল	-12149
▁পরিনত	-12150
▁প্রাগ	-12151
▁ফিরোজ	-12152
▁বন্দি	-12153
▁ভাইয়া	-12154
▁মাকড়	-12155
▁মামলা	-12156
▁যোদ্ধ	-12157
▁লেবুর	-12158
▁শুনতে	-12159
▁সিকিম	-12160
মাস্টার	-12161
▁এভিনিউ	-12162
▁কাউন্ট	-12163
▁ছত্রাক	-12164
▁দিয়েছি	-12165
▁বিচারে	-12166
▁সরিয়ে	-12167
ৈজ্ঞানিক	-12168
▁উত্তোলন	-12169
▁ওয়াটার	-12170
▁কুঁড়েঘর	-12171
▁চৌধুরীর	-12172
▁ঢাকাইয়া	-12173
▁নির্বাক	-12174
▁ফুটবলের	-12175
▁মিটারের	-12176
▁উপসাগরের	-12177
▁ছাত্রদের	-12178
▁নুরজাহান	-12179
▁বিভাগীয়	-12180
▁ময়মনসিং	-12181
▁ত্রিনিদাদ	-12182
▁প্রাণিকুল	-12183
▁ফ্লেভারের	-12184
▁সার্বজনীন	-12185
▁অলিম্পিয়া	-12186
▁উত্তরাধিকারী	-12187
▁স্থানীয়ভাবে	-12188
▁স্বায়ত্তশাসিত	-12189
ককী	-12190
তীর	-12191
সংগ	-12192
সকল	-12193
াচন	-12194
িশা	-12195
্পা	-12196
▁কচ	-12197
▁রজ	-12198
ক্ষী	-12199
ঘন্য	-12200
টাইম	-12201
তুলে	-12202
ফলিত	-12203
মর্য	-12204
শাসন	-12205
োন্ন	-12206
▁ইস্	-12207
▁গাব	-12208
▁চোপ	-12209
▁জিব	-12210
▁ধীর	-12211
▁ফিক	-12212
▁শাব	-12213
▁১১৪	-12214
জগতের	-12215
টনায়	-12216
পালিত	-12217
লিঙ্গ	-12218
সমূহে	-12219
▁অম্ল	-12220
▁আসাদ	-12221
▁গেসে	-12222
▁চেখে	-12223
▁বইতে	-12224
▁বামহ	-12225
▁বিভব	-12226
▁মরিশ	-12227
▁মহাশ	-12228
▁রিয়	-12229
▁লিগে	-12230
▁সভার	-12231
▁১৮টি	-12232
▁১৮৩৯	-12233
▁১৮৪৮	-12234
▁১৮৬২	-12235
▁১৮৬৩	-12236
▁৩০শে	-12237
ম্পন্ন	-12238
সবার্গ	-12239
াবাড়ী	-12240
▁ইয়াং	-12241
▁কনভেন	-12242
▁করিনি	-12243
▁ক্যাব	-12244
▁চৈত্র	-12245
▁দুটোই	-12246
▁মৃত্ত	-12247
▁লক্ষণ	-12248
▁লিখতে	-12249
▁সংঘাত	-12250
▁হবেনা	-12251
থেন্টিক	-12252
িয়ারের	-12253
▁অনূদিত	-12254
▁ইউটিউব	-12255
▁এমটিভি	-12256
▁কারখান	-12257
▁খিলাফত	-12258
▁চাঁদের	-12259
▁ছিমছাম	-12260
▁জলঢাকা	-12261
▁জানিনা	-12262
▁নিকোলা	-12263
▁পাইলাম	-12264
▁পাতায়	-12265
▁পেনসিল	-12266
▁রাজপ্র	-12267
▁লেমনেড	-12268
▁সার্কি	-12269
▁উপবিভাগ	-12270
▁কাহিনীর	-12271
▁কয়েকদিন	-12272
▁তাৎপর্য	-12273
▁দ্রেপুং	-12274
▁পিরামিড	-12275
▁পুঠিয়া	-12276
▁রেখেছেন	-12277
▁সংমিশ্র	-12278
▁সৃষ্টির	-12279
▁স্প্রুল	-12280
▁স্মৃতিক	-12281
▁উদ্যানের	-12282
▁উপাত্তের	-12283
▁এলিজাবেথ	-12284
▁কূটনৈতিক	-12285
▁দীর্ঘদিন	-12286
▁পর্তুগাল	-12287
▁উদ্যোক্তা	-12288
▁ক্ষেত্রেও	-12289
▁চ্যানেলের	-12290
▁প্রদেশটির	-12291
▁মার্কেটের	-12292
▁শরীয়তপুর	-12293
▁সন্ন্যাসী	-12294
▁সমাজকর্মী	-12295
▁ইন্ডাস্ট্র	-12296
▁জনসাধারণের	-12297
▁ডেনমার্কের	-12298
▁ধর্মাবলম্ব	-12299
▁সেক্ষেত্রে	-12300
▁পশ্চিমাঞ্চল	-12301
▁বাইজেন্টাইন	-12302
▁সাহিত্যকর্ম	-12303
▁অ্যাথলেটিক্স	-12304
▁স্থলাভিষিক্ত	-12305
ঁস	-12306
ফ্	-12307
কিছ	-12308
খনি	-12309
থ্র	-12310
হরি	-12311
াফা	-12312
▁গড	-12313
ঙ্কে	-12314
থিয়	-12315
য়েই	-12316
ামাক	-12317
ারিজ	-12318
াসেব	-12319
ীকৃত	-12320
ুত্র	-12321
ুবাদ	-12322
্বান	-12323
▁উদয	-12324
▁গণে	-12325
▁ঝিল	-12326
▁দিস	-12327
▁পোপ	-12328
▁ভূত	-12329
▁মুফ	-12330
▁রাও	-12331
▁সনদ	-12332
▁সৌদ	-12333
▁২নং	-12334
ওয়াজ	-12335
দারের	-12336
ধারার	-12337
স্কোর	-12338
স্টিন	-12339
াইল্ড	-12340
িপত্র	-12341
িয়াত	-12342
েক্সট	-12343
▁অব্দ	-12344
▁আলফা	-12345
▁এঞ্জ	-12346
▁ছুটে	-12347
▁জনাব	-12348
▁পরটা	-12349
▁পিসি	-12350
▁বহুব	-12351
▁বোর্	-12352
▁লাওস	-12353
▁সায়	-12354
▁হলোঃ	-12355
▁১৮৪০	-12356
কুমারী	-12357
দেশীয়	-12358
▁অফসেট	-12359
▁আজকাল	-12360
▁ইবনুল	-12361
▁উল্টা	-12362
▁কৌণিক	-12363
▁খাড়া	-12364
▁ঘটায়	-12365
▁চাকমা	-12366
▁চান্দ	-12367
▁চিটাগ	-12368
▁ডাকাত	-12369
▁দাখিল	-12370
▁বিনোদ	-12371
▁রিক্স	-12372
▁স্ন্য	-12373
▁আগ্রহী	-12374
▁কৌতুকা	-12375
▁গুলিতে	-12376
▁ঢালিউড	-12377
▁দাবাড়	-12378
▁নিকোবর	-12379
▁পিয়ের	-12380
▁মার্চে	-12381
▁যেগুলি	-12382
▁সংশোধন	-12383
▁সার্টি	-12384
▁সীতাকু	-12385
▁স্বচ্ছ	-12386
▁হায়দ্র	-12387
শ্রুতিতে	-12388
▁অকাদেমি	-12389
▁অ্যাডভে	-12390
▁ইফতারের	-12391
▁উচ্চতার	-12392
▁গেসিলাম	-12393
▁জনঘনত্ব	-12394
▁পরিসেবা	-12395
▁পরীক্ষণ	-12396
▁পাখিদের	-12397
▁পাবুলাম	-12398
▁প্রাচীর	-12399
▁বহুমুখী	-12400
▁ম্যাসিড	-12401
▁রেলপথের	-12402
▁স্ল্যাম	-12403
▁উচ্চারিত	-12404
▁প্রজেক্ট	-12405
▁ফটিকছড়ি	-12406
▁ভূগোলবিদ	-12407
▁মন্ত্রিস	-12408
▁মেলবোর্ন	-12409
▁সবমিলিয়ে	-12410
▁গিটারবাদক	-12411
▁প্রতিফলিত	-12412
▁প্রান্তিক	-12413
▁স্যান্ডউইচ	-12414
▁অনুষ্ঠিতব্য	-12415
▁খ্রিস্টধর্ম	-12416
▁চুয়াডাঙ্গা	-12417
▁তামিলনাড়ুর	-12418
তস	-12419
৫৫	-12420
৭০	-12421
ভাত	-12422
মোন	-12423
্বু	-12424
▁নট	-12425
▁বণ	-12426
▁মট	-12427
▁রন	-12428
দাতা	-12429
িপার	-12430
ীড়া	-12431
োডাক	-12432
োনের	-12433
▁উচু	-12434
▁দমন	-12435
▁দুম	-12436
▁ফটো	-12437
▁লিচ	-12438
▁১২ই	-12439
নিয়া	-12440
নেচার	-12441
ভিয়ার	-12442
রাবাদ	-12443
শিয়া	-12444
ামারা	-12445
ুষ্পক	-12446
্রিবি	-12447
▁অজৈব	-12448
▁আবেগ	-12449
▁একাই	-12450
▁কপলি	-12451
▁কমতি	-12452
▁খাজা	-12453
▁গোলে	-12454
▁ডকুম	-12455
▁দীঘি	-12456
▁নিচু	-12457
▁পতাক	-12458
▁পনের	-12459
▁পাবে	-12460
▁পড়লো	-12461
▁ভঙ্গ	-12462
▁মোগল	-12463
▁রঞ্জ	-12464
▁শংকর	-12465
▁স্কে	-12466
▁হলেই	-12467
▁১৮৪৭	-12468
▁৩১৬৬	-12469
প্রায়	-12470
যুক্তি	-12471
ারেন্ট	-12472
▁ইয়াস	-12473
▁খাওয়	-12474
▁জঘন্য	-12475
▁পর্যট	-12476
▁প্রবণ	-12477
▁ফারসি	-12478
▁রেখার	-12479
▁ল্হুন	-12480
▁সকলের	-12481
▁স্টোর	-12482
ফ্রেন্ড	-12483
▁এছাড়াও	-12484
▁গুলোতে	-12485
▁ধারণার	-12486
▁নান্না	-12487
▁পড়ানো	-12488
▁পিকচার	-12489
▁বনানীর	-12490
▁বিদ্যু	-12491
▁লোকদের	-12492
▁হ্যায়	-12493
▁অনেকটাই	-12494
▁কূটনীতি	-12495
▁গ্রহাণু	-12496
▁গ্রাহাম	-12497
▁ছদ্মনাম	-12498
▁দিয়েছিল	-12499
▁নির্যাত	-12500
▁পিয়ানো	-12501
▁ফেডারেল	-12502
▁ব্রিটেন	-12503
▁মালভূমি	-12504
▁সবকিছুই	-12505
▁সাঁওতাল	-12506
▁অববাহিকা	-12507
▁গ্র্যামি	-12508
▁চলাকালীন	-12509
▁চ্যানেলে	-12510
▁দিয়েছিল	-12511
▁নভেম্বরে	-12512
▁পরিযায়ী	-12513
▁বাড়িয়ে	-12514
▁অফিশিয়াল	-12515
▁ওশেনিয়ার	-12516
▁চিকিৎসায়	-12517
▁থাকাকালীন	-12518
▁ব্রিটেনের	-12519
▁হসপিটালের	-12520
মোহাম্মদপুর	-12521
▁আব্দুল্লাহ	-12522
▁তীর্থস্থান	-12523
▁পূর্বপুরুষ	-12524
▁বেঙ্গালুরু	-12525
▁রাজত্বকালে	-12526
▁মুম্বাইয়ের	-12527
▁মুষ্টিযুদ্ধ	-12528
▁আইসল্যান্ডের	-12529
▁চলচ্চিত্রটিতে	-12530
▁টুর্নামেন্টের	-12531
▁প্রতিযোগিতাটি	-12532
ক্	-12533
কেন	-12534
রিখ	-12535
শহর	-12536
িলো	-12537
্রে	-12538
কক্ষ	-12539
ট্টি	-12540
দেবী	-12541
নন্দ	-12542
নির্	-12543
ন্নে	-12544
বিএম	-12545
রাইট	-12546
রোচক	-12547
র্তা	-12548
শনাল	-12549
াতেম	-12550
ৈখিক	-12551
োরাস	-12552
্মার	-12553
২০১৬	-12554
▁এরও	-12555
▁তুম	-12556
▁দৈব	-12557
▁নেশ	-12558
▁বদর	-12559
▁বৈধ	-12560
▁লিং	-12561
▁শান	-12562
▁শৈশ	-12563
▁সভা	-12564
▁সোল	-12565
▁১০২	-12566
ঞ্চলে	-12567
নকারী	-12568
রিয়া	-12569
ানীয়	-12570
াবিড়	-12571
িতিতে	-12572
▁অন্ট	-12573
▁আধান	-12574
▁কৃতি	-12575
▁ঘুষি	-12576
▁জারণ	-12577
▁ডিসক	-12578
▁পারা	-12579
▁বুরু	-12580
▁ভরের	-12581
▁ভোটে	-12582
▁মহাজ	-12583
▁শওকত	-12584
▁শিরা	-12585
▁সিলে	-12586
▁১৮৫৮	-12587
▁১৮৬৯	-12588
▁২২শে	-12589
▁২৮শে	-12590
ক্রমিক	-12591
পরিবেশ	-12592
▁আয়ের	-12593
▁এক্সপ	-12594
▁গুলার	-12595
▁গেছেন	-12596
▁তিনিও	-12597
▁ফাগ্স	-12598
▁বাঁকা	-12599
▁বিষুব	-12600
▁বীর্য	-12601
▁ভাড়া	-12602
▁ভোল্ট	-12603
▁মাদার	-12604
▁মার্গ	-12605
▁লেখাপ	-12606
▁সংস্থ	-12607
▁হেজাজ	-12608
খাবারের	-12609
দ্বয়ের	-12610
ভেনিয়া	-12611
র্ণায়ক	-12612
▁ওপেনিং	-12613
▁কার্নে	-12614
▁ক্রমান	-12615
▁গণ্ডার	-12616
▁জাপানী	-12617
▁পাওয়ার	-12618
▁পুরুষে	-12619
▁পেশাগত	-12620
▁ফ্রন্ট	-12621
▁ভেন্যু	-12622
▁লাউঞ্জ	-12623
▁সিপিআই	-12624
▁সুইডিশ	-12625
▁সুপারি	-12626
▁স্টোরে	-12627
▁অপরদিকে	-12628
▁আমিরাতে	-12629
▁করছিলাম	-12630
▁গান্ধীর	-12631
▁গুয়াহা	-12632
▁জাহাজের	-12633
▁পাহাড়ে	-12634
▁পূর্বতন	-12635
▁বন্দরের	-12636
▁বিমানের	-12637
▁ম্যান্ড	-12638
▁রোমাঞ্চ	-12639
▁স্টেশনে	-12640
▁স্ন্যিং	-12641
▁অস্থায়ী	-12642
▁এয়ারলাই	-12643
▁ঝাড়খন্ড	-12644
▁পর্যালোচ	-12645
▁বিশ্বনাথ	-12646
▁মাত্রায়	-12647
▁রসায়নের	-12648
▁সাময়িকী	-12649
▁সিরিয়ার	-12650
▁ইউক্রেনের	-12651
▁ইন্টারফেস	-12652
▁তৃতীয়াংশ	-12653
▁নির্দেশনা	-12654
▁রাস্তাটির	-12655
▁প্রতিযোগিত	-12656
▁ফলশ্রুতিতে	-12657
▁মহাবিশ্বের	-12658
▁১০সার্ভিসঃ	-12659
হহ	-12660
৪৮	-12661
ওহর	-12662
করন	-12663
গেন	-12664
ঝিল	-12665
মুর	-12666
রেল	-12667
হিক	-12668
িদম	-12669
িপথ	-12670
িসহ	-12671
োরো	-12672
▁গম	-12673
ঃসাহ	-12674
আরসি	-12675
ফ্রি	-12676
ানুপ	-12677
ামুল	-12678
িজার	-12679
োট্র	-12680
▁আগর	-12681
▁কোত	-12682
▁গুই	-12683
▁গোঁ	-12684
▁জাই	-12685
▁দাউ	-12686
▁রোপ	-12687
▁লাব	-12688
▁লিউ	-12689
▁হওয়	-12690
▁হুট	-12691
কাবাব	-12692
রেখার	-12693
াবাদী	-12694
ৃতিতে	-12695
্যাপি	-12696
▁অপেশ	-12697
▁আরিফ	-12698
▁ঘণ্ট	-12699
▁ত্বর	-12700
▁দন্ত	-12701
▁দম্প	-12702
▁নর্দ	-12703
▁পিতৃ	-12704
▁পড়বে	-12705
▁বলেও	-12706
▁বাহু	-12707
▁রিলে	-12708
▁সুরে	-12709
▁স্তু	-12710
▁১৮৫৬	-12711
রাঙ্গা	-12712
ায়মান	-12713
িশিষ্ট	-12714
▁অভাবে	-12715
▁আচারি	-12716
▁উইকিম	-12717
▁কলোরা	-12718
▁কাঠাম	-12719
▁কুয়ে	-12720
▁ক্ষার	-12721
▁খুজতে	-12722
▁ট্যুর	-12723
▁পতঙ্গ	-12724
▁পাইথন	-12725
▁পাঠান	-12726
▁মরক্ক	-12727
▁রশ্মি	-12728
▁শিবের	-12729
▁সাপের	-12730
▁সেনের	-12731
▁হিজরী	-12732
ওয়ার্ক	-12733
দ্জোগ্স	-12734
নির্মিত	-12735
▁এরিয়া	-12736
▁করছিলো	-12737
▁ক্ষেপণ	-12738
▁তানজান	-12739
▁দুঃসাহ	-12740
▁নেয়ার	-12741
▁মর্যাদ	-12742
▁মেয়াদ	-12743
▁রাইফেল	-12744
▁অভিযোগে	-12745
▁উত্তরসূ	-12746
▁একাদশের	-12747
▁কাঠবিড়	-12748
▁কোর্টের	-12749
▁ড্রিঙ্ক	-12750
▁নিক্ষেপ	-12751
▁প্রফেসর	-12752
▁প্রোডাক	-12753
▁ফিরিয়ে	-12754
▁বলিউডের	-12755
▁বালিয়া	-12756
▁ব্যাডমি	-12757
▁মন্ত্রক	-12758
▁সপুষ্পক	-12759
▁স্লোভাক	-12760
▁উন্নয়নে	-12761
▁ওয়েলসের	-12762
▁গোস্বামী	-12763
▁ডোরেমনের	-12764
▁পদ্মভূষণ	-12765
▁ফুডকোর্ট	-12766
▁বর্গকিমি	-12767
▁রাজধানীর	-12768
▁লাভারদের	-12769
▁আবিষ্কারক	-12770
▁ইন্টেরিওর	-12771
▁প্রশাসনের	-12772
▁প্লাটফর্ম	-12773
▁যান্ত্রিক	-12774
▁যোগ্যতানি	-12775
▁সর্বকালের	-12776
▁কেমব্রিজের	-12777
▁গবেষণাপত্র	-12778
▁বাস্তবায়ন	-12779
▁রাঙ্গামাটি	-12780
▁শিক্ষাব্যব	-12781
▁হত্যাকাণ্ড	-12782
▁ক্যালসিয়াম	-12783
▁শিক্ষার্থীদের	-12784
▁প্রাণরসায়নবিদ	-12785
উক	-12786
করা	-12787
চেন	-12788
বুব	-12789
রিষ	-12790
ল্য	-12791
ওভার	-12792
টাউন	-12793
ষাঢ়	-12794
াপোল	-12795
াবতী	-12796
্লেস	-12797
▁আইজ	-12798
▁এডি	-12799
▁এরে	-12800
▁টির	-12801
▁নায	-12802
▁যাচ	-12803
▁লিজ	-12804
▁২৯০	-12805
কল্যা	-12806
াণ্ডা	-12807
ীক্ষণ	-12808
ীক্ষা	-12809
▁উলটা	-12810
▁খড়গ	-12811
▁গৌরব	-12812
▁ছিটা	-12813
▁ডেকে	-12814
▁থানে	-12815
▁প্রম	-12816
▁বলাই	-12817
▁লাহি	-12818
▁সহিত	-12819
▁সাউদ	-12820
▁সাধু	-12821
▁সেইম	-12822
▁হিটে	-12823
প্তরের	-12824
মূর্তি	-12825
লম্যান	-12826
সংখ্যক	-12827
ৃঙ্খলা	-12828
▁আত্মা	-12829
▁আসবেন	-12830
▁এটিএম	-12831
▁কুণ্ড	-12832
▁খাইনি	-12833
▁খানিক	-12834
▁গর্ভে	-12835
▁গ্ত্স	-12836
▁ট্রাক	-12837
▁তাজিক	-12838
▁নাবিক	-12839
▁পতনের	-12840
▁পাগলা	-12841
▁প্রবল	-12842
▁ফুসকা	-12843
▁বিচরণ	-12844
▁ভাষ্য	-12845
▁মাঝের	-12846
▁মামুন	-12847
▁মেঘনা	-12848
▁ম্যাট	-12849
▁লিংকঃ	-12850
▁শহুরে	-12851
▁সংলাপ	-12852
▁সঙ্গী	-12853
▁স্টাড	-12854
▁হাতির	-12855
ুতন্ত্র	-12856
▁কোথায়	-12857
▁তাসমান	-12858
▁তিনবার	-12859
▁পুরোটা	-12860
▁ভার্সন	-12861
▁সড়কটি	-12862
▁সিলভার	-12863
▁সুউচ্চ	-12864
▁হাসিনা	-12865
ক্ষেত্রে	-12866
নির্ধারণ	-12867
▁অবজেক্ট	-12868
▁আত্মীয়	-12869
▁আলবার্ট	-12870
▁ইকুয়েড	-12871
▁এডিনবরা	-12872
▁এসোসিয়	-12873
▁ঘূর্ণিঝ	-12874
▁পাপুয়া	-12875
▁পেন্সিল	-12876
▁প্রচারণ	-12877
▁বিজয়ের	-12878
▁বিনামূল	-12879
▁ব্রিগেড	-12880
▁শান্তিন	-12881
▁সংক্রমণ	-12882
▁সদস্যরা	-12883
▁সামলাতে	-12884
▁্যাংকিং	-12885
▁অথেন্টিক	-12886
▁অপেশাদার	-12887
▁তীরন্দাজ	-12888
▁দ্রাবিড়	-12889
▁ধর্মান্ত	-12890
▁নৌবাহিনী	-12891
▁পিকচার্স	-12892
▁প্রবাহের	-12893
▁রাজ্যপাল	-12894
▁সাঁতারের	-12895
▁উপমহাদেশে	-12896
▁খ্রিষ্টান	-12897
▁জ্যামিতিক	-12898
▁পরিভাষায়	-12899
▁বিদ্রোহের	-12900
▁ভারতবর্ষে	-12901
▁ম্ত্শানের	-12902
▁চ্যাম্পিয়	-12903
▁ধানমন্ডিতে	-12904
▁উত্তরাধিকার	-12905
▁সেপ্টেম্বরে	-12906
▁ক্ষেপণাস্ত্র	-12907
▁তুলনামূলকভাবে	-12908
▁মধ্যপ্রাচ্যের	-12909
ডু	-12910
নর	-12911
লং	-12912
জাগ	-12913
বনে	-12914
ুখে	-12915
ৈয়	-12916
▁থে	-12917
খাটো	-12918
গ্না	-12919
ঙ্কট	-12920
পুটি	-12921
াইনে	-12922
িচার	-12923
ীড়ন	-12924
োগান	-12925
য়ারে	-12926
▁আবে	-12927
▁একট	-12928
▁ওমর	-12929
▁খোজ	-12930
▁জনে	-12931
▁জাং	-12932
▁তাব	-12933
▁থিম	-12934
▁দিগ	-12935
▁নদন	-12936
▁পেঁ	-12937
▁রাধ	-12938
▁রোধ	-12939
▁সরে	-12940
▁১০৩	-12941
▁১৪ই	-12942
চ্ছাদ	-12943
ট্রাক	-12944
ভাষিক	-12945
হার্য	-12946
▁আইসি	-12947
▁গাজর	-12948
▁চিকন	-12949
▁জ্যু	-12950
▁থ্রি	-12951
▁নিয়া	-12952
▁পুনে	-12953
▁বহুত	-12954
▁ভেজে	-12955
▁স্কি	-12956
▁স্কো	-12957
▁১৩টি	-12958
ন্টিনে	-12959
ন্দকার	-12960
বাড়ির	-12961
শিয়াল	-12962
িয়েশন	-12963
▁আমলের	-12964
▁আহসান	-12965
▁ইউটিউ	-12966
▁উর্বর	-12967
▁এতটাই	-12968
▁ওয়াস	-12969
▁কাপড়	-12970
▁গিল্ড	-12971
▁ট্রান	-12972
▁তেমনই	-12973
▁নাম্ব	-12974
▁বাফটা	-12975
▁বেঁধে	-12976
▁বেকার	-12977
▁ব্লাক	-12978
▁মোজাম	-12979
▁মৌলের	-12980
▁ম্যাল	-12981
▁শার্ট	-12982
▁শ্রীক	-12983
▁সুদূর	-12984
বৈচিত্র	-12985
শাল্লাহ	-12986
▁ওয়ালি	-12987
▁গার্লস	-12988
▁চিত্রা	-12989
▁টাইগার	-12990
▁ড্রিংস	-12991
▁নভোযান	-12992
▁পাঠদান	-12993
▁পেছনের	-12994
▁বৃত্তি	-12995
▁মিস্টি	-12996
▁রাইসটা	-12997
▁শেখরের	-12998
▁সভ্যতা	-12999
▁সিংহের	-13000
▁নির্মান	-13001
▁পরিগণিত	-13002
▁প্রাঙ্গ	-13003
▁ব্যারাক	-13004
▁ভবিষ্যৎ	-13005
▁ভেলপুরি	-13006
▁মুখরোচক	-13007
▁মেঘালয়	-13008
▁রায়পুর	-13009
▁ডেটাবেজে	-13010
▁বিস্ফোরণ	-13011
▁ব্যবহারে	-13012
▁যাতায়াত	-13013
ভায়রনমেন্ট	-13014
▁আইল্যান্ড	-13015
▁একটিমাত্র	-13016
▁কোয়ালিটি	-13017
▁বর্তমানের	-13018
▁বলবিজ্ঞান	-13019
▁মধ্যমাঠের	-13020
▁র্দ্জোগ্স	-13021
▁শিল্পীদের	-13022
▁আকাশচুম্বী	-13023
▁পত্রিকাটির	-13024
▁প্রেক্ষিতে	-13025
▁নিউক্লিয়াস	-13026
▁বৃহস্পতিবার	-13027
▁উচ্চমাধ্যমিক	-13028
▁কনফেডারেশন্স	-13029
▁রক্ষণাবেক্ষণ	-13030
থর	-13031
ৈক	-13032
ঁচি	-13033
দংশ	-13034
পাঠ	-13035
লায়	-13036
হেন	-13037
ুলু	-13038
োকে	-13039
োমো	-13040
য়েল	-13041
▁ওহ	-13042
চাঁদ	-13043
ড়কে	-13044
দানি	-13045
রাজা	-13046
স্লো	-13047
ানেস	-13048
▁অথচ	-13049
▁উপা	-13050
▁কপূ	-13051
▁ছোঁ	-13052
▁ডুম	-13053
▁ধোঁ	-13054
▁নাদ	-13055
▁নিয়	-13056
▁মৈথ	-13057
▁শিং	-13058
▁শেল	-13059
▁সোশ	-13060
ওয়াক	-13061
গোষ্ঠ	-13062
দ্বার	-13063
শঙ্কর	-13064
য়ারের	-13065
▁অনায়	-13066
▁অপরি	-13067
▁আপেল	-13068
▁আল্প	-13069
▁কফির	-13070
▁কুয়	-13071
▁কুরু	-13072
▁খাবে	-13073
▁গাইড	-13074
▁ছোলা	-13075
▁টিকা	-13076
▁বাতি	-13077
▁মসৃণ	-13078
▁রসিক	-13079
▁লাইক	-13080
▁শরিফ	-13081
▁সিগন	-13082
▁১৮৭৩	-13083
▁১৮৭৯	-13084
োরিয়া	-13085
▁আসামে	-13086
▁কখনোই	-13087
▁কথাটি	-13088
▁কর্ডো	-13089
▁ক্রেও	-13090
▁খয়ের	-13091
▁তালিক	-13092
▁তিনটা	-13093
▁তেতুল	-13094
▁নার্স	-13095
▁নিষেধ	-13096
▁পেপসি	-13097
▁ফিরনী	-13098
▁ফুডের	-13099
▁বিক্ষ	-13100
▁ম্গোন	-13101
▁রোমের	-13102
▁লেবান	-13103
▁সাদাক	-13104
▁সেক্ট	-13105
▁সেলিম	-13106
▁হয়না	-13107
▁হ্যাট	-13108
প্রাণিত	-13109
শ্যামলী	-13110
স্ট্রোক	-13111
▁অঙ্গনে	-13112
▁আর্কিট	-13113
▁ইস্পাত	-13114
▁এগুলোর	-13115
▁কুরাইশ	-13116
▁জেনেভা	-13117
▁ডিলাইট	-13118
▁পাপড়ি	-13119
▁বাঙালী	-13120
▁ভয়াবহ	-13121
▁সজ্জিত	-13122
▁স্থানঃ	-13123
▁স্বনাম	-13124
▁তুলতুলে	-13125
▁দাবাড়ু	-13126
▁দুর্যোগ	-13127
▁পোকামাক	-13128
▁প্রাধান	-13129
▁ফ্রিস্ট	-13130
▁বোম্বাই	-13131
▁ব্যবসার	-13132
▁ভিন্নতা	-13133
▁রহমানের	-13134
▁শিষ্যের	-13135
▁সংগৃহীত	-13136
▁অক্টোবরে	-13137
▁জিজ্ঞাসা	-13138
▁ডকুমেন্ট	-13139
▁দৃষ্টিতে	-13140
▁দ্বন্দ্ব	-13141
▁নির্দেশে	-13142
▁বাঙ্গালী	-13143
▁মহানগরীর	-13144
▁মহেন্দ্র	-13145
▁মূল্যবান	-13146
▁সূত্রপাত	-13147
▁হুমায়ূন	-13148
▁হেলিকপ্ট	-13149
▁একাধিকবার	-13150
▁ক্যান্সার	-13151
▁পাচ্ছিলাম	-13152
▁রাজত্বকাল	-13153
▁টেকনিক্যাল	-13154
▁ব্যাচেলর্স	-13155
▁তত্ত্বাবধানে	-13156
▁বিবেকানন্দের	-13157
ৈল	-13158
কিশ	-13159
খাদ	-13160
ছার	-13161
নিশ	-13162
নীর	-13163
ভিগ	-13164
েলস	-13165
▁ঝি	-13166
▁১ঃ	-13167
ন্ধর	-13168
ভদ্র	-13169
িকেন	-13170
ূন্য	-13171
েনার	-13172
্যিক	-13173
▁অপু	-13174
▁ইনফ	-13175
▁কুত	-13176
▁দৌড়	-13177
▁বর্	-13178
▁বোট	-13179
▁লখন	-13180
▁ষ্ট	-13181
বেস্ট	-13182
স্টের	-13183
▁অমান	-13184
▁আটকে	-13185
▁এটিও	-13186
▁ওল্ড	-13187
▁খরচে	-13188
▁ঘাড়	-13189
▁চাচ্	-13190
▁জিরা	-13191
▁জুরি	-13192
▁টেইল	-13193
▁ডুবে	-13194
▁ধরতে	-13195
▁পাতি	-13196
▁পেইজ	-13197
▁ভ্রূ	-13198
▁মেলন	-13199
▁ললিপ	-13200
▁১৮৩১	-13201
নিকেশন	-13202
ষ্টায়	-13203
ায়নের	-13204
▁অঙ্কন	-13205
▁আষাঢ়	-13206
▁এটাতে	-13207
▁ওয়াজ	-13208
▁কাচের	-13209
▁ক্রেম	-13210
▁গিবসন	-13211
▁দেশটি	-13212
▁বিরতি	-13213
▁ব্রুক	-13214
▁ভগ্না	-13215
▁ভাবেই	-13216
▁সিয়া	-13217
াসিয়াম	-13218
িয়ানের	-13219
▁অনার্স	-13220
▁আড্ডার	-13221
▁উপলব্ধ	-13222
▁করিয়ে	-13223
▁কাগ্যু	-13224
▁গাড়ির	-13225
▁চামড়া	-13226
▁জানায়	-13227
▁ঠাণ্ডা	-13228
▁পদমর্য	-13229
▁পরিসরে	-13230
▁প্রতাপ	-13231
▁বইটিতে	-13232
▁বায়ুম	-13233
▁বিহারি	-13234
▁সমাবেশ	-13235
মিরপুরের	-13236
▁অঞ্চলকে	-13237
▁অ্যাডাম	-13238
▁জান্নাত	-13239
▁জ্যামাই	-13240
▁ঝালকাঠি	-13241
▁ত্রিভুজ	-13242
▁দারিদ্র	-13243
▁দিবালোক	-13244
▁প্রাইজঃ	-13245
▁প্রাইসে	-13246
▁বার্থডে	-13247
▁বিষয়টি	-13248
▁মুহূর্ত	-13249
▁মেম্বার	-13250
▁যাদেরকে	-13251
▁সিলেটের	-13252
▁সুবিধার	-13253
▁স্মোকিং	-13254
▁ইসরায়েল	-13255
▁গুয়াতেম	-13256
▁তালুকদার	-13257
▁পেশাদারি	-13258
▁প্রসঙ্গে	-13259
▁ব্যাংকটি	-13260
▁মেহেরপুর	-13261
▁উপদ্বীপের	-13262
▁ওয়ার্নার	-13263
▁জাহাঙ্গীর	-13264
▁টেলিগ্রাফ	-13265
▁দেখেছিলাম	-13266
▁ফ্রেন্ডের	-13267
▁বাণিজ্যের	-13268
▁বিষ্ণুপুর	-13269
▁বৈচিত্র্য	-13270
▁ভাষাগুলির	-13271
▁লিঙ্গানুপ	-13272
▁শরৎচন্দ্র	-13273
▁স্বায়ত্ব	-13274
▁ইন্টেরিয়র	-13275
▁তাইওয়ানের	-13276
▁মানবাধিকার	-13277
▁কর্তৃপক্ষের	-13278
▁জাতীয়তাবাদ	-13279
▁জ্যোতির্বিদ	-13280
▁ধর্মান্তরিত	-13281
▁নাজিরাবাজার	-13282
▁ব্যাডমিন্টন	-13283
▁সমাজতন্ত্রী	-13284
▁উত্তরাঞ্চলের	-13285
ৌধ	-13286
জায়	-13287
টাশ	-13288
বিএ	-13289
লতা	-13290
িকল	-13291
িতো	-13292
েটস	-13293
োজক	-13294
ঁতুল	-13295
ককীট	-13296
চলের	-13297
দ্ধা	-13298
য়াস	-13299
র্তন	-13300
লানা	-13301
ল্লি	-13302
সবুজ	-13303
সরাই	-13304
াশ্ম	-13305
িকাঠ	-13306
▁আপু	-13307
▁উইস	-13308
▁কিঃ	-13309
▁খাশ	-13310
▁খিদ	-13311
▁গমন	-13312
▁ঝোপ	-13313
▁পঠন	-13314
▁বরণ	-13315
▁বুদ	-13316
▁মরণ	-13317
▁যোর	-13318
▁সরণ	-13319
▁১৮ই	-13320
গার্ড	-13321
ন্দার	-13322
য়ালী	-13323
র্সের	-13324
লাইনে	-13325
াইলের	-13326
▁অলিভ	-13327
▁উড়ে	-13328
▁ছাপা	-13329
▁দাওয়	-13330
▁ভুবন	-13331
▁মহাপ	-13332
▁মুকু	-13333
▁মেইল	-13334
▁লুফে	-13335
▁১৮৫৯	-13336
াগারের	-13337
▁অনিয়	-13338
▁অস্থি	-13339
▁জরুরি	-13340
▁ডালের	-13341
▁ধানের	-13342
▁নিরাশ	-13343
▁নুরুল	-13344
▁পেলেও	-13345
▁ফেলতে	-13346
▁বার্ব	-13347
▁মেন্ড	-13348
▁মোকাব	-13349
▁রাহুল	-13350
▁শিশুর	-13351
▁সময়ের	-13352
▁সুদান	-13353
▁সুস্থ	-13354
▁সেটাই	-13355
▁সেটার	-13356
▁সেবার	-13357
▁সোহেল	-13358
▁স্টোন	-13359
▁স্যান	-13360
▁হৃদয়	-13361
ওয়ার্থ	-13362
প্রাচীন	-13363
স্থায়ী	-13364
ান্তরের	-13365
▁অপরাধী	-13366
▁ইয়াহু	-13367
▁ইসমাইল	-13368
▁এককথায়	-13369
▁ক্রেওল	-13370
▁খেলাটি	-13371
▁গোলাপি	-13372
▁চলতেছে	-13373
▁জিলাপি	-13374
▁তিস্তা	-13375
▁পালনের	-13376
▁ফরেস্ট	-13377
▁বাইবেল	-13378
▁বানিয়ে	-13379
▁ব্রাজি	-13380
▁লেখকের	-13381
▁শাস্তি	-13382
মণ্ডলীয়	-13383
▁অধিনায়	-13384
▁উৎক্ষেপ	-13385
▁করেছিলো	-13386
▁খ্রীস্ট	-13387
▁গিয়েছিল	-13388
▁গ্লোবাল	-13389
▁ছবিটিতে	-13390
▁জীবাশ্ম	-13391
▁ত্রিশূর	-13392
▁দাঁড়িয়ে	-13393
▁নরওয়ের	-13394
▁প্যানেল	-13395
▁প্রেমের	-13396
▁বড়ুয়া	-13397
▁ভগ্নাংশ	-13398
▁ভাল্লুক	-13399
▁মহাসচিব	-13400
▁মেজবানি	-13401
▁রামায়ণ	-13402
▁শিক্ষাব	-13403
▁সারাদিন	-13404
▁সোশ্যাল	-13405
▁স্কয়ারে	-13406
▁অর্ডারের	-13407
▁খিলাফতের	-13408
▁পক্ষীবিদ	-13409
▁প্রবেশের	-13410
▁ফ্লোরিডা	-13411
▁ব্যাকটের	-13412
▁ব্রাউজার	-13413
▁ভালোভাবে	-13414
▁মধ্যভাগে	-13415
▁সমাধিস্থ	-13416
▁সাউদার্ন	-13417
▁সালতানাত	-13418
▁উত্তরাংশে	-13419
▁দেশসমূহের	-13420
▁প্রতিবন্ধ	-13421
▁সংস্করণের	-13422
▁ইউরোপিয়ান	-13423
▁তাপবিদ্যুৎ	-13424
▁ফ্রিস্টাইল	-13425
▁স্যান্ডুইচ	-13426
▁নিয়ন্ত্রণে	-13427
▁প্রজাতিসমূহ	-13428
▁শ্রীলঙ্কায়	-13429
▁অন্ধ্রপ্রদেশ	-13430
ওস	-13431
ঞা	-13432
কোন	-13433
চর্	-13434
ফাল	-13435
মতি	-13436
রুপ	-13437
হাদ	-13438
াফি	-13439
১৫০	-13440
ন্দী	-13441
বারি	-13442
ম্বল	-13443
োড়া	-13444
▁আছি	-13445
▁এমএ	-13446
▁কলি	-13447
▁গ্ঝ	-13448
▁নিব	-13449
▁পাঁ	-13450
▁বদল	-13451
▁বরু	-13452
▁ভীম	-13453
▁সতী	-13454
▁সেচ	-13455
▁১৩শ	-13456
কান্ত	-13457
ছামতি	-13458
ভূমিক	-13459
লারের	-13460
ালায়	-13461
াস্তা	-13462
িউসের	-13463
িতপুর	-13464
্যাকে	-13465
▁অজয়	-13466
▁কলার	-13467
▁গুটি	-13468
▁গেসি	-13469
▁চুরি	-13470
▁তারক	-13471
▁দেরী	-13472
▁ধারক	-13473
▁নাসা	-13474
▁নিকে	-13475
▁ফোর্	-13476
▁বারা	-13477
▁বাহক	-13478
▁শিলি	-13479
োজাহাজ	-13480
্যাগের	-13481
▁আইপিএ	-13482
▁আফতাব	-13483
▁আর্টি	-13484
▁আসছিল	-13485
▁ইঁদুর	-13486
▁এইচডি	-13487
▁ওহাইও	-13488
▁খেয়েই	-13489
▁জয়ের	-13490
▁জলীয়	-13491
▁জেরুস	-13492
▁ঝুঁকি	-13493
▁ডিব্র	-13494
▁তাম্র	-13495
▁তেহার	-13496
▁দরবার	-13497
▁পেরুর	-13498
▁বানায়	-13499
▁ব্রাদ	-13500
▁মূখ্য	-13501
▁যাচাই	-13502
▁রিনপো	-13503
▁রুদ্র	-13504
▁লাগতো	-13505
▁শাকিব	-13506
▁শ্রীন	-13507
দুল্লাহ	-13508
▁আইটেমে	-13509
▁আলমগীর	-13510
▁একীভূত	-13511
▁গ্রিলড	-13512
▁চেহারা	-13513
▁চোপড়া	-13514
▁ছিলোনা	-13515
▁দিয়েই	-13516
▁দীক্ষা	-13517
▁দেখলেই	-13518
▁দেবতার	-13519
▁ফিউচার	-13520
▁ফুচকার	-13521
▁বন্যার	-13522
▁ভাইরাস	-13523
▁মধ্যেঃ	-13524
▁মহল্লা	-13525
▁লেখালে	-13526
▁সঞ্জয়	-13527
▁সান্তা	-13528
▁সারাংশ	-13529
তত্ত্বের	-13530
▁কাটিয়ে	-13531
▁কিয়দংশ	-13532
▁প্লাবিত	-13533
▁বিএনপির	-13534
▁ভালবাসা	-13535
▁মহারাজা	-13536
▁মাধবপুর	-13537
▁মিলানের	-13538
▁রাস্তায়	-13539
প্রযুক্তি	-13540
শাস্ত্রের	-13541
্যাজুয়েট	-13542
▁কার্নেগী	-13543
▁গৃহপালিত	-13544
▁টেরিটোরি	-13545
▁পড়াশুনা	-13546
▁পিজ্জাতে	-13547
▁প্রতিবেদ	-13548
▁ভাবছিলাম	-13549
▁যাচ্ছিলো	-13550
▁সিদ্দিকী	-13551
▁সুস্পষ্ট	-13552
▁উদ্ভিদকুল	-13553
▁টাকারেটিং	-13554
▁টীকাভাষ্য	-13555
▁পোকামাকড়	-13556
▁বাকেরগঞ্জ	-13557
▁ম্যাজিস্ট	-13558
▁ড্যানিয়েল	-13559
▁ফেডারেশনের	-13560
▁মালদ্বীপের	-13561
▁পদ্মসম্ভবের	-13562
▁ম্যাগাজিনের	-13563
▁ধ্বনিবিজ্ঞান	-13564
▁নেটওয়ার্কিং	-13565
▁সম্পর্কযুক্ত	-13566
▁প্রতিযোগীতায়	-13567
▁প্রধানমন্ত্রীর	-13568
▁শিক্ষাব্যবস্থা	-13569
প্	-13570
ৈধ	-13571
উইক	-13572
উইল	-13573
কেক	-13574
গাস	-13575
নীল	-13576
বোন	-13577
ল্ড	-13578
▁৫ই	-13579
তনিক	-13580
নগরী	-13581
বর্ম	-13582
বিধি	-13583
ভিতে	-13584
যুগে	-13585
র্পণ	-13586
াজ্জ	-13587
িচের	-13588
িমাণ	-13589
ড়িয়া	-13590
▁আঁশ	-13591
▁আশু	-13592
▁উইং	-13593
▁এথে	-13594
▁গলে	-13595
▁গাউ	-13596
▁ডিক	-13597
▁থিক	-13598
▁নিঃ	-13599
▁পরও	-13600
▁পরো	-13601
▁পায়	-13602
▁মচম	-13603
▁মাউ	-13604
▁১৪শ	-13605
▁১৬ই	-13606
▁৩নং	-13607
সঙ্গে	-13608
িটারি	-13609
ীমাংস	-13610
োপটেম	-13611
▁আত্র	-13612
▁আর্গ	-13613
▁উদার	-13614
▁ওমান	-13615
▁কারু	-13616
▁চিঠি	-13617
▁জনসন	-13618
▁জায়গ	-13619
▁জিভে	-13620
▁দন্ড	-13621
▁দ্রঃ	-13622
▁পপুল	-13623
▁পাড়	-13624
▁ফুটে	-13625
▁বেড়ে	-13626
▁রুয়	-13627
▁হতেই	-13628
▁১৮৩২	-13629
▁২১শে	-13630
▁২৬শে	-13631
আল্লাহ	-13632
গরিষ্ঠ	-13633
ঠিকানা	-13634
ন্দেহে	-13635
বস্তুর	-13636
শ্চর্য	-13637
শ্বরের	-13638
িস্ট্র	-13639
▁অবতরণ	-13640
▁করাকে	-13641
▁কালিক	-13642
▁কুসুম	-13643
▁কোষের	-13644
▁গ্তের	-13645
▁গ্রীল	-13646
▁চতুর্	-13647
▁চৌদ্দ	-13648
▁ছিদ্র	-13649
▁জামান	-13650
▁তাইলে	-13651
▁নীতির	-13652
▁পাবার	-13653
▁পাম্প	-13654
▁ফোর্স	-13655
▁বর্ষা	-13656
▁বাড়ী	-13657
▁বিলাস	-13658
▁মৌজার	-13659
▁রাইসব	-13660
▁ললিপপ	-13661
▁সারির	-13662
▁৩জনের	-13663
▁আদিবাস	-13664
▁ওস্তাদ	-13665
▁কমিক্স	-13666
▁গারলিক	-13667
▁টাইটান	-13668
▁তুলেছে	-13669
▁পরিমিত	-13670
▁পাচ্ছে	-13671
▁পুনর্গ	-13672
▁প্রচ্ছ	-13673
▁মুদ্রণ	-13674
▁মেমোরি	-13675
▁রঘুনাথ	-13676
▁সন্তোষ	-13677
▁সুইডেন	-13678
▁হাজারী	-13679
ব্যবস্থা	-13680
▁আলোচনার	-13681
▁উৎপাদনে	-13682
▁গ্রামটি	-13683
▁চলাকালে	-13684
▁চারদিকে	-13685
▁টেলিফোন	-13686
▁ডেমোক্র	-13687
▁দ্বিতীয়	-13688
▁নামাজের	-13689
▁পরমাণুর	-13690
▁পেরিয়ে	-13691
▁ফ্রেন্স	-13692
▁বেশকিছু	-13693
▁মাদ্রাজ	-13694
▁স্বাদটা	-13695
▁অ্যাপোলো	-13696
▁ট্যাবলেট	-13697
▁নথিভুক্ত	-13698
▁পরিদর্শন	-13699
▁পরিবেশিত	-13700
▁ভাষাভাষী	-13701
▁সম্মেলনে	-13702
▁আর্মেনীয়	-13703
▁টাকাস্বাদ	-13704
▁প্রার্থনা	-13705
▁লিখেছিলেন	-13706
▁স্থলবন্দর	-13707
▁অনুপ্রাণিত	-13708
▁ডিস্ট্রিবি	-13709
▁পূর্বাঞ্চল	-13710
▁ব্রোঞ্জপদক	-13711
▁ভারপ্রাপ্ত	-13712
▁মেমোরিয়াল	-13713
▁স্থাপত্যের	-13714
▁পিজ্জাবার্গ	-13715
▁বৈশিষ্ট্যের	-13716
▁অ্যাডওয়ার্ড	-13717
▁বাণিজ্যিকভাবে	-13718
▁বিদ্যালয়টিতে	-13719
ফস	-13720
ব্	-13721
ষন	-13722
ীট	-13723
ীঠ	-13724
ৃক	-13725
্ভ	-13726
চাক	-13727
টুস	-13728
ব্ল	-13729
ভাদ	-13730
হেম	-13731
ালগ	-13732
িফট	-13733
েষে	-13734
েসন	-13735
ড়ার	-13736
▁৯ই	-13737
জিতে	-13738
নতুন	-13739
ফটের	-13740
য়েট	-13741
রাজী	-13742
সীমা	-13743
স্তর	-13744
াদাম	-13745
ালাই	-13746
োত্র	-13747
োলের	-13748
্লাদ	-13749
▁অসহ	-13750
▁আকর	-13751
▁ইমে	-13752
▁উৎক	-13753
▁খুশ	-13754
▁চড়	-13755
▁চিশ	-13756
▁নোর	-13757
▁পাচ	-13758
▁পুদ	-13759
▁বুম	-13760
▁রতন	-13761
▁১০৮	-13762
▁১২শ	-13763
▁১৫শ	-13764
গুচ্ছ	-13765
িনালা	-13766
ীবর্দ	-13767
▁অত্র	-13768
▁আদির	-13769
▁চৌরা	-13770
▁জওহর	-13771
▁দৃঢ়	-13772
▁নর্ম	-13773
▁নেতৃ	-13774
▁পাইপ	-13775
▁ভৈরব	-13776
▁মন্ট	-13777
▁যজ্ঞ	-13778
▁লোগো	-13779
▁শীতে	-13780
▁শোনা	-13781
ংকারিক	-13782
তামূলক	-13783
পজিটিভ	-13784
সাইক্ল	-13785
িয়ালা	-13786
্যাটিক	-13787
▁উড়তে	-13788
▁এ্যাল	-13789
▁কাজেই	-13790
▁কান্দ	-13791
▁কৌতুক	-13792
▁খাইছি	-13793
▁ডোমিন	-13794
▁তৈরীর	-13795
▁পায়ে	-13796
▁পারবো	-13797
▁পোলিশ	-13798
▁ফোরাম	-13799
▁বাইটে	-13800
▁ভগবান	-13801
▁মণ্ডল	-13802
▁মোহাম	-13803
▁রমজান	-13804
▁শুকনা	-13805
▁সংস্প	-13806
▁সাথের	-13807
▁সাহিব	-13808
▁স্কাই	-13809
▁হাশিম	-13810
বিশ্বাস	-13811
ায়িত্ব	-13812
▁অভাবের	-13813
▁এগুলির	-13814
▁এভাবেই	-13815
▁এ্যাকা	-13816
▁গায়ের	-13817
▁চিকেনে	-13818
▁জলাশয়	-13819
▁জেলাটি	-13820
▁ডেপুটি	-13821
▁ঢুকতেই	-13822
▁প্রায়ই	-13823
▁প্লেইন	-13824
▁ফিল্মস	-13825
▁ফ্লাইট	-13826
▁বর্ধিত	-13827
▁মহিলার	-13828
▁স্মরণে	-13829
▁হওয়াতে	-13830
▁১০দামঃ	-13831
স্ক্রিয়	-13832
▁আলাইকুম	-13833
▁উড্ডয়ন	-13834
▁কাজকর্ম	-13835
▁জলাভূমি	-13836
▁পুত্রের	-13837
▁ফুটিয়ে	-13838
▁বিনিময়	-13839
▁বীজগণিত	-13840
▁মিশ্রিত	-13841
▁যাত্রীব	-13842
▁শাসনকাল	-13843
▁শ্রেনীর	-13844
▁সফরকারী	-13845
▁সিমেন্ট	-13846
▁স্টাডিজ	-13847
▁স্টিফেন	-13848
▁স্বামীর	-13849
▁অভ্যন্তর	-13850
▁আলংকারিক	-13851
▁এলাহাবাদ	-13852
▁কারাদণ্ড	-13853
▁গ্যালারী	-13854
▁চ্যাপ্টা	-13855
▁পেস্ট্রি	-13856
▁পৌরসভাটি	-13857
▁পৌরসভায়	-13858
▁মুদ্রায়	-13859
▁সন্ধ্যায়	-13860
▁সম্রাটের	-13861
▁সাদাকালো	-13862
▁অ্যাভিনিউ	-13863
▁উত্তরবঙ্গ	-13864
▁থিয়েটারে	-13865
▁নিউইয়র্ক	-13866
▁প্রকৌশলের	-13867
▁প্রয়োজনে	-13868
▁ব্যাঙ্গাল	-13869
▁ভাল্লাগছে	-13870
▁মিয়ানমার	-13871
▁শিবমন্দির	-13872
▁ষড়যন্ত্র	-13873
▁সার্টিফিক	-13874
▁অ্যাথলেটিক	-13875
▁নিয়ন্ত্রক	-13876
▁নিয়েছিলামঃ	-13877
▁বুদ্ধিজীবী	-13878
▁সৃষ্টিকর্ম	-13879
▁ইউনিভার্সাল	-13880
▁ময়মনসিংহের	-13881
▁সুনির্দিষ্ট	-13882
▁অনুষ্ঠানমালা	-13883
▁মেট্রোপলিটান	-13884
▁সেনাবাহিনীতে	-13885
▁চ্যাম্পিয়ন্স	-13886
▁আন্তর্জাতিকভাবে	-13887
▁কুইন্সল্যান্ডের	-13888
েঁ	-13889
ওয়ে	-13890
চিং	-13891
ছোট	-13892
ড়ো	-13893
তুপ	-13894
দাগ	-13895
রমা	-13896
লেম	-13897
হিদ	-13898
ুদে	-13899
োচন	-13900
য়াস	-13901
▁আঘ	-13902
▁কদ	-13903
▁টল	-13904
▁নথ	-13905
▁ভন	-13906
▁যু	-13907
ভানা	-13908
ম্বর	-13909
যারা	-13910
হাটা	-13911
িল্ম	-13912
ুঞ্জ	-13913
▁আনে	-13914
▁আভি	-13915
▁ইলা	-13916
▁কনস	-13917
▁কবে	-13918
▁জেড	-13919
▁তিউ	-13920
▁থাম	-13921
▁ধুম	-13922
▁নেম	-13923
▁নেয়	-13924
▁ফোঁ	-13925
▁মেজ	-13926
▁শসা	-13927
▁সৈক	-13928
▁২রা	-13929
টেন্ট	-13930
ঢাকার	-13931
পুকুর	-13932
সিয়া	-13933
াবাইট	-13934
ামপুর	-13935
▁আবরণ	-13936
▁ইনোভ	-13937
▁ইয়াম	-13938
▁কেনে	-13939
▁গড়া	-13940
▁ডিউক	-13941
▁ত্সা	-13942
▁দ্রব	-13943
▁বংশব	-13944
▁মহায	-13945
▁মহাল	-13946
▁মাইক	-13947
▁মাখন	-13948
▁মিডল	-13949
▁মিয়া	-13950
▁মেগা	-13951
▁শাহি	-13952
▁হরেক	-13953
▁হেরে	-13954
▁১৮৩০	-13955
▁১৮৩৭	-13956
▁১৮৬৭	-13957
▁১৮৬৮	-13958
▁২৩শে	-13959
▁২৭শে	-13960
▁৩০টি	-13961
কম্পিউ	-13962
গঞ্জের	-13963
হাজারী	-13964
িয়ালি	-13965
েম্বার	-13966
োমেন্ড	-13967
▁আবাসন	-13968
▁ইয়ান	-13969
▁উড়াল	-13970
▁ওপরের	-13971
▁ওয়াক	-13972
▁কপূরথ	-13973
▁করানো	-13974
▁খ্যিল	-13975
▁গ্যাং	-13976
▁টেম্প	-13977
▁ট্যাগ	-13978
▁দামটা	-13979
▁দেখান	-13980
▁দোতলা	-13981
▁দ্বিম	-13982
▁নিখিল	-13983
▁পত্নী	-13984
▁বিরাজ	-13985
▁ব্রাং	-13986
▁ব্লকে	-13987
▁সস্তা	-13988
▁সুন্ন	-13989
▁হাকিম	-13990
ায়ারের	-13991
ুয়ার্ট	-13992
▁উপায়ে	-13993
▁খাবারই	-13994
▁খালেদা	-13995
▁চিংড়ি	-13996
▁জয়ন্ত	-13997
▁জেলাকে	-13998
▁টিস্যু	-13999
▁ড্রাগন	-14000
▁পঞ্চাশ	-14001
▁বক্সার	-14002
▁বিকেলে	-14003
▁বিদেশে	-14004
▁বুধবার	-14005
▁মিশেছে	-14006
▁মৌসুমী	-14007
▁সামন্ত	-14008
ান্ডারের	-14009
োপিডিয়া	-14010
▁অভিযানে	-14011
▁এডুকেশন	-14012
▁ওয়াল্ট	-14013
▁কাঁকড়া	-14014
▁গ্যালিস	-14015
▁গ্রান্ড	-14016
▁জ্যোতিঃ	-14017
▁নিবন্ধে	-14018
▁পদক্ষেপ	-14019
▁ফলাফলের	-14020
▁বার্মার	-14021
▁বিদ্যাস	-14022
▁মামলায়	-14023
▁মেয়াদী	-14024
▁রিনপোছে	-14025
▁স্পিকার	-14026
▁১০০টাকা	-14027
▁২০০টাকা	-14028
▁অনুচ্ছেদ	-14029
▁আয়ুর্বে	-14030
▁ইসলামপুর	-14031
▁কয়েকবার	-14032
▁করপোরেশন	-14033
▁কর্পোরেট	-14034
▁কাঠমান্ড	-14035
▁কিছুক্ষন	-14036
▁ডেনমার্ক	-14037
▁পরিবেশনা	-14038
▁ব্যস্ততম	-14039
▁ভবিষ্যতে	-14040
▁মৃত্তিকা	-14041
▁মেয়েদের	-14042
▁লড়াইয়ে	-14043
▁স্কোয়াড	-14044
▁উরুগুয়ের	-14045
▁পরিস্থিতি	-14046
▁প্রতিকৃতি	-14047
▁বাচ্চাদের	-14048
▁মোহাম্মাদ	-14049
▁রাশিয়ায়	-14050
▁উৎপাদনকারী	-14051
▁বিনোদনমূলক	-14052
▁ক্ষতিগ্রস্ত	-14053
▁জনপ্রতিনিধি	-14054
▁প্রযুক্তিগত	-14055
▁প্রোগ্রামার	-14056
▁স্বেচ্ছাসেব	-14057
▁সংখ্যাগরিষ্ঠ	-14058
▁গঙ্গোপাধ্যায়	-14059
▁ভাষাবিজ্ঞানের	-14060
▁ভূমধ্যসাগরীয়	-14061
▁রাষ্ট্রবিজ্ঞান	-14062
ইজ	-14063
উদ	-14064
ৈর	-14065
জেল	-14066
নিষ	-14067
াবু	-14068
্বন	-14069
▁চই	-14070
করণে	-14071
কেতু	-14072
কৌশল	-14073
ঙ্গু	-14074
ন্তন	-14075
পালা	-14076
িফিক	-14077
ুসের	-14078
োসিন	-14079
▁অনব	-14080
▁আইভ	-14081
▁কাং	-14082
▁তেহ	-14083
▁ধনে	-14084
▁বুশ	-14085
▁মাফ	-14086
▁লিস	-14087
▁সিউ	-14088
▁২৯৮	-14089
ক্তার	-14090
ক্তির	-14091
ঠাকুর	-14092
নাথের	-14093
নায়ক	-14094
বুদ্ধ	-14095
াক্রম	-14096
▁অরুন	-14097
▁আদলে	-14098
▁উনার	-14099
▁এমপি	-14100
▁ক্লো	-14101
▁দূষণ	-14102
▁নিসি	-14103
▁পটার	-14104
▁পিপল	-14105
▁ফ্যা	-14106
▁বসেন	-14107
▁বুনো	-14108
▁বেকড	-14109
▁ভাড়া	-14110
▁মণ্ড	-14111
▁মধুম	-14112
▁মুয়	-14113
▁যুবক	-14114
▁রুপে	-14115
▁সিএন	-14116
▁১৮৩৬	-14117
▁২৫শে	-14118
▁৩০০০	-14119
ইউটিসি	-14120
গাওয়া	-14121
বাস্তব	-14122
শ্রেণী	-14123
াইজেশন	-14124
▁অপেরা	-14125
▁অ্যাং	-14126
▁আসবাব	-14127
▁ইনফরম	-14128
▁ইনিংস	-14129
▁ইয়াজ	-14130
▁এরফলে	-14131
▁ওয়াহ	-14132
▁চ্যাপ	-14133
▁ছেলের	-14134
▁জামিল	-14135
▁ট্রাফ	-14136
▁তাঁরা	-14137
▁নাৎসি	-14138
▁নেহের	-14139
▁বিভাজ	-14140
▁মধ্যা	-14141
▁মাংসে	-14142
▁রাব্ব	-14143
▁রাশিদ	-14144
▁সরস্ব	-14145
▁সাথেও	-14146
▁হয়তো	-14147
▁হানিফ	-14148
▁হাসের	-14149
▁হিটের	-14150
▁হোস্ট	-14151
▁২জনের	-14152
গর্ভস্থ	-14153
জিক্যাল	-14154
েরিয়াল	-14155
োনিয়ার	-14156
▁অক্ষয়	-14157
▁অতিযোগ	-14158
▁আশুতোষ	-14159
▁ইম্প্র	-14160
▁ঘটিয়ে	-14161
▁তেঁতুল	-14162
▁নিয়েছে	-14163
▁পাবলিশ	-14164
▁পারফরম	-14165
▁বাসভবন	-14166
▁বিশ্লে	-14167
▁লাইবের	-14168
▁শীতকাল	-14169
▁সংবেদন	-14170
▁সুইমিং	-14171
▁স্ট্রী	-14172
▁হামলার	-14173
▁অজ্ঞেয়	-14174
▁অন্ধকার	-14175
▁অন্যদের	-14176
▁অভিধর্ম	-14177
▁উদ্ধৃতি	-14178
▁এপ্রিলে	-14179
▁গণহত্যা	-14180
▁চিত্রকর	-14181
▁পাঞ্চেন	-14182
▁প্রাচ্য	-14183
▁বাড়িটি	-14184
▁বানানোর	-14185
▁বিজ্ঞাপ	-14186
▁দুঃসাহসী	-14187
▁পার্শ্বে	-14188
▁মরুভূমির	-14189
▁মিলিটারি	-14190
▁মেসোপটেম	-14191
▁সিঙ্গারা	-14192
▁জনসংখ্যাত	-14193
▁টেলিফিল্ম	-14194
▁দিয়েছিলাম	-14195
▁প্রথমদিকে	-14196
▁বলিভিয়ার	-14197
▁ভেবেছিলাম	-14198
▁মহাভারতের	-14199
▁উন্নয়নশীল	-14200
▁পোড়ামাটির	-14201
▁প্রিমিয়াম	-14202
▁স্বরাষ্ট্র	-14203
▁অর্থমন্ত্রী	-14204
▁পরিবারভুক্ত	-14205
▁পোল্যান্ডের	-14206
▁প্রক্রিয়ার	-14207
▁বার্সেলোনার	-14208
▁প্রাণকেন্দ্র	-14209
▁বিদ্যালয়টির	-14210
▁ভাষাতাত্ত্বিক	-14211
▁শীর্ষস্থানীয়	-14212
▁চিকিৎসাবিজ্ঞান	-14213
অব	-14214
োই	-14215
গোম	-14216
গোশ	-14217
ঙ্ঘ	-14218
ডাউ	-14219
তিপ	-14220
থুন	-14221
মতো	-14222
ম্য	-14223
হাক	-14224
হেড	-14225
িজে	-14226
িটি	-14227
ুইড	-14228
েমস	-14229
্যক	-14230
্যম	-14231
ৎসু	-14232
▁৮ই	-14233
ক্যা	-14234
দন্ড	-14235
পুরী	-14236
ফিতে	-14237
ুঁটি	-14238
েশনঃ	-14239
▁অপো	-14240
▁অরে	-14241
▁কাফ	-14242
▁গের	-14243
▁চাব	-14244
▁ছিট	-14245
▁ঝাম	-14246
▁ডেড	-14247
▁ডেভ	-14248
▁রেশ	-14249
▁শিন	-14250
▁সবু	-14251
▁সস্	-14252
▁হলঃ	-14253
▁হেই	-14254
▁১৪৪	-14255
এখানে	-14256
গতকাল	-14257
গানের	-14258
থিয়া	-14259
শাররফ	-14260
স্টোন	-14261
িকারক	-14262
িবিলি	-14263
▁আমলা	-14264
▁উঠেন	-14265
▁উল্ল	-14266
▁কর্ক	-14267
▁গেইট	-14268
▁চেতন	-14269
▁টাটা	-14270
▁ডাকে	-14271
▁দিঘী	-14272
▁পরবে	-14273
▁পলিম	-14274
▁পাইন	-14275
▁প্রট	-14276
▁ভিজে	-14277
▁ভূনা	-14278
▁মনটা	-14279
▁মনির	-14280
▁রাজল	-14281
▁১৮৪৪	-14282
▁১৮৪৯	-14283
▁২০শে	-14284
ওয়ালি	-14285
ক্ষ্মী	-14286
ঞ্জস্য	-14287
সুন্দর	-14288
েন্টাল	-14289
্যাংকে	-14290
▁অবসান	-14291
▁অসুবি	-14292
▁ইহুদী	-14293
▁উপদেশ	-14294
▁ক্লোর	-14295
▁খালের	-14296
▁খোদাই	-14297
▁গ্রিস	-14298
▁দাঁড়	-14299
▁দুটির	-14300
▁ধর্ষণ	-14301
▁ধাতুর	-14302
▁নিখুঁ	-14303
▁নিজাম	-14304
▁নিত্য	-14305
▁বাল্য	-14306
▁মুরাদ	-14307
▁লিপ্ত	-14308
▁সভায়	-14309
▁সারণী	-14310
▁হাদীস	-14311
▁হারুন	-14312
বিন্যাস	-14313
র্দান্ত	-14314
সামগ্রী	-14315
িসত্ত্ব	-14316
▁অন্যটি	-14317
▁আটচালা	-14318
▁আব্দুর	-14319
▁ইনকর্প	-14320
▁এসেছিল	-14321
▁কেলভিন	-14322
▁গোড়ার	-14323
▁গোলাপী	-14324
▁গ্রাহক	-14325
▁ড্রাইভ	-14326
▁নাইট্র	-14327
▁পজিটিভ	-14328
▁পুনর্ব	-14329
▁ফেরদৌস	-14330
▁বন্ধনে	-14331
▁বর্ণটি	-14332
▁বোম্বে	-14333
▁মাখামা	-14334
▁মামলুক	-14335
▁মিশনের	-14336
▁লেফটেন	-14337
▁শামসুল	-14338
▁শিকারী	-14339
▁সমাহার	-14340
▁সমাহিত	-14341
▁হিন্দী	-14342
াপ্রাপ্ত	-14343
▁অনলাইনে	-14344
▁অ্যাক্স	-14345
▁আয়োজনে	-14346
▁আলীবর্দ	-14347
▁আহমেদের	-14348
▁ক্ষুধার	-14349
▁খাদ্যের	-14350
▁ট্রাঙ্ক	-14351
▁দৌলতপুর	-14352
▁পাদটিকা	-14353
▁বক্তব্য	-14354
▁বক্তৃতা	-14355
▁বুদ্ধিম	-14356
▁মরক্কোর	-14357
▁রাউন্ডে	-14358
▁সচেতনতা	-14359
▁সন্ধানে	-14360
▁সাজেস্ট	-14361
▁১০প্লেস	-14362
▁অর্ধপরিব	-14363
▁ঝাড়খণ্ড	-14364
▁দীঘিনালা	-14365
▁পন্ডিতের	-14366
▁পূর্ণিমা	-14367
▁প্রত্যয়	-14368
▁বর্গমাইল	-14369
▁বামপন্থী	-14370
▁মঙ্গলবার	-14371
▁সপ্তাহের	-14372
▁স্বপ্নের	-14373
▁উচ্চশিক্ষ	-14374
▁ছাত্রীদের	-14375
▁টেক্সাসের	-14376
▁পরিচালকের	-14377
▁প্রাধান্য	-14378
▁প্লেটারের	-14379
▁অধিনায়কের	-14380
▁অস্ট্রিয়া	-14381
▁অস্বাভাবিক	-14382
▁কোম্পানিটি	-14383
▁পার্বতীপুর	-14384
▁বিনামূল্যে	-14385
▁বিস্ফোরণের	-14386
▁যাত্রীবাহী	-14387
▁স্বনামধন্য	-14388
▁তেজস্ক্রিয়	-14389
▁পর্বতশ্রেণী	-14390
▁প্রাচীনকালে	-14391
▁ফাউন্ডেশনের	-14392
▁গ্র্যাজুয়েট	-14393
▁স্মৃতিস্তম্ভ	-14394
▁পূর্বাঞ্চলীয়	-14395
▁প্রামাণ্যচিত্র	-14396
ৃৎ	-14397
চরণ	-14398
ডাল	-14399
লান	-14400
লেখ	-14401
াচি	-14402
্মা	-14403
▁জস	-14404
▁ধু	-14405
▁নূ	-14406
এমএল	-14407
ট্রন	-14408
তিকর	-14409
য়াম	-14410
লিপি	-14411
ানিক	-14412
াবের	-14413
ারসন	-14414
্টরস	-14415
্যতা	-14416
▁অবন	-14417
▁ইমন	-14418
▁ওএস	-14419
▁তাড়	-14420
▁পৌষ	-14421
▁ভীর	-14422
▁যমজ	-14423
▁রাল	-14424
▁শিপ	-14425
▁শৈল	-14426
▁সিপ	-14427
▁হেপ	-14428
▁১১শ	-14429
▁৪নং	-14430
উন্টঃ	-14431
কর্তা	-14432
কিশোর	-14433
গাড়ি	-14434
ফ্রাই	-14435
ষ্টিক	-14436
স্তার	-14437
স্যার	-14438
িপন্ন	-14439
িৎজার	-14440
ুরাগী	-14441
ুলেশন	-14442
▁আইনি	-14443
▁উত্থ	-14444
▁উদ্ভ	-14445
▁উল্ট	-14446
▁কঠোর	-14447
▁গোয়	-14448
▁ঘটান	-14449
▁জারি	-14450
▁ঠাসা	-14451
▁দমদম	-14452
▁দলিল	-14453
▁পদবী	-14454
▁পুরে	-14455
▁বোতল	-14456
▁মতোন	-14457
▁রাইন	-14458
▁সতের	-14459
▁সুশি	-14460
▁হরিশ	-14461
▁১৮৫২	-14462
▁৩৪টি	-14463
বিশেষে	-14464
মাত্রা	-14465
লেশ্বর	-14466
ালিটির	-14467
োর্টের	-14468
্যাক্ট	-14469
▁আবশ্য	-14470
▁উইসকন	-14471
▁কান্ত	-14472
▁কার্ন	-14473
▁কিছুদ	-14474
▁কোরাল	-14475
▁খাতুন	-14476
▁চর্বি	-14477
▁চেয়ার	-14478
▁জিন্দ	-14479
▁তামাক	-14480
▁দায়ী	-14481
▁দালান	-14482
▁ধ্যান	-14483
▁পকেটে	-14484
▁পুস্ত	-14485
▁ফ্রেম	-14486
▁বক্তা	-14487
▁বহিরা	-14488
▁বাঁধা	-14489
▁বুন্দ	-14490
▁ভলিবল	-14491
▁মিলান	-14492
▁মৈত্র	-14493
▁মোটেও	-14494
▁যেটার	-14495
▁শাখায়	-14496
▁শিকড়	-14497
▁শুল্ক	-14498
▁সংসদে	-14499
▁সাইজে	-14500
গাছিয়া	-14501
স্তানের	-14502
▁অমৃতসর	-14503
▁আশঙ্কা	-14504
▁উপসর্গ	-14505
▁গ্যুমে	-14506
▁জঙ্গলে	-14507
▁জর্ডান	-14508
▁জাতিগত	-14509
▁জানানো	-14510
▁পাঠাতে	-14511
▁পারছেন	-14512
▁বাড়তে	-14513
▁বান্ধব	-14514
▁মার্কে	-14515
▁মাহবুব	-14516
▁মিশিয়ে	-14517
▁মোল্লা	-14518
▁রাজস্ব	-14519
▁লরেন্স	-14520
▁হরিপুর	-14521
নিরপেক্ষ	-14522
▁ওড়িয়া	-14523
▁কর্ণফুল	-14524
▁কাতালান	-14525
▁ক্রেডিট	-14526
▁খেয়েছি	-14527
▁চিন্তাধ	-14528
▁ছোটবেলা	-14529
▁জায়গার	-14530
▁ডেটাবেজ	-14531
▁পাদদেশে	-14532
▁বাদামের	-14533
▁ভূমিরূপ	-14534
▁মালিকের	-14535
▁স্টিভেন	-14536
▁স্টোরেজ	-14537
▁স্বদেশী	-14538
স্ট্যান্ড	-14539
▁আনোয়ারা	-14540
▁ওশেনিয়া	-14541
▁কারাগারে	-14542
▁ক্রাইস্ট	-14543
▁দুর্ঘটনা	-14544
▁দৈর্ঘ্যে	-14545
▁প্রচারের	-14546
▁প্রদেশটি	-14547
▁বাগদাদের	-14548
▁ভাষাগুলি	-14549
▁রাউন্ডার	-14550
▁লিথুয়ান	-14551
▁লেখাপড়া	-14552
▁ইলেক্ট্রন	-14553
▁ক্ষুদ্রতম	-14554
▁খ্যাতিমান	-14555
▁ডিব্রুগড়	-14556
▁নাগরিকদের	-14557
▁ব্যবহারিক	-14558
▁ব্যান্ডটি	-14559
▁ভূগর্ভস্থ	-14560
▁মহাবিপন্ন	-14561
▁অবস্থান্তর	-14562
▁পাণ্ডুলিপি	-14563
▁পিকচার্সের	-14564
▁ব্যারাকপুর	-14565
▁ভারোত্তোলন	-14566
▁রায়চৌধুরী	-14567
▁সরকারিভাবে	-14568
▁অবসরপ্রাপ্ত	-14569
▁এ্যাকাউন্টঃ	-14570
▁ক্যারিবিয়ান	-14571
▁পূর্ণদৈর্ঘ্য	-14572
▁প্রতিষ্ঠাকাল	-14573
▁নিউজিল্যান্ডে	-14574
ত্	-14575
কিল	-14576
খাত	-14577
গিত	-14578
ঙেন	-14579
চিল	-14580
ডিন	-14581
দুম	-14582
নাত	-14583
বাং	-14584
বিধ	-14585
যশা	-14586
রেড	-14587
হুম	-14588
াতন	-14589
েকট	-14590
ঘ্রই	-14591
তলের	-14592
ত্রা	-14593
বহুল	-14594
রানি	-14595
সূদন	-14596
েলাস	-14597
োসিস	-14598
▁অরি	-14599
▁ঘনী	-14600
▁ডবল	-14601
▁থার	-14602
▁থিন	-14603
▁নুস	-14604
▁পিউ	-14605
▁ফাজ	-14606
▁ফিড	-14607
▁ফৌজ	-14608
▁বমি	-14609
▁ভির	-14610
▁মিচ	-14611
▁মেধ	-14612
▁রিব	-14613
▁শ্ল	-14614
▁সাও	-14615
▁হুক	-14616
কিছুর	-14617
গ্রসর	-14618
ঙ্গিক	-14619
চারাল	-14620
দন্তী	-14621
সাগরে	-14622
োয়েল	-14623
▁আইটি	-14624
▁ক্রি	-14625
▁গালি	-14626
▁গ্রো	-14627
▁ঘোষণ	-14628
▁নাড়	-14629
▁নিউগ	-14630
▁পর্ষ	-14631
▁পাইক	-14632
▁পৌছে	-14633
▁বন্ড	-14634
▁বরোর	-14635
▁বল্ল	-14636
▁বাজি	-14637
▁বিএম	-14638
▁ভেজা	-14639
▁মাইজ	-14640
▁মালি	-14641
▁রোশন	-14642
▁শাহ্	-14643
▁১৭টি	-14644
▁১৮১১	-14645
▁১৮৪৫	-14646
উল্লাহ	-14647
পিজ্জা	-14648
ভুক্তি	-14649
সমূহকে	-14650
ান্তরে	-14651
াপত্তন	-14652
▁আসন্ন	-14653
▁আয়োজন	-14654
▁ইউরেন	-14655
▁ইনপুট	-14656
▁ইয়াম	-14657
▁উপনিষ	-14658
▁এইটার	-14659
▁কাকড়া	-14660
▁চায়ের	-14661
▁চৈনিক	-14662
▁ডাউনি	-14663
▁পরিগণ	-14664
▁বসানো	-14665
▁বেনার	-14666
▁বৈদিক	-14667
▁মেজ্জ	-14668
▁মোস্ট	-14669
▁মোহনা	-14670
▁যেটির	-14671
▁ল্যাক	-14672
▁শুটিং	-14673
▁সময়ই	-14674
▁সাড়া	-14675
▁হারাম	-14676
বাজারের	-14677
▁অনবদ্য	-14678
▁অর্থের	-14679
▁অর্ন্ত	-14680
▁আওরঙ্গ	-14681
▁আগস্টে	-14682
▁আমদানি	-14683
▁ইঙ্গিত	-14684
▁ওনাদের	-14685
▁ঘণ্টার	-14686
▁জব্বার	-14687
▁ড্রামস	-14688
▁তারপরও	-14689
▁ধামরাই	-14690
▁ধামাকা	-14691
▁ধারায়	-14692
▁নকিয়া	-14693
▁প্রণীত	-14694
▁যোরহাট	-14695
▁সাহসিক	-14696
▁সিথিয়	-14697
▁স্টোরি	-14698
▁স্বত্ব	-14699
িল্যান্ড	-14700
▁অনগ্রসর	-14701
▁আইটেমটা	-14702
▁কনভেনশন	-14703
▁ক্রমাগত	-14704
▁খাবারটি	-14705
▁গুজরাতি	-14706
▁চলাচলের	-14707
▁জিগাতলা	-14708
▁নিকোলাস	-14709
▁পিছিয়ে	-14710
▁ফ্যান্ট	-14711
▁বন্ধুকে	-14712
▁বেলজীয়	-14713
▁মাওলানা	-14714
▁শ্রীনগর	-14715
▁শ্রীপুর	-14716
▁সংগঠনটি	-14717
▁সংস্থান	-14718
▁সময়কার	-14719
▁সার্কিট	-14720
▁সিরাজুল	-14721
▁সূক্ষ্ম	-14722
▁হাইড্রো	-14723
কেন্দ্রিক	-14724
▁এসেছিলেন	-14725
▁গোলরক্ষক	-14726
▁জর্জিয়া	-14727
▁দর্শকদের	-14728
▁দেশগুলোর	-14729
▁পাঞ্জাবী	-14730
▁পুলিৎজার	-14731
▁বাইবেলের	-14732
▁সংখ্যাকে	-14733
▁সেকেন্ডে	-14734
▁কালাভুনার	-14735
▁গগনচুম্বী	-14736
▁জেরুসালেম	-14737
▁টেক্সটাইল	-14738
▁বিবেচনায়	-14739
▁১০পরিবেশঃ	-14740
▁দুর্ঘটনায়	-14741
▁পর্যালোচনা	-14742
▁পুরাকীর্তি	-14743
▁ফিলিস্তিনি	-14744
▁মাটিরাঙ্গা	-14745
▁রাষ্ট্রদূত	-14746
▁স্টুয়ার্ট	-14747
▁অ্যাডভেঞ্চার	-14748
▁অ্যাপ্লিকেশন	-14749
▁আলিপুরদুয়ার	-14750
▁ভেনেজুয়েলার	-14751
▁আন্তর্জাতিকের	-14752
▁মালয়েশিয়ায়	-14753
▁জনসংখ্যাতত্ত্ব	-14754
▁স্বায়ত্বশাসিত	-14755
ংখ	-14756
সই	-14757
৫৯	-14758
কলন	-14759
কুব	-14760
খিচ	-14761
টুক	-14762
দাহ	-14763
দেহ	-14764
দোল	-14765
ধাম	-14766
নকে	-14767
লাক	-14768
শুল	-14769
হিন	-14770
েনহ	-14771
ড়াই	-14772
▁আয	-14773
▁রই	-14774
আন্ত	-14775
এমএস	-14776
বুকে	-14777
লেখা	-14778
াইয়	-14779
িজের	-14780
ুগ্ধ	-14781
ুজীব	-14782
ুদের	-14783
▁আকা	-14784
▁কীট	-14785
▁কুট	-14786
▁গজল	-14787
▁ছুব	-14788
▁জনশ	-14789
▁ঝাঝ	-14790
▁টিপ	-14791
▁টুই	-14792
▁টুন	-14793
▁দোহ	-14794
▁ভান	-14795
▁মডি	-14796
▁মিত	-14797
▁লাত	-14798
▁লুড	-14799
▁হেস	-14800
ঁয়াজ	-14801
গ্রোভ	-14802
শ্বিন	-14803
ষ্কের	-14804
ায়েদ	-14805
ার্টি	-14806
িত্রে	-14807
▁আউগু	-14808
▁আরোপ	-14809
▁কিরণ	-14810
▁কেনো	-14811
▁খোঁজ	-14812
▁চন্দ	-14813
▁ছাগল	-14814
▁তামা	-14815
▁থমাস	-14816
▁দুরে	-14817
▁নবীন	-14818
▁নিউর	-14819
▁পাশা	-14820
▁বক্ষ	-14821
▁বচ্চ	-14822
▁বাসী	-14823
▁বিস্	-14824
▁ভায়	-14825
▁মজাই	-14826
▁রকেট	-14827
▁লতিফ	-14828
▁সিনে	-14829
▁হেটে	-14830
▁১৮২৩	-14831
▁১৮২৪	-14832
▁১৮৪২	-14833
▁১৮৫৪	-14834
▁১৮৬৬	-14835
রবার্ট	-14836
্রাহাম	-14837
▁অঞ্জন	-14838
▁আনসার	-14839
▁আসরের	-14840
▁উভয়ই	-14841
▁কারাক	-14842
▁ক্রমে	-14843
▁ছাড়াও	-14844
▁জৈন্ত	-14845
▁ঝালমু	-14846
▁তাইতো	-14847
▁দ্রুং	-14848
▁নবজাগ	-14849
▁নাজিম	-14850
▁নিন্ম	-14851
▁পুঁথি	-14852
▁প্রলে	-14853
▁ফোর্ড	-14854
▁বয়কট	-14855
▁বেঞ্জ	-14856
▁বোবার	-14857
▁ভাদ্র	-14858
▁ভোজ্য	-14859
▁মচমচে	-14860
▁যেখান	-14861
▁যৌগিক	-14862
▁লেজার	-14863
▁লোহার	-14864
▁ল্যান	-14865
▁শিমুল	-14866
▁সরিষা	-14867
▁সোমাল	-14868
▁হার্জ	-14869
▁আইবিএম	-14870
▁আচ্ছাদ	-14871
▁ইছামতি	-14872
▁এধরনের	-14873
▁কাটাতে	-14874
▁জলন্ধর	-14875
▁নিকটতম	-14876
▁নিরক্ষ	-14877
▁নেক্সট	-14878
▁পরিকাঠ	-14879
▁পরিবহণ	-14880
▁বোয়াল	-14881
▁রিয়াজ	-14882
▁রোয়িং	-14883
▁সমাদৃত	-14884
▁স্প্রি	-14885
▁হাঙ্গর	-14886
▁্যান্ড	-14887
▁ইরানীয়	-14888
▁উপনির্ব	-14889
▁এমনিতেই	-14890
▁কোলকাতা	-14891
▁ক্রিস্ট	-14892
▁ক্ষতিকর	-14893
▁জওহরলাল	-14894
▁দীক্ষিত	-14895
▁পদত্যাগ	-14896
▁প্রয়াত	-14897
▁বার্বাড	-14898
▁ব্র্তান	-14899
▁শিক্ষান	-14900
▁স্যাক্স	-14901
▁হাজারের	-14902
▁উদীয়মান	-14903
▁কর্তৃত্ব	-14904
▁নীতিমালা	-14905
▁পাস্তাটা	-14906
▁প্যাকেজে	-14907
▁প্রণালীর	-14908
▁বিন্দুতে	-14909
▁বিস্ফোরক	-14910
▁ব্যানারে	-14911
▁মণিপুরের	-14912
▁মেগাওয়া	-14913
▁সৈয়দপুর	-14914
▁অকল্যান্ড	-14915
▁পটাসিয়াম	-14916
▁প্রেক্ষাগ	-14917
▁বেলজিয়াম	-14918
▁মন্দিরটির	-14919
▁রাজকুমারী	-14920
▁হাটহাজারী	-14921
▁ইথিওপিয়ার	-14922
▁কানাডিয়ান	-14923
▁চুক্তিবদ্ধ	-14924
▁পারফেক্টলি	-14925
▁বার্সেলোনা	-14926
▁শ্রীরামপুর	-14927
▁ইম্পেরিয়াল	-14928
▁কমপ্লেক্সটি	-14929
▁ক্রোয়েশীয়	-14930
▁পরীক্ষামূলক	-14931
▁বিশ্বতত্ত্ব	-14932
▁ভার্জিনিয়া	-14933
▁শিক্ষালাভের	-14934
▁ধর্মনিরপেক্ষ	-14935
▁প্রেসিডেন্সি	-14936
▁জ্যোতিঃপদার্থ	-14937
▁ব্যক্তিবর্গকে	-14938
▁রেস্টুরেন্টটি	-14939
▁আলহামদুলিল্লাহ্	-14940
এত	-14941
তঃ	-14942
নু	-14943
ুথ	-14944
৭৯	-14945
গাল	-14946
চনা	-14947
চুন	-14948
থাই	-14949
দাল	-14950
দুই	-14951
ন্জ	-14952
পাখ	-14953
পুত	-14954
াপদ	-14955
াবল	-14956
েইক	-14957
োগে	-14958
্টু	-14959
▁খস	-14960
▁জঁ	-14961
▁সও	-14962
কোহল	-14963
খারী	-14964
ন্ডী	-14965
পঞ্চ	-14966
বিএস	-14967
ভোজী	-14968
মিশন	-14969
শীয়	-14970
শেখর	-14971
সেবা	-14972
স্কর	-14973
ারাও	-14974
ায়ার	-14975
িমির	-14976
োমার	-14977
▁আটা	-14978
▁আফস	-14979
▁ছাঁ	-14980
▁নবর	-14981
▁নেল	-14982
▁পিল	-14983
▁ফ্য	-14984
▁বুজ	-14985
▁বৈঠ	-14986
▁ভাং	-14987
▁রজন	-14988
▁রেট	-14989
▁শাপ	-14990
▁সবচ	-14991
▁৫নং	-14992
▁৬৩০	-14993
ড়িতে	-14994
র্জার	-14995
লিপুর	-14996
ার্কে	-14997
াল্টি	-14998
▁অবৈধ	-14999
▁আটজন	-15000
▁আবিস	-15001
▁একের	-15002
▁এনিম	-15003
▁এম্ব	-15004
▁কোলহ	-15005
▁কোষে	-15006
▁গদ্য	-15007
▁চল্ল	-15008
▁দামও	-15009
▁নয়া	-15010
▁পনির	-15011
▁পরিত	-15012
▁পারভ	-15013
▁বাটা	-15014
▁ভালব	-15015
▁মজিদ	-15016
▁যাবৎ	-15017
▁শোষণ	-15018
▁সিংগ	-15019
▁স্দে	-15020
▁১৬০০	-15021
▁১৮০১	-15022
▁২পিস	-15023
▁৩১শে	-15024
বনশ্রী	-15025
স্তরের	-15026
▁করবার	-15027
▁কিনতে	-15028
▁খোঁজে	-15029
▁খ্রিঃ	-15030
▁গিয়েই	-15031
▁চাষের	-15032
▁চূড়া	-15033
▁ডেইলি	-15034
▁দুজনে	-15035
▁দোলনা	-15036
▁পাড়ি	-15037
▁বিপণন	-15038
▁বুলেট	-15039
▁ব্রাস	-15040
▁মাঝেম	-15041
▁রসালো	-15042
▁শিশুস	-15043
▁শুদ্ধ	-15044
▁সাইডস	-15045
▁সামার	-15046
▁স্ক্য	-15047
▁হাফিজ	-15048
▁হেক্স	-15049
ম্যানের	-15050
সম্পন্ন	-15051
স্তাপুর	-15052
▁আজিজুল	-15053
▁ইন্দোর	-15054
▁একবারে	-15055
▁কোর্সে	-15056
▁ঘূর্ণন	-15057
▁ছাত্রছ	-15058
▁ঝুলন্ত	-15059
▁টেলিকম	-15060
▁ঠোঁটের	-15061
▁ঢুকলাম	-15062
▁নিখুঁত	-15063
▁পদাতিক	-15064
▁পরিধান	-15065
▁পশ্চাৎ	-15066
▁ফিল্ডস	-15067
▁বরুয়া	-15068
▁বিবৃতি	-15069
▁রক্ষার	-15070
▁রেসিডে	-15071
▁লাগলেও	-15072
▁শহরতলী	-15073
▁শ্রাবণ	-15074
▁সাসলিক	-15075
ভিনেত্রী	-15076
▁উদ্যানে	-15077
▁তেলেঙ্গ	-15078
▁পেট্রোল	-15079
▁প্যারাগ	-15080
▁প্রিন্ট	-15081
▁বস্তুকে	-15082
▁বেলারুশ	-15083
▁বেষ্টিত	-15084
▁ভিডিওতে	-15085
▁লবণাক্ত	-15086
▁লম্বাটে	-15087
▁লাগিয়ে	-15088
▁লাদাখের	-15089
▁সম্পাদন	-15090
▁সহকর্মী	-15091
▁সুমাত্র	-15092
▁উদ্ভাবিত	-15093
▁একেবারেই	-15094
▁কালপুরুষ	-15095
▁গিয়েছিলো	-15096
▁গ্রেফতার	-15097
▁জনহিতৈষী	-15098
▁প্রবেশপথ	-15099
▁বহনযোগ্য	-15100
▁মুখার্জী	-15101
▁রাজশাহীর	-15102
▁শরণার্থী	-15103
▁সমাজবাদী	-15104
▁স্পেশালি	-15105
রাষ্ট্রপতি	-15106
▁আলজেরিয়া	-15107
▁ঘূর্ণিঝড়	-15108
▁পর্যটকদের	-15109
▁পুরুষবাচক	-15110
▁ফিলিস্তিন	-15111
▁মহাসড়কটি	-15112
▁যন্ত্রাংশ	-15113
▁সেন্টারের	-15114
▁অ্যান্ড্রু	-15115
▁ইউনাইটেডের	-15116
▁উত্তরপূর্ব	-15117
▁ব্রিটিশদের	-15118
▁মুহাম্মদের	-15119
▁দ্বীপপুঞ্জে	-15120
▁হায়দ্রাবাদি	-15121
▁ডিস্কোগ্রাফি	-15122
▁খ্রিস্টাব্দের	-15123
▁ফেব্রুয়ারিতে	-15124
▁লিঙ্গানুপাতের	-15125
ভু	-15126
কোল	-15127
গাং	-15128
গিল	-15129
গুর	-15130
ণুর	-15131
তাজ	-15132
বাঁ	-15133
শতম	-15134
শুর	-15135
সিও	-15136
িণী	-15137
েমা	-15138
োকো	-15139
্লগ	-15140
ড়ায়	-15141
য়ায়	-15142
য়েস	-15143
▁ইয়	-15144
▁ওভ	-15145
▁ওম	-15146
▁রড	-15147
▁সৎ	-15148
জিলা	-15149
ঞ্জা	-15150
টাতে	-15151
ডাউন	-15152
বারা	-15153
ভাষক	-15154
সিবি	-15155
সেনা	-15156
াণুর	-15157
াহীন	-15158
িন্ট	-15159
ৃত্য	-15160
েসলি	-15161
োকার	-15162
্পার	-15163
▁অপস	-15164
▁আদা	-15165
▁এএফ	-15166
▁করণ	-15167
▁চিহ	-15168
▁ডাঃ	-15169
▁তো	-15170
▁বসা	-15171
▁বেজ	-15172
▁যোন	-15173
▁লেই	-15174
▁শুম	-15175
▁শোর	-15176
▁হাং	-15177
▁২৪৫	-15178
উয়ের	-15179
ত্তির	-15180
দ্বয়	-15181
নগরের	-15182
বিত্ত	-15183
মণ্ডল	-15184
মূর্ত	-15185
রাজ্য	-15186
াইলার	-15187
ালয়ে	-15188
েরিলা	-15189
০টাকা	-15190
▁অজিত	-15191
▁অনিল	-15192
▁অভিস	-15193
▁ইঞ্চ	-15194
▁ইমার	-15195
▁ইস্ত	-15196
▁এককে	-15197
▁এঙ্গ	-15198
▁ওভেন	-15199
▁ওরফে	-15200
▁কবিত	-15201
▁কিমা	-15202
▁কুড়	-15203
▁চাটন	-15204
▁চিজে	-15205
▁ছিলঃ	-15206
▁ট্রা	-15207
▁ধাপে	-15208
▁নটিং	-15209
▁পটাশ	-15210
▁ফন্ট	-15211
▁বঙ্ক	-15212
▁মহিষ	-15213
▁রঙিন	-15214
▁রসুন	-15215
▁রাখি	-15216
▁হিজর	-15217
▁১৭৯২	-15218
প্রতিক	-15219
বিগ্রহ	-15220
াতাদের	-15221
ার্গিল	-15222
▁অংশকে	-15223
▁অব্যা	-15224
▁আনিমে	-15225
▁উৎসাহ	-15226
▁এগারো	-15227
▁কিসের	-15228
▁কেন্ট	-15229
▁খাশির	-15230
▁খেতেই	-15231
▁গিনির	-15232
▁চিনির	-15233
▁জামুন	-15234
▁ঝরঝরা	-15235
▁ঢুকেই	-15236
▁তাহের	-15237
▁নাসার	-15238
▁নাহলে	-15239
▁ফজলুল	-15240
▁ব্যোম	-15241
▁মাছরা	-15242
▁মারতে	-15243
▁সংসার	-15244
▁সুনীল	-15245
▁স্কাল	-15246
▁স্তাগ	-15247
ধানমন্ড	-15248
মিডিয়া	-15249
িয়েন্ট	-15250
▁অবতারী	-15251
▁অ্যাডভ	-15252
▁আকৃষ্ট	-15253
▁আশ্বিন	-15254
▁কক্ষের	-15255
▁কেল্লা	-15256
▁গঙ্গার	-15257
▁গ্যুতো	-15258
▁চিড়িয়া	-15259
▁টরন্টো	-15260
▁ডলারের	-15261
▁নববর্ষ	-15262
▁পপুলার	-15263
▁প্লেসে	-15264
▁বিকশিত	-15265
▁ভাঙ্গা	-15266
▁মদিনার	-15267
▁মহাযান	-15268
▁ম্যারা	-15269
▁যাবেনা	-15270
▁লাইনটি	-15271
▁সোনালি	-15272
শাআল্লাহ	-15273
ানিক্যাল	-15274
্রদায়িক	-15275
▁অন্তরীপ	-15276
▁আপনারাও	-15277
▁নাগরপুর	-15278
▁পানছড়ি	-15279
▁প্রবণতা	-15280
▁প্রভাষক	-15281
▁রায়গড়	-15282
▁রিভিউতে	-15283
▁রেকর্ডস	-15284
▁লাহোরের	-15285
▁শ্যুটিং	-15286
▁সরস্বতী	-15287
▁সুলতানা	-15288
▁গোপালপুর	-15289
▁টিনটিনের	-15290
▁ডায়মন্ড	-15291
▁ডিসকভারি	-15292
▁তুর্কমেন	-15293
▁দিয়েছিলো	-15294
▁নান্দনিক	-15295
▁প্রবক্তা	-15296
▁প্রশংসিত	-15297
▁বাবুর্চি	-15298
▁রক্ষণশীল	-15299
▁রাজকুমার	-15300
▁রেলওয়ের	-15301
▁শিরোনামে	-15302
▁সময়রেখা	-15303
▁সেন্টারে	-15304
[...]
